#version: 0.2 - Trained by `huggingface/tokenizers`
Ġ Ġ
- -
ĠĠ ĠĠ
-- --
ĠĠ Ġ
o r
e r
i n
> <
s e
o n
---- ----
r e
Ġ t
a t
i m
ĠĠĠĠ ĠĠĠ
e n
s t
or t
p ort
im port
r o
l e
Ġ a
" "
d e
Ġ =
a l
h e
: <
Ġ f
) <
a r
i on
ro m
u t
i t
-------- --------
Ġ c
Ġ import
č Ċ
> #
i s
i c
f rom
Ġ p
Ġ re
_ _
. <
in g
a n
l f
se lf
u r
Ġ s
Ġ o
e d
a m
e s
e t
i l
a s
c t
"" "
Ġt he
Ġ in
Ġ b
Ġ n
Ġ d
l o
en t
) :<
Ġ w
Ġ T
Ġ m
de f
a c
r i
, <
Ġ (
u n
i st
o l
ĠĠĠĠ ĠĠĠĠ
a d
Ġ '
i f
Ġ P
e x
c h
p t
""" <
h t
Ġ self
---------------- ----------------
Ġ is
Ġ l
er s
ur n
o m
o de
p y
p e
Ġ C
i le
o d
ĠĠĠĠ ĠĠĠĠĠĠĠ
e l
a b
u e
as s
Ġt o
Ġre t
Ġ def
r a
o t
u l
Ġret urn
c e
am e
i g
a g
Ġ L
m ent
Ġa n
Ġf or
Ġ S
c l
Ġ "
at h
Ġ 2
Ġo f
in t
st r
u p
Ġ A
al l
it h
Ġ #
i d
t h
Ġt h
Ġ g
en se
r or
Ġ -
i b
Ġ .
a se
Ġa s
ac k
ic ense
on e
Ġ N
at ion
Ġ G
Ġ I
Ġ if
u m
ut il
or ch
Ġ __
Ġ R
i z
or m
u re
ab le
Ġan d
cl ass
d er
Ġ D
v e
ex t
i r
u b
~ ~
ri b
pt ion
an d
Ġ v
ĠP y
Ġ F
] <
Ġ """<
y pe
e m
at a
># <
rib ut
E r
at e
Ġw ith
Ġ _
ag e
ers ion
i p
Er ror
' ,
g ht
o py
n ame
ct ion
p l
. _
__ (
ri ght
p ath
s er
Ġ h
Ġd ist
o ol
t er
Ġt orch
Ġf rom
s s
Ġf ile
E N
c on
Ġ or
en d
Ġ *
util s
Ġ """
ul t
iz e
ic t
c om
g s
Ġc on
Ġ str
u le
` `
Ġ un
Ġ [
Ġ u
od ule
k e
Ġ lo
a p
Ġ 1
p ar
opy right
e ct
se t
( )<
i x
t r
p o
ĠN one
Ġ- >
y s
g et
Ġb e
Ġ O
en s
y p
= =
st all
Ġn ot
i re
l ib
in it
Ġ M
( '
-------------------------------- --------------------------------
th on
I n
a il
Ġ st
f ile
Ġ de
v er
s o
Ġ2 0
ĠC opyright
Ġth is
Ġ B
Ġdist ribut
Ġ it
q u
( )
Ġo s
ut ure
c k
f orm
u il
Ġ im
p s
a re
# #
Ġ ex
h is
v ersion
ur l
Ġs o
ĠT he
Ġ ----------------------------------------------------------------
g g
Ġdistribut ed
if i
ht t
Ġ 0
t o
ĠĠĠĠĠĠĠĠ ĠĠĠĠĠĠĠĠ
at er
al ue
en er
S E
Ġ r
2 0
ad er
b j
ode l
/ /
P L
p le
ac he
p re
-- <
r ue
Ġ e
Ġ---------------------------------------------------------------- --<
p ut
ar gs
> >
r y
' )<
: //
o k
or e
ra p
i v
f t
Ġb y
e st
Ġg et
q ue
Ġ on
ĠT his
Ġ W
ĠL icense
d ata
a y
i se
d ir
Ġ +
es s
ens or
( "
o w
Ġp ip
~~ ~~
Ġ :
an g
I C
) )<
> """<
Ġ H
n t
" ,
x t
Ġ 3
ig ht
htt ps
Ġa l
ĠD e
ifi er
b o
ac e
Ġ y
s ize
im e
Ġc ol
Ġp ar
ul l
al se
Ġc om
ct or
m s
' ,<
' <
er n
p er
p en
a in
Ġ x
) .
Ġ U
un d
Ġ se
Ġth at
c ode
in d
in e
E R
In stall
Ġc l
bj ect
Ġ E
Ġt yp
et h
ĠĠĠĠĠĠĠĠ ĠĠĠĠĠĠĠ
Ġu se
w are
ar y
up le
ur ce
' :
( <
Ġs ys
Install er
Ġ {
ĠPy Installer
Ġp ro
Ġw h
ft ware
f uture
p ro
t xt
C on
un ction
ment s
ption al
Ġun der
" )<
at ed
) .<
d ent
Ġin t
e w
ĠPy thon
0 0
l y
EN SE
IC ENSE
. """<
t ext
ĠL ICENSE
s c
l ic
ar d
eth od
m odel
v al
he ad
pe c
que st
Ġp ath
lo w
f o
f ig
r int
. .
uil d
A T
Ġ ``
Ġ V
Ġa v
Ġt er
" ,<
ig n
a ult
n ing
ool s
Ġs up
Ġn um
ĠG ener
Ġn ame
N U
el se
Ġl icense
an s
Ġso ftware
Ġtyp ing
L icense
ce pt
I N
at or
Ġter ms
e am
i al
t ype
re e
Ġt ype
ail able
o c
R e
" <
u s
ub lic
m a
o ut
R E
== ==
P D
h a
ar t
p at
p ack
ap p
Ġf ull
ra ise
ĠS PD
ĠSPD X
n n
i o
= '
Ġm odule
i ve
Ġc h
Ġcol le
f f
Ġ /
Ġre s
ĠG NU
I dent
Ġa re
ĠGener al
ĠP ublic
ve lo
Ġ <
Ġav ailable
velo p
er ror
st an
Ident ifier
) ,
k w
velop ment
e g
. __
ĠO ptional
o s
D E
Ġ set
ol ut
bo x
O R
o ok
l l
ĠT eam
ĠDe velopment
Ġ en
Ġ= =
n um
re s
qu ire
O N
m odule
Ġl ist
ption s
M A
he ck
it er
ĠC on
Ġ https
Ġ raise
ĠI n
th er
Ġl ater
M E
m and
b ase
ĠA n
## ##
ang e
ke y
ĠI m
Ġa b
t s
v ed
Ġa r
Ġ* *
) :
rap h
T rue
kw args
N one
Ġo bject
par se
U L
Ġv alue
i el
end or
Ġlo gg
f g
Ġcon t
d ist
S T
f ix
m o
Ġ url
l ater
or d
iel d
ĠG PL
Ġ20 20
G PL
ar ning
lo ad
h er
u st
Ġ `
Ġd ata
3 2
L o
b ack
at t
Ġw e
Ġm a
y le
ĠL ist
S S
d ict
s ing
i de
at ase
v endor
il l
o und
Ġ else
ĠF alse
ctor y
o int
Ġp y
am es
[ '
ĠT rue
in fo
Ġc an
i es
u g
Ġp re
od ing
ra in
ag es
Ġh as
) ,<
M L
Ġa d
el s
Ġf uture
Ġf unction
ic h
Ġs h
at ch
ern al
Ġ ro
stan ce
a ct
Ġ >>
ic ode
2 1
Ġn p
Ġl ib
Ġb ool
e at
( ):<
A N
Ġs c
ad d
ith ub
Ġ>> >
or g
g ithub
c fg
ĠT ensor
c ache
Ġd ict
int ernal
Ġab s
F A
i ent
er t
it em
po int
Ġlogg ing
Ġstr ing
T ype
p on
} <
in k
et urn
par am
R es
m e
Ġc ode
UL T
O T
l ist
m l
it y
a st
po se
so urce
Ġcl ass
t es
yp es
gg er
ĠU n
] ,
m et
is ion
Ġn n
c ess
e p
Ġo ther
A R
Ġ @
de x
ans form
m an
en v
ut h
it e
Ġy o
t orch
u es
as ic
ess age
FA ULT
Ġp ack
ment ation
Ġo ut
so le
olut e
ce ption
' ]<
ĠS e
a ve
ar k
Ġn o
E T
O C
x y
re g
Ġdist utils
E x
j o
ĠR e
ire ctory
~~~~ ~~~~
ction s
con fig
re ad
Ġw ill
ha pe
ĠAn y
c ol
Ġ he
' ]
I T
Ġ k
at tr
lo b
Ġv ersion
> @
t e
Ġ )<
Ġp ass
lo at
T P
at ter
ser t
Ġabs olute
t in
Ġ |
B ase
Ġp rint
tr y
Ġl en
Ġdef ault
S t
ĠT uple
> __
se s
en ce
A L
T TP
d a
DE FAULT
2 2
Ġb ack
Ġv al
b uil
Ġ %
Ġ. .
re ate
pl ace
file s
l ass
jo in
> _
u al
all y
l en
v alue
Ġb ase
Ġsup er
in al
Ġt ime
Ġim g
re am
Ġt ry
in stance
port Error
ĠA ll
at es
val id
F alse
b er
g r
w in
Ġb uild
H E
er e
con t
atase t
' s
m ethod
Ġuse d
P E
Ġm ethod
Ġs ub
orm al
Ġex cept
E D
Ġ[ '
ĠIm portError
f er
o ul
or k
ĠA r
Ġ >
Ġm m
ir on
Ġd at
ab s
oul d
S I
ation s
w ith
Ġs pec
app end
r ary
Ġn ew
pl it
Ġun icode
I m
ion s
==== ====
error s
- <
c es
Ġt ext
ro p
am ple
ri pt
ad ata
an n
Ġad d
se d
i an
p rint
s on
Ġf un
ut f
ow n
Ġcolle ctions
lo ck
ch or
SS L
. ,
c oding
Ġn ode
ir st
Ġcolle ct
a le
o g
Ġ right
il en
Ġan y
str u
ĠI ter
Ġ le
Ġ key
Ġc o
g e
Ġc heck
ure s
P y
b y
ĠĠĠĠ Ġ
ro up
ĠR es
head ers
G EN
N et
t y
Ġre quest
M odule
p ace
ar get
ĠP Y
ĠA p
tr ing
i ke
s ub
t est
D I
o pt
w e
Ġo pen
Ġn e
Ġd o
Ġ( <
Ġwh en
O L
] )<
g ments
l p
Ġ j
Ġ[ ]<
Ġ20 1
f or
n e
Ġin put
int er
k en
IN G
iter al
Ġcont ain
uth or
' )
D ict
f unction
l ay
le ment
ex cept
ab el
Ġfor m
Ġas sert
ser ved
Ġim ple
Ġal l
c al
c he
n s
Ġa p
Ġyo u
" :
r ansform
st em
le d
Ġis instance
Ġ* <
em p
ĠAr gs
ct ools
lo ss
str ing
ĠR eturn
form at
ern el
pon se
' t
C K
o bject
ĠS t
em ail
Ġsup port
d s
Ġc ache
ĠC om
ĠD ict
#### ####
c ore
s pec
s hape
Ġre quire
ind ow
Ġnum py
Ġres ult
P ar
Ġm odel
cl u
com pat
ke ys
ĠO pen
model s
Ġpack age
D e
e ad
t rain
Ġ K
Ġt est
is h
Ġre served
Ġg ener
Ġar g
: `
t ensor
w ard
Ġp oint
Ġwh ich
Ġ id
MA GEN
> )<
d u
as k
py thon
and om
Ġfile s
a v
j ect
r ite
t ypes
se nt
at form
im g
Ġre ad
ac h
Ġ- *
con v
ult ip
ail s
ilen ame
MAGEN ET
in stall
as ses
EN T
ver t
Ġr un
0 1
C om
ar act
der ed
Ġde t
l ine
Ġ \
all able
= "
T he
T his
b uild
de d
ic e
ĠB ase
U T
a f
o x
Ġ ext
ribut e
ĠI MAGENET
htt p
Ġurl lib
arning s
[ :
i as
o ss
r ange
t t
Ġon ly
1 0
y stem
or y
il ter
app ing
ĠUn ion
ĠAp ache
ro t
Ġc opy
Ġre source
Ġh ave
Ġfun ctools
A D
c o
Ġ qu
Ġn ames
Ġd irectory
ht ml
ib le
Ġse e
d f
d at
Ġ 4
Ġ z
Ġ att
he el
Ġl ine
up port
AT ED
O D
] :<
ic es
ra y
I O
ist er
od y
ĠI f
ĠD ist
ribut ion
com p
E n
e c
s r
it ion
Ġc reate
Ġit er
ma x
ook s
r un
u pt
u ff
on g
de t
ar g
Ġre g
am l
om e
Ġcon fig
OT ATED
I L
c heck
cl s
( [
C T
b in
c v
ur re
lo gger
ĠT ype
ĠĠĠĠĠĠĠĠĠĠĠĠĠĠĠĠ ĠĠĠĠĠĠĠĠ
b box
v i
v ide
Ġa c
Ġor ig
upt ools
o ptions
s plit
x iv
ar xiv
pe ct
and l
A n
g th
in put
re quest
ar ch
Ġd iv
Ġit em
pre c
rap per
ĠH TTP
Y PE
a u
Ġb ut
Ġm essage
if ic
ra ct
item s
ĠReturn s
E X
t ime
Ġf ol
Ġm et
Ġpar se
env iron
6 4
Ġ at
in es
Ġd oc
Ġw arnings
id th
com mand
sc ript
Ġsh ould
p r
Ġ up
in dex
at ive
Ġp l
url lib
Ġr ange
Ġdet ails
urre nt
ur ces
Ġso urce
alue Error
Ġpar am
Ġright s
A S
n der
il ity
id d
Ġlo g
Ġlo ss
U R
] .
n et
Ġ end
st art
Ġd is
Ġu ser
par ser
ck et
Ġma x
l d
en code
Ġin ter
Ġm in
and id
ight s
per ty
P ath
d im
f eat
i a
v el
ab c
ag er
iz er
are nt
ifi ed
pre sent
ĠSe e
Ex ception
DI R
P Y
l ink
m in
n ot
o id
ro und
Ġg lob
Ġ. ..
Ġ[ <
Con v
clu de
5 0
a x
p end
u ment
w ork
__ )<
Ġin stall
if y
a w
m on
Ġf irst
ag s
buil tin
iteral s
idd en
" )
g raph
o pen
o urce
ĠĠĠĠ ĠĠ
def ault
Ġim age
pre ss
oc al
P I
f un
m ark
â Ķ
Ġo pt
). __
OR S
( __
L S
n o
u ser
-------- <
Ġs ize
as h
ri de
ig h
iv en
col or
M ML
S R
d ate
h ooks
t he
st yle
Ġb asic
ĠC allable
Lo gger
Ġout put
ĠOpen MML
ĠOpenMML ab
[ "
f loat
im age
st at
il d
Ġw as
ac lass
ri d
and ard
ight man
pro cess
pro perty
ign ore
ann els
1 2
ro ot
Ġf ind
ot ated
ok en
Ġcl s
m d
Ġ i
ro l
ar n
Ġc oding
Ġcol or
olut ion
module s
ne ction
o se
o st
v ice
ag ing
ss l
Ġcon text
ire ct
Ġ20 21
Ġ---------------------------------------------------------------- --------<
Ġpar t
SI ON
C E
ic al
ce ptions
Ġlo ad
Ġst yle
Ġy ield
Ġcom mand
Ġma ke
Ġval ues
by tes
" ]<
m ap
Ġ utf
port s
Ġd im
ĠP ar
ĠP ath
ĠR oss
Ġu sing
po s
Ġst art
Ġro ot
gr am
Py thon
Ġimple mentation
aract er
n ode
t uple
Ġ J
Ġp os
am ed
Ġe v
ĠW ightman
pack ages
F ile
S tring
e y
l iterals
n ew
st d
ut able
Ġex ist
pack age
quire ment
L E
c s
Ġ el
Ġin d
Ġw in
ra w
ĠS et
iz ed
Ġcom pat
Ġnum ber
ĠIm age
ĠIter able
( *
V ersion
im um
Ġf eat
Ġf loat
ib ility
ase s
asic SR
Ġhe ader
stru ct
Ġform at
af e
c or
j it
p ol
Ġ one
Ġ error
Ġto get
cl ient
so urces
point s
Ġtoget her
C HE
R eturn
W arning
d ot
s l
s ys
v ision
or der
im ple
ĠT ext
pl ic
con text
eg er
Ġar gs
atase ts
andl er
P R
i k
Ġt im
en e
ic k
Ġs er
um n
function al
' ):<
k g
w ord
al led
ot her
() )<
Ġ+ =
Ġen coding
res ult
me an
Im ple
A B
U n
V ar
r dered
s ig
et ime
ĠĠĠĠĠĠĠĠ ĠĠĠĠĠĠĠĠĠĠĠ
ack ed
ĠN ot
Ġset uptools
buil der
> -
S D
T ensor
d oc
f a
l ight
s h
w w
ar ray
Ġre mo
Ġin to
Ġin dex
Ġb uil
ĠS o
Ġtorch box
Ġst ate
ĠE x
Ġpro vide
ĠV ersion
met adata
1 9
C H
f l
g t
Ġ ignore
se ed
ort ed
import s
Ġs ome
lo g
Ġm ore
__( )<
: :<
C h
N ame
] ,<
c opy
l abel
n er
o p
o bj
u ch
v ers
Ġ headers
-------- ----
Ġt uple
Ġf ield
Ġf ound
Ġo ptional
od er
ab els
Ġv ar
qu ence
pre fix
Ġdo es
H ead
] )
f ault
Ġ Y
Ġre present
Ġm ay
Ġu s
Ġby tes
Lo ader
Ġne ed
ĠDist utils
Ġdiv ision
Ġbasic sr
P ool
T ER
V ER
g b
Ġt arget
en der
am b
et ry
ri es
ĠP ro
and le
ix er
indow s
fun c
H TTP
\ \
Ġ ed
Ġ io
Ġt rain
Ġf ocal
ur df
Ġo ver
Ġm ode
un t
el l
Ġg iven
pl y
Ġ{ <
00 0
Ġres ponse
0 6
5 6
I ME
T R
p ool
s um
u ments
er o
re q
en c
it s
Ġc v
Ġc all
ing le
Ġs y
iz ation
Ġit ert
pack aging
ĠCon v
Ġmm cv
Ġitert ools
Ġc urrent
Ġb et
ch annels
Ġto ken
orm atter
ĠB SD
fix er
Ġfunction s
Ġ> =
N ot
S et
b ers
c re
i e
n ames
w rap
y aml
re pr
Ġt emp
Ġa ct
ing s
an t
Ġl ike
Ġ. _
tr ansform
get Logger
Ġ20 22
ĠE n
Con t
fer ence
Ġparam et
Ġfocal pose
E P
P oint
l icense
q a
Ġ errors
Ġ email
Ġ[ "
ap er
Ġst ream
out put
comp ile
2 4
D ist
H acked
I I
c i
d is
i ed
m b
r ad
Ġt ree
ut o
il er
len gth
======== ========
Ġfol low
" .
P ro
T ML
o o
al k
Ġf l
Ġp ool
Ġm ath
Ġm ust
Ġg raph
ĠO rdered
Ġim pl
Ġlib rary
Ġyo ur
Ġno qa
Ġpoint s
upport ed
idden imports
( (
1 1
5 5
I B
d ing
s p
Ġ ent
Ġf ilename
an chor
con sole
() .
Ġpar ser
ff ic
ST D
CK ING
CHE CKING
1 7
D ata
T ext
l t
Ġ Z
re place
st ract
an k
am p
ent s
path s
() ,
20 21
ry pt
Ġhas h
add ing
C O
T oken
l ike
t ree
Ġ 5
at ing
st ate
de code
he d
Ġm an
ist ry
ex ceptions
ĠF ound
Ġ1 0
ME AN
ST R
ultip art
[: ,
------------ -<
! =
T orch
c a
n ormal
o u
w a
Ġ !=
he lp
Ġs sl
Ġo per
ĠT YPE
Ġr andom
Ġe ach
Ġtyp es
ĠV alueError
HE AD
Ġel if
A CK
I D
N A
f p
g o
g roup
Ġ --
re sources
at io
Ġin st
Ġin it
Ġn ormal
Ġm od
py gments
ĠA d
ĠF ile
ener ator
.. .,
Ġk ernel
Ġval id
lay er
Ġ-* -
Ġ-* -<
âĶ Ģ
amb da
' :<
I ON
a k
b ool
w o
w rite
Ġ 7
Ġ head
Ġo ptions
Ġd ir
Ġm e
ex ist
Ġg roup
po p
Ġso cket
Ġpy thon
builtin s
G et
[ -
a ise
d m
h an
p u
r ans
re ader
st ream
Ġo bj
un k
ĠR OTATED
ub oid
Ġst at
que ue
Ġal low
Ġdat etime
######## ########
Ġz ip
F I
R L
c rop
f ield
er y
Ġc types
Ġp er
ĠC ol
ĠG A
ĠF or
ens ion
AT A
Ġj son
Par ser
uff er
( _
; <
> ]<
B O
d b
f low
n ext
s ign
Ġ 6
re quire
Ġre l
Ġre nder
et ch
Ġb box
ĠP EP
ra g
Ġh ere
po ch
---------------------------------------------------------------- -------------<
ay er
Ġpro gram
low er
Ġen code
ĠCon sole
back ports
reg ister
Ġmm det
stru ctor
Ġ\ <
N orm
T H
a uthor
c ord
e gg
w h
Ġ http
is sing
Ġl ink
ment ed
ĠS tring
val ues
I P
a z
b one
k ernel
q dm
w ish
Ġt ensor
ro z
it le
Ġimport lib
ur ation
Ġo ption
lo c
lo ader
ĠT ransform
Ġ( '
ul ar
ect or
ĠDe fault
che d
> `
f ace
l r
m p
p arent
r ame
Ġ Q
in ed
Ġp ol
Ġw ork
ol ver
ot h
ul er
Ġfor ward
Ġ" __
Ġbe en
Ġpath lib
IN E
Ġen v
ĠIn valid
mo id
Ġbase d
ĠIter ator
Ġind ices
ĠOrdered Dict
0 2
T uple
m od
o ader
u ct
v ent
y n
Ġt ransform
le ments
Ġ' .
Ġ" <
Ġof f
ĠI t
ult i
ver se
ĠB asicSR
ug mentation
Ġpre fix
Ġsh util
xy z
Ġrequest s
lay ers
ox el
ĠSo ftware
' ).
C ol
D et
c all
f ind
u d
w idth
im izer
he ader
Ġs p
Ġin stance
ent er
ri p
pt h
class ifier
ĠPy Torch
() .__
Ġal so
Ġmodule s
prec ated
Ġmet adata
ĠFound ation
b lock
d own
f ore
v ar
Ġ X
he ther
Ġs k
et work
Ġd ataset
em pt
ate g
Ġcon vert
Re quest
request s
Ġbuil tin
Dist ribution
A tt
` <
d iv
j son
Ġt ra
ĠĠĠĠĠĠĠĠ ĠĠĠĠĠ
ple te
Ġ{ }<
ĠCon t
back end
OC K
Ġcontain s
vi ew
au se
Ġtim m
D ataset
E CT
N I
a pt
h iddenimports
l ines
m ain
w d
Ġ util
Ġ keys
re source
Ġt qdm
he s
Ġf a
am pl
Ġin place
Ġm atch
ap i
ime out
ER S
Re quirement
ook ie
reg istry
Ġev en
ci i
ffic ient
' ))<
) )
0 4
L ist
N O
R OTATED
] ]
b ody
c opyright
d atasets
e ader
g ine
o ps
Ġ 8
or ld
Ġc or
Ġs ingle
Ġb ound
Ġd if
Ġw ar
py p
ĠA uthor
`` .<
ang u
RE S
Ġhas attr
Ġback end
Ġresult s
Ġreg ister
andid ate
* *
C ache
c le
d irect
t arget
w ise
{ }
st er
le ct
Ġc ase
is c
Ġre du
as ure
Ġb in
ĠR otated
ribut es
Ġh ard
io us
Ġch aracter
MA X
~~~~~~~~ ~~~~~~~~
gr ad
dat as
Ġpl atform
Ġcontext lib
D ATA
F or
M ENT
c ur
f ilename
h ost
z ip
ur ize
Ġin clude
cl asses
Ġ2 24
up date
ack age
Ġex pect
ang es
ĠU RL
pec ifier
Lo ss
Ġhe lp
og le
Ġap p
Ġorig inal
andid ates
' .
= (
C l
C lass
R etry
c ul
m atch
r p
Ġ }<
re ss
Ġc re
Ġp kg
el y
id x
em o
Ġex ception
to ken
Ġe lement
Ġget attr
ain er
Ġlogg er
dist utils
ust om
Ġsc ript
ĠRe quest
ĠType Var
help ers
H andler
L O
d ataset
f ul
f irst
m y
n p
o f
in s
Ġimport s
Ġs ix
`` <
ay load
dir s
Ġpro xy
pat ch
ĠIn stall
Res ource
ĠCom mand
Ġarg parse
" :<
' '<
0 3
F ormatter
T ree
T LS
b ug
d ig
f n
f etch
n orm
s with
se ns
on t
re t
le an
he me
ar set
ar ies
__ ",<
Ġs ame
Ġo b
Ġin fo
ent ion
Ġw rap
Ġw idth
un icode
ol der
ex p
Ġl abels
Ġth read
Ġwith out
Ġlo ader
lib rary
Ġst andard
Ġex ec
Ġ< =
Ġmethod s
iron ment
sub modules
Ġarg uments
igh light
Ġcompat ibility
Ġfollow ing
" ]
> """
S C
S e
g es
h ash
o ver
o ff
t emp
y tes
le x
it ive
ĠP oint
ass ign
Ġreturn s
ext ern
Ġst ride
form atter
gg ing
to p
sc ale
bbox es
uboid s
9 9
F C
I G
K ER
a ke
f c
l ate
m at
r andom
r gb
t ings
en coding
le vel
et a
Ġb lock
Ġw rapper
Ġan chor
ĠA PI
Ġlo ok
ens ions
Ġde pend
Ġit s
Ġex p
AR T
ian t
we en
we ight
ĠSt yle
struct ures
Ġser ver
vers able
ender able
# <
A d
b l
f ter
g round
m ode
o b
s up
Ġ ""
Ġf ixer
as cii
Ġd ig
Ġm at
ĠA tt
Ġth en
um ber
ĠR est
ĠR eg
pl atform
Ġde sc
to col
ĠLicense d
ma ster
Ġwe ight
Res ult
man ager
Par se
Com mand
rot ated
stat ic
Ġpart ial
field s
2 3
E L
S L
U N
[ ...,
` .<
b lob
c u
c lo
c oder
d irectory
p ed
r ich
s y
} ,
Ġ )
on ical
re nder
le ase
Ġa bo
ut urize
__ <
Ġs plit
Ġs ystem
Ġn on
Ġw rite
ol d
od ified
Ġ2 55
ith er
code s
Ġcl asses
Con text
info s
AN T
OT OC
Ġspec ified
Ġnames pace
prec ation
Imple mented
sig moid
ĠNot Implemented
OCK S
OTOC OL
' ),<
) ))<
1 6
> )
M an
N ode
r c
v es
Ġt wo
de vice
Ġc fg
ic y
am el
Ġb ody
ri ption
ĠC h
Ġh ook
Ġy aml
Ġwh ere
pro ject
Ġch ild
mo ve
rot ate
bin ary
Ġent ry
) ):<
= [
c ar
h as
i que
n d
n ow
s afe
u amel
Ġ ]<
or ig
re n
ro w
Ġf ilter
ion ary
># #
is s
ic s
Ġs uch
Ġthe m
Ġm ap
ac y
Ġ( "
om l
Ġg t
Ġcon v
Ġlo c
Ġcom p
ĠU se
dist ribut
her e
Ġsc ale
og raph
Ġrequire d
pol ation
Ġbet ween
Ġoper ator
0 8
E lement
F ound
H eader
K ey
P AT
e lement
m t
s upported
t ers
Ġ ens
in der
__ .
Ġn ext
Ġm ask
Ġ' <
Ġth ere
Ġv ia
em ory
pl ay
Ġh andle
Ġr uamel
Ġe ither
Con nection
ial ize
stan ts
ug h
ĠSe quence
Ġsub process
OL IB
av g
OD O
VER SION
rypt ograph
ryptograph y
> *
C ode
P O
R aise
V alueError
c md
f ilter
f uturize
r ack
ro ss
Ġp arent
Ġs orted
es ca
Ġthe se
Ġd s
ol ve
ĠP R
py torch
ĠD ata
Ġ1 000
ĠM apping
ĠM odified
.. .
Re ad
Ġwe ights
Ġpack ages
ition al
ĠGA OLIB
cu da
esca pe
= {
L ib
R otated
a o
d um
f ect
m essage
m isc
n own
r an
s ystem
t em
} ,<
Ġ q
se arch
Ġt k
Ġf n
is ual
il ters
Ġm y
Ġm ultip
ĠC O
ot e
Ġan not
ĠA l
ĠN umber
(' .
Ġx ml
Ġwh ile
RE D
ord in
AN D
fer ent
inter polation
cal ar
Ġatt ribute
ĠPar se
ww w
Ġparamet er
Ġinst ead
Ġfa ctor
ampl er
asure ment
> }<
E xt
N o
P C
T imeout
m ask
n ect
r it
z e
le te
Ġp ick
Ġw hether
ĠT ODO
ĠĠĠĠĠĠĠĠ ĠĠ
ra versable
ĠN ame
orm at
ĠPy gments
Ġwith in
ĠM IME
qu al
Ġim ages
Ġex ample
20 20
ĠW e
Ġset up
ME TH
Ġobject s
Ġcont ent
Ġ201 8
aract ers
An y
open ssl
Ġannot ations
METH OD
1 5
= -
B U
F ix
M ix
U E
p ass
s ix
Ġ &
al low
Ġc lo
Ġp adding
an ce
il low
lo gging
Ġv er
__( <
Ġstr uct
par t
Ġbe fore
Ġde precated
ver y
so ft
ĠĠĠĠĠĠĠĠĠĠĠĠĠĠĠĠ ĠĠĠĠĠĠĠĠĠĠĠĠĠĠĠĠ
ĠW indows
ace back
Ġuse ful
Re ader
Ġro t
da pt
inter val
start swith
Not Found
Ġtemp file
alk er
ched uler
' {
1 3
1 8
1 00
> '
B B
g lob
i ases
k dir
r atio
s ave
w arn
in ally
re move
im it
al cul
it ies
as on
Ġin valid
Ġn amed
Ġm ain
ĠS OCKS
Ġ" \
um e
ss ian
Ġcon s
Ġcon sole
ke ep
ire d
Ġcan onical
met a
OC AL
Ġ201 5
Ġcache d
De fect
Ġdis able
pos it
Ġremo ve
Ġremo ved
wa ys
exist s
Man ager
8 4
> ``
A ML
B A
E S
E num
G raph
M odel
M ethod
M essage
T YPE
W OR
c reate
f init
g rid
i ew
p ip
t ar
u f
w er
w heel
Ġ et
er ved
en n
le t
Ġf roz
ut e
Ġc alled
Ġb ias
Ġd ot
Ġl ines
Ġret ry
ĠS c
id er
orm er
ĠD E
tr ans
Ġbe ha
In t
put e
est amp
ĠH TML
Ġse par
ind ices
ian ce
ĠRes erved
ĠOpen SSL
train ed
tensor s
Ġconfig uration
ĠType Error
Ġitem s
Ġinter face
lt a
HEAD S
Ġrender able
cord ing
Ġdif ferent
ĠNotImplemented Error
Raise d
posit ory
0 9
4 01
H TML
M apping
P aper
Q A
T o
_ (
f older
g enerator
m met
n a
w rapper
x ml
~ <
Ġ utils
er r
on ly
Ġt ar
Ġt eam
st rip
Ġa fter
Ġd ire
Ġm ark
ch aracter
Ġl abel
Ġl ong
ĠA N
ĠF ix
ter n
Ġcl ient
pro j
Ġpy gments
met aclass
ĠK ey
:` ~
uff ix
feat ures
Ġfeat ures
fa ctor
fa ctory
Ġprovide s
Ġed ge
CO M
go ogle
ateg ory
( -
0 5
8 8
D irectory
E Y
H AS
a ir
b le
i able
l atform
o pe
p ct
Ġ keep
at s
Ġre ader
Ġs ave
Ġo ld
Ġd type
Ġw indow
Ġw heel
Ġm s
pt s
ass ert
ĠS SL
ĠI O
ĠR ights
em b
', '
Ġtorch vision
form ation
ctor ies
ĠE fficient
Ġ{ }
Ġpro cess
Ġpro ject
Con sole
sc ene
=' ',
OR T
ĠIn c
Ġro und
Ġstring s
param s
Ġco ordin
max size
plic it
Ġdoes n
Ġparamet ers
Ġexpect ed
emo j
4 4
A SS
H O
K EY
P P
P T
S ub
T est
W heel
a ugmentation
g or
l ambda
q l
u se
u py
Ġ 9
Ġ âĶ
in u
re l
Ġt r
al ign
ar s
Ġre ason
Ġs hape
Ġin s
Ġd own
Ġm issing
ac l
ex er
Ġdef ined
ĠL oader
Ġg rad
ĠI D
EN D
`` ,
par ts
set up
get item
Ġde code
Ġde vice
Ġpar sing
Ġcom pl
Ġcom mon
Ġnum bers
Ġlicense d
MA R
Ġad apt
cont rol
cont ainer
Ġj ust
Ġsupport ed
ĠK han
co un
run ner
ĠĠĠĠĠĠĠĠĠĠĠĠĠĠĠĠĠĠĠĠĠĠĠĠ ĠĠ
raw ing
TER N
âĶĢ âĶĢ
rag ma
ĠTransform er
Det ector
Ġbuiltin s
Ġens ure
upy ter
" ):<
" ),<
C re
N E
O QA
P RE
Q U
_ <
b it
p ad
p ayload
s k
s lo
Ġ //
at is
Ġa uto
Ġp r
Ġp ragma
Ġre pository
Ġs ign
Ġthe y
Ġd ll
Ġw ay
ĠT X
Ġm eg
py win
ĠN OQA
ss ign
Ġor der
Ġst d
form att
are d
pre d
ĠU ser
code Error
ĠE T
Ġuse s
Ġint eger
ĠV ER
Re g
Ġen um
res pon
dist ribution
Ġext ra
ribute Error
vi i
Ġac cording
PY ING
Ġglob al
Ġfeat ure
result s
Ġrepresent ation
Ġallow ed
ret urn
ĠCO PYING
BB ox
Ġcompl iance
MAR KER
atis f
Ġmeg vii
" {
# -----------------------------------------------------------------------------<
) ]<
: :
G enerator
I ST
M ark
O r
O pen
P U
Q t
b e
b ot
b uffer
e ps
h in
p n
r b
r and
u i
v ironment
w ik
le ases
Ġa g
de bug
># -----------------------------------------------------------------------------<
ic ally
Ġs im
ct ypes
ac es
ĠĠĠĠĠĠĠĠ ĠĠĠĠĠĠ
ĠP AT
ĠP ackage
ex ec
ĠS E
ĠA UT
ĠN ew
ĠN etwork
con stants
com mon
Ġ20 06
Ġr gb
Ġcom plete
Ġse ss
ine ar
ER R
pro xy
head s
AT ION
IN T
num ber
ĠCon fig
AL L
cont ent
Ġnode s
Ġco ver
compat ible
du ce
ĠDist ribution
sr c
ific ation
Ġfol der
stat us
Ġexist s
plic ation
NA ME
Ġdir s
yn am
Ġbound ary
cur s
enderable Type
precation Warning
Ġcanonical ize
gor ith
" ).
. *
2 56
7 5
? <
H el
H ook
H ORS
T F
T U
U SE
b stract
e poch
l ong
n ers
o ur
p ri
t ools
t oml
z ero
Ġ kwargs
Ġ ~~~~~~~~~~~~~~~~
or ation
se n
re f
it es
Ġp ix
es h
Ġn orm
lo t
lo cal
Ġw ord
ri x
ĠP ool
Ġl angu
cl i
ĠN o
ĠG raph
der r
Ġst or
Ġde st
ifi ers
bo se
res ponse
Ġlib futurize
Ġdict ionary
Ġcode cs
ep copy
Ġtime out
Ġdat aclass
Im age
Ġfun c
Ġcontain ing
Ġimple ment
Ġap ply
Ġmodel s
Ġgener ated
Ġgener ator
Ġid ent
au ssian
") ;<
doc s
ĠEx ception
wa it
ĠCol umn
ĠDefault s
ĠAuthor s
off set
Ġloc ation
finit y
Ġdire ctories
Ġms g
slo ts
Ġdll s
ĠAUT HORS
2 5
B asicSR
D O
I M
O ptions
S er
U ns
b atch
e ar
e ed
l abels
m ultipart
o ption
p ha
t ual
t graph
t itle
u ally
v ious
x in
ro ugh
Ġc ast
is ible
is hed
Ġp atter
Ġs a
Ġs imple
et ers
Ġin v
Ġin formation
Ġd irect
Ġm apping
Ġ' _
Ġl ambda
ĠS T
ĠS pecifier
int ypes
ense t
class method
ĠD o
ir tual
ub ic
Ġ_ ,
Ġos p
ck s
dir name
nt ao
ind s
sc heme
Ġpath s
ĠV oxel
DE T
num bers
Ġraise d
Ġfunction al
Ġversion s
Ġmm rotate
Ġle vel
Ġco unt
Ġsupport s
check point
ĠPar ser
Ġstat us
Ġcor respon
Ġredu ction
Ġthread ing
Ġdesc ription
calar String
err no
xin ntao
/ <
8 6
B ack
C opyright
D A
O J
V alue
W rapper
W STR
a h
c at
c ed
e asurement
h en
s ample
se c
Ġt rue
st ore
le arn
Ġa ut
ic ro
il ing
Ġb oth
Ġn eg
Ġd on
Ġ' \
Ġl r
ĠL e
id get
ĠN OT
ĠD rop
pl ug
ter m
Ġcon nection
ap pen
Ġ1 2
Ġbe c
ĠM utable
In valid
Ġdistribut ion
20 0
Ġe lements
ĠW AR
Ġal ways
ms g
val u
Ġch ange
ff i
Ġab c
mo oth
att ribute
'] )<
Ġback ward
Ġback bone
opt im
Ġform atter
Ġgener ate
UT F
arg ument
amed Tuple
ĠNot e
transform s
oo lean
Ġhash lib
Ġme an
lr u
var iant
PAT H
Lib rary
Ġfroz enset
Ġcoordin ates
acl asses
ĠVER SION
ERR OR
, )
1 4
E lements
F F
F ilter
F ixer
L U
T O
T rans
W H
[ [
d S
f rame
m it
s v
t en
Ġ attr
Ġ html
ľ âĶĢâĶĢ
in sert
re set
ro ll
Ġf inal
Ġc ert
Ġc ustom
__ ,<
ur i
Ġo ur
et er
et ree
Ġthe ir
ĠT o
ĠT LS
ĠT oken
ch ar
ĠC ON
ra ction
Ġ" .
ĠA ust
Ġ# ##
th ou
ĠR FC
and as
ĠF ree
po st
Ġr ank
ator s
base d
Ġcode s
IT Y
Ġlen gth
St yle
Ġback ground
Ġdat aclasses
Ġtext wrap
SSL v
Ġrequire ment
Ġcommand s
std out
Ġprovide d
ĠPro tocol
Ġed ges
ĠEn thou
================ ================
ĠAd d
Ġgroup s
require s
ĠString IO
loc ation
ĠQ t
empt y
ECT ORS
pyp i
sens itive
temp dir
ytes IO
sup press
ĠRest ormer
Ġabo ut
ĠPR OTOCOL
Timeout Error
Ġpick le
WOR D
ĠâĶ ľâĶĢâĶĢ
hin x
DET ECTORS
appen gine
Ġbec ause
ĠAust in
ĠEnthou ght
A M
A l
A ssign
B ACK
F ield
L exer
S c
S che
T rack
a uth
b ar
c ase
e q
h i
i pe
j ust
l q
m ath
m kdir
o ice
p age
r ank
s atisf
} ")<
Ġ join
Ġ urdf
er a
in a
re search
Ġt rans
ar ge
ut put
Ġre fer
et ina
Ġb l
Ġd ual
ĠĠĠĠĠĠĠĠ Ġ
ch unk
pt imizer
Ġis s
ĠC lass
ĠS y
str ict
Ġth an
Ġg o
ĠN ode
ĠF ormatter
pl ib
con d
Ġun it
ap ply
ĠM essage
In fo
ĠThe se
ĠH and
ight ning
res ume
Ġcan not
atch Norm
ĠUn supported
Ex ample
~~~~~~~~ ~~~~
Ġprint s
22 4
ĠRes ource
sub process
Ġcontain er
che s
Com p
co unt
Ġdoc ument
Ġmax imum
feat ure
ax is
node s
AB C
light ning
Ġus age
HTTP Error
enc ies
cre ment
Cont rol
Point s
stract method
Ġman y
Ġinst alled
BO X
ĠInstall Requirement
static method
NotFound Error
formatt ers
Ġcorrespon ding
2 7
5 17
A ct
A ME
B lock
F inder
I S
I MA
O ri
R o
S U
S h
S NI
S cheduler
] +
b az
c urrent
e ze
f alse
o ke
o us
r ic
r as
t k
t ag
t able
w xyz
re ct
st ack
ro i
de pend
Ġf ree
it able
Ġp as
Ġre f
__ ,
an y
Ġs in
Ġs pace
Ġb atch
Ġn etwork
ent ry
ĠT h
ol ved
ĠP illow
Ġl p
Ġl ast
Ġret ries
ĠL ink
ĠL iteral
ĠL ayer
Ġan other
id s
Ġg rid
ub l
ĠF OR
Ġh ope
Ġde l
ater n
que eze
Ġal gorith
Ġse ction
Con structor
ial og
io u
back bone
pon ent
IT E
St ream
Ġ.. .<
abs path
Ġunicode data
Ġrequire s
Ġ\ \
Ġatt empt
En d
Ġiter able
Ġmin imum
link s
Ġexist ing
Ġus ers
Ġtrain ing
enc y
Ġzip file
sign ed
require ments
down load
iss ues
distribut ed
Ġtk inter
BU G
allow ed
ynam ic
Track ing
ĠHand Tracking
( {
A dapt
B L
C N
G ener
L R
M eta
O DE
P re
U M
_ .
b n
c os
d rop
e ded
f ull
f ilters
l ap
p ers
p df
p kg
r ames
s upport
u mentation
Ġ 50
on es
re en
st derr
le ar
le mb
de lta
al ues
al oader
Ġf f
Ġf ail
Ġf rame
Ġc a
Ġc ryptography
Ġimport ed
Ġp d
Ġp ubl
Ġre place
an h
Ġs g
ed ge
am ma
il y
Ġd one
Ġw ould
Ġw ant
def ined
ac c
ch ild
Ġreturn ed
ir s
Ġv oxel
Ġv iew
ĠF ormat
Ġ1 6
lib s
Ġde epcopy
Ġex c
nt ax
bo und
Ġse quence
us h
Ġch ar
stan t
Ġpre sent
Ġro w
AR S
Ġhe ight
Ġdefault dict
ann er
Ġle ft
we ights
ENT I
Ġqu at
dat aclass
Ġatt ributes
comp iler
press ion
Ġwin reg
cor ners
ĠEx ample
Ġfield s
FI X
Col or
Ġtra iling
Cl ient
LO W
PO SE
PC WSTR
pass word
alcul ate
ĠDE FAULT
mmet ries
emb ed
inu x
ĠPAT TERN
OJ ECT
Ġpas sed
lemb ic
* .
3 1
A C
A r
B uild
I ter
O UR
R etina
T ransform
V E
] ]<
b uf
c p
c ell
c pu
d ar
f mt
l i
l ast
m ute
n r
p an
r iter
s q
s u
s ses
s wish
t im
t ags
w intypes
Ġ empty
in ue
in place
Ġt ail
Ġt itle
im al
st age
st ride
st andard
ro py
le ction
Ġf inally
Ġc md
Ġc uboids
Ġp yp
Ġre q
ur al
Ġo w
Ġd b
ent ly
Ġfor ce
th ree
ĠR aise
pl an
pl ate
Ġh ighlight
com plete
Ġun pack
Ġlo wer
so cks
ĠĠĠĠĠĠĠĠĠĠĠĠĠĠĠĠ ĠĠĠĠĠĠĠĠĠĠĠ
pre sen
>> >>
ĠH ow
ĠE X
Ġsys config
Ġ{ '
fo o
Ġav oid
Ġen n
num py
Ġar ch
Ġcont inue
mo ves
Ġpre trained
ĠRe quirement
'] .
Base Fix
St art
Ġrequire ments
Ġid na
IL ITY
Ġinter n
Ġind ic
mb ol
NA Error
################ ################
wh ich
Ġpol icy
yn c
Ġoff set
cle ar
Ġlook up
Ġmultip le
Int eger
emoj i
Ser ver
irtual env
icro soft
satisf ies
Ġpubl ished
" ))<
' .<
3 5
> ..
A s
C ase
C ON
I tem
L ink
M ore
S pecifier
S calarString
T EN
b order
d type
m m
p ix
s uffix
t f
u int
Ġ htt
or s
or ary
or dered
Ġa x
Ġa ction
Ġa uthor
de c
Ġc y
is it
Ġp ad
Ġp ow
Ġp oss
Ġo p
il ation
Ġin clu
Ġn ats
Ġd um
Ġd rawing
Ġw orld
Ġm ulti
Ġ' '<
ĠP re
ex it
ĠC all
ĠC ache
ĠL PCWSTR
int eger
id ual
Ġth rough
ĠG et
ĠI nt
ĠF inal
par sing
set uptools
po ser
ĠO S
ĠM odel
ĠM easurement
ĠB y
Ġex plicit
ĠĠĠĠĠĠĠĠĠĠĠĠĠĠĠĠ ĠĠ
ple t
Ġe qual
est ed
Ġpar sed
Con fig
Con vert
ĠV alues
ma ke
RE CT
eg acy
ME IP
Ġcont rol
dist ribute
her it
sing le
Ġpy torch
Ġpy test
St age
ormal ized
av ailable
Ġrun ning
script s
Ġdis play
Ġcompat ible
Ġvar iable
ĠY ou
Ġrepresent ing
ĠPro xy
Ġact ual
Ġfl ags
Ġnormal ize
Ġper form
rag ment
Ġpol ys
Ġdig it
Uns upported
plug in
OUR CE
dar win
presen ter
TEN SION
MEIP ASS
2 6
A p
A CE
B uil
C A
C o
C all
C ore
H AN
M OD
O P
R ANT
S Y
a ction
c y
c nn
c andidates
e ction
h ard
m ul
m up
n eg
s im
t il
t ot
u id
w arning
in ation
Ġp ast
Ġre direct
Ġre distribute
Ġs u
Ġs ample
il ar
Ġb uffer
Ġd ate
ĠT raversable
Ġm ight
Ġm ultipart
Ġ' __
ĠP UR
ĠP ART
Ġl ay
Ġto uch
Ġdef init
ul let
ag ed
th read
Ġth ose
~~ ~<
ĠF IT
ser ver
con vert
get attr
Ġbe st
Ġbe ing
ĠM ER
ĠM ax
Ġde cor
Ġe ps
Ġe poch
iv ely
ĠW IT
IC UL
ĠH ard
Ġal ong
Ġy aw
00 01
sc ore
NU M
Ġch annels
Ġch anges
res hape
res net
ord s
Ġma k
Res olution
Res olver
cont rib
SSL Context
ale t
Ġle x
ĠRes olver
spec ific
ĠĠĠĠĠĠĠĠĠĠĠĠĠĠĠĠĠĠĠĠĠĠĠĠ Ġ
Ġdoc umentation
feat s
Ġopt parse
igh b
PR OC
ik as
AB ILITY
CH ANT
CH ARS
ĠConv olution
names pace
dis pose
Ġimpl ied
Ġmod ify
ĠFile NotFoundError
pop up
roz en
ĠCont act
Ġwar ran
IG H
rit ten
Ġcons ider
Ġet c
ĠAN Y
HO UT
NE SS
ĠWAR RANT
mooth ing
Trans port
ightning Module
MOD UL
ĠPUR POSE
ĠPART ICUL
ĠFIT NESS
ĠMER CHANT
ĠWIT HOUT
Ġwarran ty
ĠWARRANT Y
ĠPARTICUL AR
ĠMERCHANT ABILITY
( ?
/ *
3 4
C reate
C allable
C oder
F rom
G D
G R
L L
L P
N e
Q Q
S N
V I
W S
X X
] [
c el
d ll
g n
i T
j or
k nown
l imit
m ish
n one
p adding
s ort
s parse
s ite
s win
t al
t yp
u sed
w indow
z er
Ġ port
---- --
er ate
in ary
in ner
re d
re al
re leases
ro g
le s
de sc
al tgraph
he ight
Ġp ose
Ġs ig
as y
Ġb gr
Ġn ull
ĠT O
Ġm ost
un pack
ol ib
ĠP IC
ĠP latform
om at
ab stractmethod
Ġto k
ĠL o
ĠL OCAL
ĠS HAN
cl us
Ġ" \\
ĠA SC
id ent
ser ve
Ġh ooks
Ġor d
Ġun ique
Ġlo cal
ix ed
ĠM A
ĠM ark
ĠB ack
() )
Ġr atio
ĠW IN
Ġal iases
ĠDe precationWarning
Ġx y
Ġse ed
Ġcl ip
Ġ{ "
.. /
Ġsup press
Ġch aracters
Ġcolle ction
ĠAn chor
Ġurl parse
Res Net
col umn
Ġhe x
Base d
Ġco un
DI RECT
Ġ201 3
De codeError
Ġqu ery
Ġac cept
Ġac cess
An chor
environ ment
Ġcolor s
Ġpos ition
LE G
Imple ments
anchor s
ĠZ ip
group s
ĠGA O
Ġsk image
Ġwar mup
ress ion
Ġcre ated
ĠAtt ention
Or More
TU RES
Ġpatter n
Assign er
Ġff i
Ġchar det
Ġhtt plib
alet te
IGH T
ĠPIC TURES
ĠASC II
) ),
8 0
B BOX
C an
C II
E d
F IL
G E
G rid
J it
L e
O FF
P N
S tr
S ampler
T ag
W alker
a uto
a olib
b ic
b ias
c ert
c wd
c ookie
c ategory
d array
g ment
i ally
m ary
n on
o urces
s orted
v iz
re c
re st
re size
st ra
de lete
Ġc lear
Ġre st
Ġre sources
Ġs afe
et adata
Ġin dent
Ġb ox
Ġn darray
Ġw ell
ri e
Ġ( _
Ġ( ...,
ĠĠĠĠĠĠĠĠ ĠĠĠĠ
Ġ' &
ch at
ĠC an
ab ase
Ġto tal
ra ps
ig Integer
ĠS imple
Ġ" _
ath er
ĠA lembic
pl ied
Ġh andl
Ġcon nect
ect s
ĠO n
Ġst ack
ĠB ytesIO
() ,<
ps nr
to k
iv ed
iv ations
ĠH el
ĠH igh
Ġ3 2
Ġal ias
Ġcom ment
ain s
lic e
ial izer
Re LU
RE AD
RE DIRECT
pat tern
num s
iter dir
Ġcont ents
Lo ad
att n
ug ment
Ġsh ow
Ġsc ene
Ġsc heme
Ġabs x
Res ources
reg ex
PE C
Ġadd itional
ge om
opt s
ĠSt ream
ĠCom pat
En vironment
Ġorig in
ĠHTTP S
EX TR
Ġmet ers
Ġdoc string
AS CII
50 9
user name
style s
ĠPar am
fl ags
Ch ild
Ġbet a
Pro xy
HEAD ERS
Ġencode d
ĠRequest s
TLS v
dig est
Ġdig est
ĠAtt ributeError
Mix in
>' ''<
BA SE
Sub Element
pn g
Ġag ain
Hel lo
ĠDrop Path
Ġiss ue
crement al
Ġsin ce
Ġalgorith m
Buil der
zer os
Ġnull able
bic ubic
# !
( \
. "<
9 0
C OD
G ET
O ption
V ikas
Y AML
] ))<
_ ,
a ired
c an
d ri
d Conv
n ative
p g
s a
s i
s ur
s ame
t anh
v ing
Ġ es
Ġt ag
at ure
st ep
le ss
al ias
Ġf ix
Ġf ast
Ġp aper
Ġp andas
Ġs rc
Ġd w
Ġd rop
Ġm o
Ġ( )
Ġ' /
om ent
ĠC heck
ĠS upport
cl ar
cl ip
ĠA bstract
ĠN amedTuple
um per
Ġv endor
ĠF l
ĠF eat
Ġh ow
Ġh idden
Ġh andler
con ds
set tings
tr ue
ĠO ther
ĠM y
ĠM ing
(' --
In put
Ġde c
ĠB e
() ``
Ġex ceptions
pre ter
Ġe very
ĠW heel
ess ion
(" \
Ġal pha
bo ok
Ġcom pute
Ġpro per
dent ial
oc ation
ma k
eg ment
ST ART
fix es
att en
Ġpre vious
param eters
pose d
cont ents
Ġsub class
Ġspec ific
Im port
Ġadd s
og n
ilen ames
ĠRes Net
ĠRes ponse
Ġap plication
Ġarg ument
av ing
Ġread ing
Ġext ract
ĠĠĠĠĠĠĠĠĠĠĠĠĠĠĠĠĠĠĠĠĠĠĠĠ ĠĠĠĠ
vi or
command s
Ġpl ug
UR L
min ist
graph viz
context manager
Imple mentation
Ġbuil t
Ġneed s
sp hinx
fp n
Ġinit ial
Ġrel ated
ĠConsole Options
Ġredu ce
sup er
Ġ"" <
ĠRest oration
dum p
Ġdisable d
Ġbeha vior
Ġmark up
PT ION
Ġins pect
Ġenum erate
exec utable
ĠNetwork s
Ġpix els
roll er
Ro I
Stage Detector
Ġconsider ed
MODUL E
SN R
" \
) [
) ),<
) ;<
0 7
4 0
7 8
8 75
B IT
C ookie
H A
I F
L IST
O S
S P
S ource
S PEC
T raversable
U p
a i
b b
b c
b dist
c enter
h at
h andle
m apping
m ulti
n ull
p ing
r t
s pace
t mp
u ess
v id
v tk
} )
Ġ ):<
Ġ ra
in v
re direct
Ġt run
al che
he x
Ġc ell
Ġc andidates
Ġp atch
ur ing
Ġs wish
ed i
ed ia
ed ges
am era
il u
as hes
Ġb oolean
Ġn ow
Ġm emory
ĠP IL
py project
pe at
ile d
ue ue
ot ation
ĠS U
ĠS h
th ing
ĠR ender
ve ctor
ext ra
ĠF unction
EN UM
con nection
ap sed
Ġ1 00
In finity
Ġde bug
Ġde lete
ver age
ĠB ody
ĠB inary
Ġim gs
Ġex clude
ĠĠĠĠĠĠĠĠĠĠĠĠĠĠĠĠ ĠĠĠĠĠĠĠ
SE T
pre fetch
iv ation
ĠW a
ĠW hether
Ġcom put
Ġpro ble
Ġwh o
Ġwh at
pro g
sc hed
ĠV isual
Ġav g
stan ces
eg ers
Ġset tings
fix ed
Ġsc ore
cache d
cess ing
Ġother wise
Ġback port
method s
ann el
sub type
opt imizer
Ġ201 2
De fault
Ġtest s
tensor flow
Ġrun time
co ords
dat etime
Ġac c
arch ive
Ġdoc uments
fun ctools
Ġstyle s
Ġev ict
dot a
PR OTOCOL
Ġtim estamp
AB LE
Ch aracters
Ġvar ious
ĠY AML
ero OrMore
Ġsy ms
Ġcurrent ly
Cont ent
ĠTransform ers
Ġenv ironment
Ġsk learn
exp and
ighlight er
assign er
clo se
Ġabo ve
Connection Pool
ql alche
BBox Head
Open SSL
Ġsess ion
Ġlangu age
ĠNOT E
ĠCON TR
Comp iler
LR Scheduler
complete Read
Ġarch ive
ormalized Name
Ġlay ers
Ġdecor ator
stra int
sa ved
ĠMy Class
Ġtrun c
qlalche my
! <
) '
. )<
3 0
9 7
= _
> :
C CE
H su
L OCAL
P ackage
S ON
S ystem
S ingle
W idget
] *
a ut
c andidate
d w
h andler
h baz
l ur
l lo
l arge
p alette
q as
t z
t ing
v g
v els
w here
} "<
Ġ --------------------------------
Ġ Error
in st
se p
se par
re tin
en ces
en ded
al man
he els
ar ry
Ġc alculate
Ġp ayload
Ġre ce
Ġs ite
am ir
Ġb oke
Ġn et
Ġm ac
Ġm ess
un aw
un ique
Ġ' ''<
ch r
ch arset
Ġl ive
Ġto p
ot ed
ĠS ha
ĠS alman
Ġ" %
Ġ" ,
ĠA s
ĠA ror
ĠR E
ĠR enderableType
ĠD is
ve led
ir cle
~~ <
ĠPy PI
ĠF ah
ĠF rozen
ip edia
Ġh iddenimports
Ġstr ict
Ġbe low
ĠO ptimizer
ĠM odule
ĠM unaw
ĠB O
() .<
Ġim p
ĠĠĠĠĠĠĠĠĠĠĠĠĠĠĠĠ ĠĠĠĠĠĠ
iv es
ĠW ars
ay at
ĠH ayat
bo ard
Ġcol umn
Ġse nt
Ġse arch
code cs
ĠV ision
Ġch r
Ġch arset
ON G
ide o
Ġpre vent
Ġad just
act ual
21 11
ity a
PE P
Ġdat as
ann ot
by te
Ġne eded
for ce
Ġimple ments
format s
Ġid x
Ġqu atern
comp are
arg v
vide s
pect ed
net work
Ġuser name
aw n
File s
File Copyright
ĠText IO
PR OJECT
ĠY ang
sum mary
transform er
Ġfollow s
Ġpool ing
ĠZ amir
ĠAd itya
FI ER
ĠCol or
Ġbbox es
>` _
Ġsk ip
Ġcor rect
dig its
Ġinfo s
Ġwrap ped
Ġexec utable
Ġdepend encies
Ġchild ren
Ġfn match
Ext ension
09 88
ĠKey Error
QU I
USE R
Ġlr u
dS ame
ĠSy ed
ĠUnsupported Wheel
Ori g
ENTI FIER
Transform er
Ġpyp ro
Ġposs ible
Ed ge
ĠCompat ibility
oment um
ĠWa qas
Hsu an
Ġboke h
ĠSha hbaz
ĠAror a
ĠFah ad
ĠMunaw ar
ĠWars aw
FileCopyright Text
0988 1
' \
' ):
) ).
3 6
5 7
: %
= <
B R
C L
C heck
C RED
E vent
F n
F inal
J ar
L A
M AT
M ax
M issing
Q u
S o
S ize
T A
T arget
W indows
a it
b z
e ver
f ast
f ont
g ree
g ument
i er
i us
j ar
l u
n ess
n ms
n amed
o un
p aper
r aries
r ics
s ampler
t ed
t ain
v as
v irtualenv
w orld
} .
Ġ ><
Ġ queue
Ġ errno
or n
se e
re plic
re ak
im ages
ro cessing
Ġf p
Ġc rop
ic ular
Ġp age
Ġp lease
Ġp aired
Ġre c
Ġre cord
Ġs um
Ġs ha
Ġs qlalchemy
il inear
Ġin ert
Ġin herit
Ġb order
Ġb reak
Ġd atasets
Ġd ilation
ĠT imeout
Ġm on
Ġm im
Ġm ish
ac o
un time
ad ing
ad apt
Ġis n
od ies
Ġto ol
ĠL R
ĠL ib
ĠL IGHT
Ġan t
ĠS ub
ĠS pec
cl amp
Ġas sign
ation Error
ĠG aussian
ĠR ich
iz ing
ĠD et
ĠD WORD
ext ension
ĠF rom
Ġfile path
EN CE
ens hi
ire q
ire s
ĠB M
ĠB arry
qu ent
qu ote
version s
ĠĠĠĠĠĠĠĠĠĠĠĠĠĠĠĠ ĠĠĠĠĠ
Ġr ich
ĠW rite
ang le
Ġpar ts
per mute
Ġse lect
Ġse cond
ĠE xt
ĠE ach
Ġint egers
00 00
AT ORS
Ġsup plied
ĠGener ic
us b
us r
RE QUI
Ġch ain
Ġch unk
DE BUG
res olve
Ġcont ribut
Ġma de
Ġad ded
Type Var
Res ponse
cess ary
read y
te ction
Ġspec ifier
Ġspec ial
Ġkey word
ĠAp p
Ġne ver
Ġap pro
object s
UT ORS
Ġext ension
Ġext ensions
ĠHTTP Error
Ġparam s
Ġpos itive
(* *
ĠSo cket
fl ake
Ġcall s
IB UTORS
Ġvalid ate
BO SE
Ġtensor s
Col umn
call s
ud io
Att ention
ĠCont ent
RES OURCE
Ġbin aries
mat rix
Ġanchor s
Ad am
Ġentry point
now flake
distribut ions
part ial
Ġrot ated
Ġtr aceback
upyter Mixin
QU ENCE
wik i
wik ipedia
curs ive
Ġaut omat
BACK OFF
ĠLayer Norm
lap s
bound ary
stride s
isit ed
tot al
Ġtok ens
geom etry
ĠRender Result
ĠBinary IO
sched uler
ĠCONTR IBUTORS
ĠCompatibility Files
BR ACK
gument Parser
replic as
" ],
' }<
) "
- \
/ ><
4 9
= ',
> '<
> ~~~~~~~~~~~~
A uto
B ytes
B atchNorm
C andidate
C ross
D atasets
F OR
H H
H W
L INE
M O
P ORT
R enderableType
U sing
U DA
Y PY
a ctory
c ook
d ense
d ynamic
f e
f rames
g d
g pu
m es
m all
m eth
n py
p aces
r ing
r am
s ha
s ilu
t on
v c
w arnings
z one
} :
} )<
} ".
Ġ ide
in clude
re duce
Ġt able
Ġt ask
Ġt ags
Ġa wait
al id
Ġf ilters
Ġf ilenames
it ch
Ġc ases
Ġc uboid
Ġc andidate
Ġc ategory
ic ial
Ġre set
ur t
Ġs ort
Ġo l
ed irs
Ġb n
Ġb ise
Ġb und
Ġn ative
lo sses
ĠT here
ac cess
Ġ( (
Ġ( ``
ol ded
Ġ' ,
ex pected
om eth
ot t
ot ent
ag ent
ĠL P
ĠL egacy
Ġg amma
ĠG o
ĠG roup
ĠI P
um an
ĠR o
and box
ip ul
Ġh aving
Ġor dered
Ġcon structor
ĠO ver
ĠM IT
ĠM ulti
ĠM icrosoft
ĠM YPY
Ġst rip
Ġde s
Ġde coding
so cket
Ġ20 01
ĠB uild
Ġdistribut ions
Ġit self
20 06
Ġe p
Ġe gg
ĠW orld
Ġal ign
Ġcom pose
Ġpro du
Ġpro duce
Ġter m
IN TER
Ġres olve
Ġres olved
ON E
iter tools
ĠAn si
Ġar ray
Ġ` -
Ġpre serve
Ġsh ort
OC ATION
Ġk now
Ġ| <
St andard
we ep
Ġ201 4
ĠCom poser
Ġtest ing
line ar
ĠBase Distribution
det ector
Ġreg ular
EX PR
Ġup load
Ġinstall ation
color s
md b
arn ed
pos ix
std lib
Ġformat s
Ġtuple s
req s
Ġsy ntax
ĠZ eroOrMore
Ġman ipul
normal izer
normal ized
ĠAd am
Ġrel ative
az y
Ġoff icial
div isible
MAX IMA
Ġob b
lex er
ĠReg ex
Ġdesc rib
Parse Error
render able
Ġcomp iler
tem plate
No Return
Ġver bose
Ġcons ist
Enum Resource
Ġtar file
Ġins ide
Ġadapt er
Ġpr im
ALL OCATION
Ġstor ed
Ġfunctional ity
valu ation
ĠRaise s
mm cv
Ġpow er
Ġmak ing
gn u
typ ing
desc ription
ĠTO ML
Ġxy z
LEG AL
#! /
mak edirs
Ġplug ins
Ġrece ived
Ġpypro ject
Ġbise ct
ometh ing
MAXIMA L
' re
' ],
3 84
4 5
: \
? )
A PI
B n
B igInteger
E nt
F O
F uture
F ormat
G I
I s
M atch
M ish
M ultipart
N S
N ull
N ew
O utput
P latform
R O
R Y
R andom
S ec
T E
U ser
a ug
c f
c ast
d if
d ition
e ck
f am
g uild
h ull
i ag
m ail
m emory
r ong
r fc
s queeze
v o
w ill
w alk
y thon
Ġ Er
or es
or age
or ies
se ss
Ġt re
Ġt ri
Ġt xt
en gth
le g
de l
de precated
he ma
he llo
ar son
Ġc k
Ġre m
Ġre ference
lf eat
Ġb all
Ġd uring
ent ic
Ġw alk
Ġ' ('
if orm
ĠP er
ĠP rint
ch oice
Ġl ayer
ĠL ocation
ĠL arson
ĠS NI
ĠS egment
Ġ" [
int o
up load
ĠA ct
ĠA dapt
ib ly
Ġ. -
Ġas so
Ġv ert
em s
`` :
get ter
get cwd
Ġst ep
Ġe ff
Ġget Logger
Ġon ce
ĠW ord
Ġ: :
ĠH ook
Ġal ready
per ator
Ġse man
ind ent
ans i
raise s
Ġres olution
ook up
res h
MA N
iter ator
ĠIn dex
base map
Ġhas hes
Ġro bot
ĠUn icode
AR D
Ex c
ĠRe f
ĠRe ference
Ġk nown
St ep
valid ate
Ġspec ify
Im ports
son Sche
Ġle ast
GEN ER
ne ighb
Ġcontain ed
Ġform att
cal cul
emp Directory
spec ifiers
De coder
conv next
install ation
Ġreg ression
EX TENSION
Ġup date
Ġopt imizer
context lib
Un icode
Ġrepresent s
ĠDistutils Option
Ġtemp orary
license s
dis able
ffic ial
rypt o
>` _<
pyp a
Ġbin ary
rp c
rp n
ins ide
Ġob s
Ġexec ut
lex ers
Ġmat rix
Ġmat ches
ĠReg ular
Result s
sy mmetries
nd array
Ġconv olution
Header Dict
Ġclo sed
Ġstruct ure
Ġrot ation
ĠSc anner
PP ORT
rel u
ĠID NAError
coun try
PRE FIX
Hook Call
ĠPool Manager
ĠDo es
sec ure
ĠMutable Mapping
Ġ### <
BL ACK
child ren
Ar gumentParser
Retina Head
Ġdb m
Ġintern al
Ġnats orted
ĠOS Error
Ġexplicit ly
OP EN
ĠTraversable Resources
Ġlex er
Ġcoun ts
Jit Auto
Str uct
YAML Error
sur rog
clar ative
Ġmess ages
ĠFrozen Set
Ġinert ia
quent ial
Ġol der
Bn Act
hull ar
lfeat s
ĠPrint s
Ġasso ci
Ġseman t
sonSche ma
ĠDistutilsOption Error
HookCall er
JitAuto Fn
( ['
( .*
+ <
- >
. /
2 55
3 7
8 2
A c
B asic
B AS
C ustom
D OC
D ialog
F ore
G B
L ength
M ap
N T
P AR
R A
R ender
R enderable
S ig
S imple
S wish
S ession
T ri
T IME
U S
V AL
V alid
W in
] :
` _
b a
b ab
b eta
c ryptography
d o
g ot
h ub
i et
i py
j upyter
l mdb
m ix
m ultip
m esh
p lot
s ers
t ty
v io
y ear
Ġ jo
Ġ escape
in ing
Ġt f
Ġt mp
im gs
le ep
de dent
Ġf all
it ions
Ġc ookie
ic lass
Ġre port
Ġre pr
__ .__
an e
Ġs l
Ġs parse
Ġs uffix
Ġs moothing
Ġs lice
Ġo c
ed itable
Ġthe me
Ġin stances
Ġd ash
lo ok
Ġw indows
ĠT ag
ĠT est
Ġm id
Ġm em
ac ed
Ġ( )<
un der
Ġ' \\
ĠP ep
ĠP SNR
ers ist
pe ed
ĠC l
ĠC ase
ra veled
ĠL ightningModule
ĠS afe
ĠS cheduler
Ġ" '
up lic
Ġg aolib
ĠN e
ĠI S
ext end
ext ensions
ext ras
ir c
and ir
ss im
con structor
ult iclass
Ġcon struct
set item
tr ace
tr aceback
po ss
ĠM ish
In dex
In sensitive
Ġst ill
Ġde b
Ġde signed
qu at
ĠĠĠĠĠĠĠĠĠĠĠĠĠĠĠĠ Ġ
ĠĠĠĠĠĠĠĠĠĠĠĠĠĠĠĠ ĠĠĠĠ
SE R
Ġby te
Ġy et
). """<
ER T
Ġ{ :
Ġ`` .
us age
pat ial
Ġch o
Ġch at
Ġen able
ĠIn it
ĠIn finity
Ġma jor
AN G
Ġsc ipy
add ress
pon ents
met rics
man ual
ĠSe lect
Ex ec
config uration
Ġpass word
len eck
Ġtime delta
Ġnew er
Ġco p
Ġne ck
Ġne cessary
') ]<
ĠCom p
ĠDict Config
Par am
Ġtest ed
Ġrun s
build ers
Ġconfig parser
ific ations
dim s
min imum
Ġopt im
Ġoutput s
ĠJ SON
Un known
sh ould
Ġed it
Ġover ride
Ġsy n
Cont ainer
mb ed
Ġ5 17
Ġlink s
parent s
Col lection
ateg ories
Att ributes
Att ributeError
backend s
angu ages
Ġexpect s
Ġblock s
Ad ds
UN CT
Code point
ĠAl ign
Ġver ify
Ġnamed tuple
Ġsepar ate
Ġtr uth
align ment
Ġdown load
BBox Coder
Ġlangu ages
Ġdirect ly
ĠVoxel Grid
cat en
Ġbackward s
sv n
Ġcert ific
ĠQt Core
Sche me
Ġjoin path
Adapt er
CN N
Ġow n
plan es
Ġax is
dec ay
Ġvariable s
------ -<
ĠLo ad
Anchor Generator
Ġes c
Cookie Jar
CCE SS
vg Pool
Ġmac OS
Ġant ial
HW C
urt le
olded Case
ott leneck
Ent ropy
cf gs
ĠEr ic
EXTENSION S
OPEN SSL
Ġsemant ics
BAS IC
vio ur
ĠCase Insensitive
ĠCaseInsensitive Dict
' '
+ +
2 9
4 03
> ):<
> ================================
? ')<
A P
A nn
A ll
D ot
F ree
I d
I f
I t
K hullar
L ayer
L inear
M utable
M etadata
O rdered
P ol
P TR
R C
S K
S win
T h
T ime
T oo
T wo
U MENT
W arned
X iv
[ \
] ):
_ )<
b s
b ilinear
c uboids
e val
e vent
f d
g ener
h ook
j list
l ation
m ut
m as
m iss
p w
p il
p ast
r l
r on
t a
t l
u dent
w t
w indows
x x
Ġ ~
Ġ ERROR
in ert
se ction
on ic
re v
re quirement
re vision
re verse
Ġt oml
im p
im its
le m
le ft
Ġa uth
Ġa round
al iases
Ġf name
Ġf mt
ion Error
Ġc r
Ġc al
Ġc opyright
Ġc enter
from bytes
Ġp ur
Ġp ts
an et
Ġs omething
am ing
am odule
et ypes
Ġb py
Ġb dist
Ġb rack
Ġd d
Ġd ri
lo pen
Ġw arning
Ġw ere
ĠT rain
Ġm k
Ġm esh
ist ory
ad jlist
Ġ' )'
ĠP air
ex c
ex e
ex port
ex ample
ex clus
pe g
ĠC reate
Ġdef ine
ot onic
ĠL ONG
ĠS J
ĠS p
ĠS er
all ery
Ġg ray
ĠN on
ub le
ĠF ull
ĠF ilter
pl us
pl ayer
con st
com press
Ġun til
Ġun less
Ġ[ (
Ġlo op
ix path
ĠO P
In completeRead
file path
Ġde lta
ĠB atchNorm
ĠB ullet
qu are
qu iv
Ġos c
Ġim frombytes
SE S
Ġr ad
pre trained
Ġe asy
Ġon es
ĠH R
ĠH eader
ĠDe pend
Ġy ear
Ġcom ponent
per im
ain fo
ĠU R
Ġse en
Install Requirement
sc reen
quest ions
fo cal
Re p
Re quire
us l
RE MENT
ĠIn put
parse Tensor
dist ance
mo j
mo st
her ence
att ributes
Ġwe b
Ġpy openssl
add Edge
Ġout s
ĠRe ad
'] ,<
AL LOW
cont roller
abs olute
string s
compat ibility
train ing
Ġgener al
Ġid a
Com pute
Ġqu ote
Ġz ero
En ter
run ning
([ ^
bin aries
ĠĠĠĠĠĠĠĠĠĠĠĠĠĠĠĠĠĠĠĠĠĠĠĠ ĠĠĠĠĠĠĠĠĠĠĠ
An d
arch s
Ġmet a
PY OPENSSL
Ġcontext manager
Ġpart icular
Ġload s
Ġpos ixpath
Ġev ent
pol y
pol icy
sh are
Ch unk
VER BOSE
56 78
Ġcall back
ĠConv BnAct
wrap pers
Ġact ivations
ĠEn gine
ĠEn vironment
II II
Pro vides
Ġoper ations
ak es
Ġme asurement
Ġwork ing
Ġtransform ation
call back
Ġconvert ing
Request Field
cur ity
host name
Ġscript s
Ġexp ires
ob ile
sy mbol
orig inal
Ext ra
nect TimeoutError
METHOD S
UE UE
Message Defect
let ed
ĠSc ale
ites pace
ĠNo Return
DO WS
ĠVoxel ization
Ġneg ative
ĠLe af
Ġmean ing
ĠProtocol Error
ĠAdd itional
Sc ene
ipe line
full y
sq rt
Ġinclu ding
ĠProxy Scheme
Ġsig ma
Ġhandl ing
EXTR AS
ogn ition
BIT S
HA NUM
Up date
edi ainfo
ENUM RES
Ġwho le
Ġ-------------------------------- ----------------
inst alled
retin anet
Orig inal
REQUI REMENT
Ġappro pri
BRACK ET
Cross Entropy
ĠLegacy Version
ĠGo ogle
Ġ.- .
Ġassoci ated
Ġbrack et
ALLOW ED
" .<
" ),
" }<
' ),
) "<
) ])<
* )
. ")<
. ",<
/ ')<
3 3
> (
> ~~~~~~~~~~~~~~~~
A ction
B C
D ER
E qual
F l
F ilename
H ighlighter
I X
K EN
M e
M IME
N ames
N ERS
O n
P rint
R ange
R FC
R PC
V G
V iT
W e
Y ou
Z E
[ ^
\ "
] "<
b ine
c ing
c ard
c amera
d ated
d rawing
e v
f x
f inal
h o
h ang
h Module
i ro
j a
l per
l ision
m k
m ac
o U
o ugh
r al
r ation
r ate
s ampl
t x
t ure
t ility
u ation
v isible
x s
y te
y aw
Ġ ).
Ġ 64
Ġ raw
Ġ lfeats
or ed
in y
in ject
in ery
se gment
on d
-------- --<
re p
im in
import lib
Ġa ugment
Ġa verage
al pha
Ġf ill
Ġf ails
it z
it ect
Ġc ar
Ġc lean
Ġc ircle
is or
Ġre al
Ġre lease
__ }
__ :<
an el
ur lopen
Ġs ide
ct x
Ġin sert
Ġin verse
Ġb ind
ent ed
Ġw d
Ġw rong
ĠT able
ĠT ree
ĠT empDirectory
Ġ' *.
ĠP O
ex pression
Ġis sub
ĠC ast
ĠC uboids
Ġto o
ĠL og
ĠL ocal
ĠS tr
ĠS top
ĠS calar
Ġ2 8
id na
th at
Ġg uess
Ġg enshi
Ġ. ._
iz es
ĠD ataset
Ġv isual
Ġv isited
ĠF oldedCase
Ġh ad
Ġh and
Ġh Module
ter ed
con f
con n
end swith
com ment
com bin
Ġcon sum
Ġcon stants
ap es
ap ers
tr ust
ĠO bject
(' \
In it
In ter
Ġ20 0
Ġim m
are a
ifi es
ĠW hen
ang o
ang ed
Ġcom bin
ĠU N
ĠE lement
Con struct
00 2
Ġ`` <
ĠV er
Re presenter
us ion
us ers
RE EN
RE AM
app ed
app name
Ġres pon
Ġen c
Ġlist s
ĠCon vert
Ġ** _
parse d
back ground
Ġma int
dict s
Ġpy parsing
Ġlib raries
me asure
Ġclass ification
Ġpack aging
Ġno ise
Ġk ind
sert ionError
St ack
St ate
22 31
cont ain
Ġdat abase
SI ZE
Ġle arning
Ġle ading
ne ck
ĠCom ma
spec ial
De precationWarning
ĠK ernel
ach inery
ENT RY
Com ment
af ter
rot ation
rot li
Ġnames paces
dat aloader
En try
IL INE
request ed
Ġdiv ide
Ġlog ic
Ġinter preter
Ġmin or
Ġ... ]:<
Ġinstall ing
12 34
CE PTION
ĠJ upyterMixin
pol ate
imple mentation
ick er
Un it
sh ow
fl ict
Pool ing
Ġtarget s
TR A
Ġsy mmetries
Not e
cre d
Ġact ually
Ġgraph s
Data Loader
rypt od
STR ING
ID ENTIFIER
go ing
ĠFile Client
Ġallow s
db m
Ġpol y
Ġwork s
Ġtra iler
Ġmatch ing
angu age
For ward
Cl ause
Tree Walker
sens it
over flow
late st
ĠStyle Type
UN D
nd grid
orig in
Element Tree
ao Lib
AND LE
ĠName Error
glob al
trans pose
HTML Elements
mmet ric
COM MA
HAS H
emoj is
Ġsim ilar
Ġsa ved
Back end
sample s
Al ign
Sc ale
Ġunit test
IMA GE
SU PPORT
Iter ation
riter ion
tim estamp
Ġinclu ded
ĠCall back
Co unt
Ġdefinit ion
Ġdefinit ions
thread ing
ĠConvolution al
Ġagain st
pg en
ĠFeat ure
minist r
ĠSU CCESS
Ġproble m
ĠBO OL
Ġquatern ions
cook ies
Ġdescrib ed
clarative Base
Sig moid
bab ly
Ġcop ied
Ġantial ias
Two StageDetector
ĠCast ing
" ].
' ll
+ )
/ ',
7 7
9 5
: ]<
= {}
A F
A bstract
B lur
C V
D S
D o
D irs
F S
F loat
F FIX
G iven
G ui
H andle
M ode
M od
M ULT
N N
N amedTuple
O ver
O ID
O ptimizer
P lease
R aw
S OR
S pan
T ypes
U RE
V iew
V OID
W hen
` ,
a e
a ken
b io
b asic
b wd
b rand
b ullet
c ision
c ognition
d ic
d one
e ch
e fficient
f wd
g ra
g zip
g amma
h r
k er
l ing
m ing
m ore
m ind
o lean
r st
r ass
r aceback
s nowflake
t ri
t ol
t ail
t ies
t wo
v gg
v env
| <
} /
Ġ ),<
in c
in en
se q
on al
on Multipart
re peat
Ġt ex
Ġt ied
Ġt aken
at in
at ched
st orage
st udent
port er
le ctions
de st
al ar
Ġf ont
Ġf rames
Ġc p
Ġc os
Ġc ould
Ġc tx
># ##
is instance
Ġp op
Ġp air
__ ``
__ ':<
ur b
Ġs he
Ġs weep
ed Path
es ian
Ġd om
Ġd ynamic
Ġw ritten
ĠT k
ĠT CO
Ġm u
ac on
un c
un it
un ch
if est
ĠP ack
ĠP ip
ĠP ose
ch s
ch an
Ġl iterals
py py
pe p
ĠC re
ig ure
ĠS a
ĠS ystem
cl ination
Ġ" {
id i
Ġg ot
Ġg round
Ġas sum
ĠN ull
ĠG uild
ĠR ow
ĠR etry
ĠR emo
ĠD at
ĠD umper
ext ract
em on
ip es
Ġh acked
EN G
EN onMultipart
com e
com ing
Ġcon dition
`` )<
Ġu v
Ġlo w
set s
set ter
set Parse
ĠO utput
lib Exception
ĠM o
ĠM in
ĠM ethod
ĠM ust
ĠM ake
ĠM obile
In variant
Ġst ore
Ġst op
Ġde ter
Ġde pth
Ġde term
Ġ20 05
ĠB L
ĠB N
ĠB lock
() `
() ]<
ck pts
form data
Ġex pose
ater ial
Ġr and
Ġr feats
20 22
ĠW ith
Ġ+ <
(" _
ĠH MODULE
Ġ3 84
ĠDe form
bo olean
ms vc
ĠU TF
Ġse n
Ġse conds
Ġpro bably
pro p
00 1
sc hema
Ġ`` __
ĠGener ator
IN CEPTION
type conv
us ing
RE PL
art esian
eg ative
DE V
res ol
res olver
iter able
ĠCon structor
ĠIm ple
Ġab le
Lo ck
ide s
Ġpre fetch
Ġpre cision
Res ize
man aged
ĠSe lf
ĠSe ction
ĠRe ResNet
col lections
IT EL
Base Detector
Ġtime zone
instance check
ĠAr ch
Ġdat aloader
abs x
print able
Py Torch
DI A
Ġj it
Ġ201 9
for cel
ĠSt art
spec ifier
ĠK e
Ġgener ating
Ġid s
Ġread ers
ach ine
ultip lex
Ġext ras
[: -
Ġatt n
En coder
Ġiter dir
Ġreg ex
IL LEGAL
([ "
Ġup per
UR SOR
encode d
no ise
Ġfind ing
cs v
Ġel apsed
Return s
dot env
Ġser ialize
19 04
CH OR
fl ip
Ġvar s
Ġvar iant
ĠDistutils Error
Pool Error
Ġover lay
Ġsy mbol
Ġtemp dir
ant ize
Pro tocol
sp ired
sp inner
ID NAError
Ġnormal ized
Ġstat s
BO OL
ĠQ ueue
mod ern
Ġ'. '<
Request Handler
Ġutil ities
Ġbin ascii
zip file
Retry Error
rp han
Ġcre ating
ĠRequest Field
norm path
sens or
Ġob tain
IG NERS
rgb a
Ġdepend ency
Ad d
ob b
clo sed
clo ud
rc nn
Ġmap s
Ġcomp are
ĠData Loader
ran ch
Ġmultip rocessing
Ġxml rpc
BU IL
Method s
ĠDE BUG
Ġbeha viour
Ġkeep dim
assert True
Ġ{} ".
ASS IGNERS
PP ING
augmentation s
Ġdecode d
coun ts
Cre ates
Mark er
Ġdest ination
IM ENonMultipart
ĠST REAM
ĠSpecifier Set
Value Exception
ĠLe arning
Library Ex
TO KEN
WH ITEL
chunk s
Ġgo od
SU FFIX
depend encies
Ġvoxel ization
pix els
Ġax es
Ġcy cle
Ġdum my
VI DIA
ĠWIN DOWS
Ġseed s
Ġconnect ing
ĠOn ly
tok list
ĠParam eters
ĠParam eter
cremental Decoder
COD ERS
Ġvendor ed
RoI Head
IF Y
inv ites
Ġevict ed
separ ated
>`_ .<
jar aco
lu on
paper type
untime Error
FOR MAT
MO VE
Ġbund le
Ġterm inal
Ġprim ary
sess ion
Ġ:: =
BLACK LIST
sonSchema ValueException
look up
ĠCl ient
ĠSelect ive
Ġcertific ate
SK IP
Swin Transformer
inert ial
Ġpur pose
Ġrad ius
Rep Points
ĠProxyScheme Unsupported
Ġappropri ate
itect ure
sensit ively
setParse Action
forcel ist
ultiplex edPath
WHITEL IST
! ")<
) /
) ")<
. '
. ')<
2 8
4 6
5 2
6 5
6 8
= %
= ['
> .
> "<
> |<
A uthor
A CT
A fter
B N
C RE
C AL
C OL
C PU
D own
D PN
D umper
E poch
E mbed
F E
F ull
G BA
H MODULE
J IT
L iteral
L ocal
L ightningModule
M S
M Y
M ODE
N OT
N ormalizedName
O perator
S V
S ENT
S SES
W N
W ith
X Y
X t
\ <
] \
] .<
] ):<
] ]:<
_ ',<
b r
c r
c ross
d x
d y
d om
d ialog
e ff
f inder
i ate
j ip
k v
l inux
m ime
m achinery
o ptional
p p
p ure
r f
r ace
r anges
s w
s in
t ra
v ial
v oid
v ider
Ġ $
Ġ em
Ġ embed
Ġ -------<
Ġ ----------<
er ge
in ay
re ference
re presenter
st ages
ro ad
ro ff
ro gram
ro bot
le vels
de v
de tection
al s
al ent
al ive
Ġf eed
Ġf ragment
ut c
it ers
Ġc ap
Ġc are
is on
is ing
is dir
Ġp ert
Ġp db
Ġp lot
Ġp itch
Ġp otent
Ġre d
Ġre cursive
an al
an cy
Ġs us
Ġs dist
Ġo d
ed u
ed YAMLError
il i
il road
as array
Ġd en
Ġd st
Ġw arn
Ġw rit
Ġw alker
Ġw raps
Ġw heels
ĠT F
Ġm kdir
Ġm usl
Ġ( -
ad ene
ĠP art
ĠP adding
ex clude
ch ange
Ġl imits
py openssl
ĠC SI
ĠC Compiler
ĠC oun
od ers
el if
Ġdef ining
ig r
Ġan g
Ġfor eg
cl one
Ġ" $
Ġ" -
Ġ" /
ĠA da
ĠA BC
Ġas cii
Ġas signed
ĠN AME
ĠN ormalizedName
ĠG iven
ĠG aoLib
ĠR ep
ĠR untimeError
ĠD O
ĠF ore
ĠF IL
ate escape
__( '
EN COD
con s
com pose
`` ).<
Ġun safe
Ġ[ ],
Ġlo sses
ap plication
par ison
ect ed
lib vtk
ĠM ix
ĠM AR
ĠM lp
(' _
Ġst x
Ġde leted
ver ts
ver bose
qu ery
ĠThe me
Ġr d
Ġr bbox
pre p
ok ed
ĠW in
(" -
(" /
ĠH ead
ĠH ashes
nt uple
Ġ3 0
Ġal tgraph
ĠDe ep
ĠDe pth
ifier Head
ĠU INT
Ġse p
Ġse gment
ĠE d
ĠE num
': '
Ġpro p
text ure
fig ure
.. .<
Ġ`` '
ĠV S
ĠV alue
ĠV inay
RE ST
Ġch ose
Ġres ume
olut ions
box es
OR Y
Ġen coun
res idual
Ġlist ed
iter items
base name
back ward
att rib
Ġpy win
Ġpy rogram
Ġhas n
Ġsc ores
Ġsc andir
add r
ĠTensor flow
Ġstring End
Ġstring Start
Res Ne
ĠUn ix
ĠUn pack
AR Y
read the
Ġhe lper
IT H
attr s
Ġbase name
Ġbase string
Ġbuild ing
ere leases
ormal ize
SI G
Ġnew list
Im portError
Ġadd ing
Ġadd itions
son Handler
own er
Ġcheck ing
Ġrequest ed
test s
Ġ201 7
for ward
ĠCom bine
Ġfiles ystem
av es
install er
Ġ\ "
ĠBase Resolver
co very
Ġz lib
En coding
En gine
max imum
run time
vide o
uptools DeprecationWarning
An dS
input s
Ġdiv isor
EX PORT
Ġpl an
Ġpl ain
UR I
UR M
net loc
min s
not race
Ġ... ]<
the me
12 8
Ġdim ensions
pos ition
String AndS
sys config
Ġtim es
Tensor Collection
sh ort
CH W
fl atten
ĠDistutils Exec
VER IFY
Ġcall ing
Ġbet ter
Dist utils
Ġfl ag
Text For
CO DE
state ment
ca iro
normal ize
Ġoper ation
ĠQ UEUE
INE L
ĠInvalid Header
Ġsp an
Ġsp awn
block s
ĠX XX
json schema
NO DE
Ġdif ference
Ġwar p
MENT S
Ġoriginal TextFor
rp m
LO SSES
ĠInstall ationError
SC ON
Se quence
Se quential
FC BBoxHead
bl ue
ob s
platform dirs
render er
ĠCh arset
has hes
PAT TERN
Ġq y
ĠAl so
AND ARD
ĠParse Exception
15 9
trans port
Ġlong er
44 0
sk ip
sk image
Ġstd lib
return s
rand int
Ġsim ply
ĠPackage Finder
ĠSE QUENCE
ĠNew Type
INT RESOURCE
ĠConfig uration
pri or
Ġpix el
Ġpatter ns
term inal
200 7
WH ITE
mit ter
Ġattr s
Style Type
ĠQt Gui
lq s
Ġtrans late
ĠClass ifierHead
ĠTh read
Pre fetch
Ġ50 8
ĠHow ever
ĠEX TENSION
Ġindic ate
Ġindic ating
Ġnats ort
ĠPre fetch
Ġperform ance
ACE MENTS
CA SE
SY SCON
sim ilar
From StringAndS
unpack ed
ĠMA X
ĠMark er
auto grad
ĠHel pers
dri ve
dri vers
ĠSupport s
ĠOther wise
SP ACE
extra ctor
bz r
Ġmim etypes
ĠLib rary
Ġide a
ĠIP v
ĠBuild Environment
Ġrem ote
Ġeff ect
MAN Y
GENER ATORS
Ac cept
ĠInfinity Type
Mutable Mapping
Ordered Dict
Pol icy
Th read
quiv alent
moj i
rep points
ĠStop Iteration
Init ialize
Ġimm utable
ryptod ome
Mod ifications
gra de
ĠSa jip
ĠMobile Net
Ġdeterm ine
REPL ACEMENTS
egative Infinity
SUFFIX ES
SENT INEL
Ġpert urb
Ġforeg round
ENCOD ING
ĠMAR KER
Ġencoun tered
readthe docs
ĠDistutilsExec Error
FromStringAndS ize
" ])<
' ")<
' "<
) ``
) ("
- '
. )
3 9
4 7
6 6
7 9
9 3
: ",
; ',<
> ----------------
> ...
@ @
A ugmentation
B LE
B ytesIO
C R
C S
C andidates
C Compiler
C ERT
D B
D at
D ense
E M
E sc
F orm
F unction
F OL
F rame
F actory
G S
G CN
H tt
I ENT
L egacy
L ookup
L ANG
N ING
O PTION
P l
P ose
Q ueue
R un
R IP
S O
S pec
S ide
S upport
S ome
S OCKS
U sed
U til
W IN
X ML
Y our
] ')<
_ =
_ ):<
` .
a im
a ded
a ai
b f
b et
b right
b ones
b odies
c b
c cess
c compiler
d c
d ers
e verse
e valuation
e lem
f raction
f ba
g in
g on
g ist
h f
j peg
k ip
k ind
l arg
m issing
m ediainfo
n an
n am
n el
n dim
p h
p han
p air
r ont
r era
s av
s uch
t eam
t ts
u v
v isual
v aai
x ies
z oo
} '
} \
} ')<
Ġ ign
---- -<
or i
or iz
er m
in sensitively
on ath
on key
-------- --
re port
re ward
re present
re assign
Ġt urn
Ġt akes
at ely
im read
im estamp
en ame
Ġa ctions
Ġa ugmentation
"" ,
de p
de precation
al ity
he mes
Ġf ew
Ġf inder
Ġf igure
ar ange
Ġc allable
Ġc oder
Ġc pu
Ġc mp
Ġc ause
Ġc wd
Ġc ubic
Ġc ategories
># ################################
is file
Ġp b
Ġp ublic
Ġp ush
Ġre pl
Ġre com
Ġre size
Ġre vision
an a
ur ard
ur ity
Ġs w
Ġs ure
Ġs quare
Ġo ct
am a
il k
as ing
as ync
ct uation
Ġin tr
Ġin ject
Ġin stant
Ġb it
Ġb ub
Ġn at
Ġn digits
Ġd f
Ġd raw
ent al
Ġw ait
ĠT ested
Ġm ix
Ġm ulticlass
un safe
un nel
un ctuation
ad am
Ġ' '
Ġ' --
ch annel
Ġl ik
Ġl xml
Ġl azy
py gram
py parsing
ĠC andidate
ĠC UDA
ĠC artesian
od m
el apsed
el ta
ab ility
Ġdef ines
ra vel
ot es
ul abel
ce il
ag ic
ĠS im
ĠS ame
ĠS ome
ĠS queeze
ĠS parseTensor
cl ib
Ġ2 56
ĠA vgPool
Ġ# <
th r
Ġg pu
ĠG PU
ĠI N
ĠR ED
ĠR GB
ure Transport
ĠD ot
ĠD OC
ĠD own
ext ernal
and mark
Ġv irtualenv
ĠPy Qt
ĠF ast
ĠF IX
Ġh app
Ġh ost
Ġh uman
EN AME
con nect
end s
end ar
Ġun map
Ġ[ ]
Ġ1 1
Ġ1 50
ĠO ri
ĠM atch
ĠM ODE
(' /
In v
file post
qu ently
() [
Ġex port
Ġex it
Ġex act
Ġex press
url s
Ġso ft
ĠThe y
:// ...
est ero
Ġget s
ise d
IC ODE
Ġcom ments
Ġcom press
Ġx range
ind ll
Install ation
Ġpro j
Ġpro perty
Ġpro tocol
future s
pro ve
pro du
pro vid
00 5
AT E
ĠV ideo
ree ment
Re present
RE MOVE
RE CASE
=' '):<
Ġch annel
Ġset attr
Ġset ting
ĠIn st
ĠIn clude
base names
Ġab stract
parse date
her ical
ust ify
vendor ed
Ġpre d
Ġhas hed
Ġsh ared
Ġro i
21 03
Ġsc alar
ient ed
ĠUn safe
Ġout file
ET E
Ex it
ĠRe itz
'] :<
tin y
Ġdefault s
Ġback off
inal g
HE EL
Ġsub se
Ġsub folder
Ġ[' ../
SI M
SI BLE
ces sed
Ġadd ition
ian ts
SSL Error
Ġle vels
Ġcheck point
ĠRes olution
Net work
DI ST
Ġne ighb
Ġdo ing
inter preter
Dict ionary
che me
ns ure
ĠSt andard
ĠCom ment
ĠDict Cache
Ġgener ates
:` .
Ġread s
ENT ER
vert ices
Com pat
Ġdet ect
tt ers
Ġiter ator
Ġreg ard
check able
ĠĠĠĠĠĠĠĠĠĠĠĠĠĠĠĠĠĠĠĠĠĠĠĠ ĠĠĠĠĠĠ
Ġac ross
andl ers
ĠHTTP Exception
ĠHTTP HeaderDict
EX T
time out
Ġdoc utils
script able
ia o
vel ib
PY TH
min or
Conv ex
work ers
mon os
mark up
ĠCallable T
Ġcolor ed
Ġload ers
Ġdim s
Ġdim ension
pos als
ĠJ onath
ĠSet tings
ĠSet uptoolsDeprecationWarning
afe Loader
pol ys
dot s
ĠText ure
ĠText Type
ik it
sig ma
Ġvar iants
TER M
ĠPro ject
56 0
EP S
output s
dis play
Ġtree builder
Ġfl ush
Ġfl atten
sp awn
Ġent er
Ġent ries
decode d
Ġman ager
HEAD ER
Ġinit ialize
Ġmod ern
Ġmod ified
Ġvalid ation
Ġdir name
han ce
FI G
sign al
ĠInvalid Specifier
ĠInvalid Codepoint
Det ection
ud nn
Ġsp aces
enter Point
Att n
Ġtra versable
ĠCont rol
NI ST
NO RECASE
pyp irc
direct ed
{} \"
ĠRotated Single
Ġinclude s
ĠRequest Error
LO B
dig it
Ġwrap ping
SC RIP
over ride
assign ers
encoding s
Ġexp and
bl ind
clo vaai
Ġnamespace HTMLElements
ren dered
Ġconv next
Ġhandle s
Code c
Ġparent s
ĠPR OJECT
dum ps
Ġq z
Ġmy py
('. ')<
ĠParse Results
Ġclo se
part ition
soft max
enn eth
Ġfroz en
ĠHTML Parser
Ġsepar ator
ĠAN SI
ble sort
ĠSSL Transport
ĠEfficient Net
Test s
Ġadapt ed
Cre dential
bit rary
Ġsign ature
Ġstd out
Reg istry
Ġag reement
long est
ĠPool Error
ĠGraph Error
Ġmsg pack
Ġinv oked
ĠST ANDARD
TO ML
WH A
ĠClass NotFound
ĠSy ntax
ĠResource Reader
Ġref ine
ency Warning
Adapt ed
Gener ic
cos p
Ġreplace ment
ENTI AL
Retina Net
ĠEX TRA
################################ ########
As ync
ĠCache Control
ĠInt eger
CA CHE
hard sigmoid
hard swish
Ġsample s
ĠMax imum
ĠMax RetryError
GD Loss
VI SIBLE
ĠBack end
ĠZip Path
FIL ENAME
Ġhandl ers
ĠHel per
READ ME
Load LibraryEx
Ġdigest s
cremental Encoder
can onical
Ġmo ving
ĠFeat ures
ĠBe urard
Widget s
ĠDis play
ĠColor Tri
Ġcorrect ly
CL IENT
Max Pool
ĠDet ection
Ġcontribut or
ĠApp Engine
ĠSocket Error
Ġautomat ic
Ġautomat ically
LINE S
Sec urity
dif ference
iag ram
del item
Ġck pt
entic ation
ĠLocation ParseError
ĠAct ivation
Ġrobot s
neighb or
calcul ate
surrog ateescape
Ġoc curs
ĠNe ural
poss ible
ĠInit ial
Ġsyn c
caten ate
Ann e
Layer Norm
RC Command
miss ion
ĠSJ TU
Ġosc rypto
perim ental
ĠRead TimeoutError
Chunk Length
Update Resource
ĠTree Walker
Ġhand led
ĠElement Tree
Ġrespon ses
MULT ILINE
ker as
tol ist
Ġdom ain
DEV IC
resol velib
ĠArch itecture
rphan Path
Ġpotent ially
Ġ\" {}\"
Ġplan es
SYSCON FIG
everse en
tts x
Ġign ored
oriz ont
>################################# ########################################
Ġrecom m
Ġintr anges
Ġhapp ens
ĠMODE LS
://... ``)<
estero v
PYTH ON
SCRIP T
ĠColorTri plet
Security Warning
Ġ\"{}\" '.
" ):
( %
) \
) "),<
- %
4 8
5 00
5 12
6 9
9 8
: ,
: ]
= ",
? :
A X
A PL
A ns
A PP
B e
B IN
B uffer
B oolean
C types
C UDA
D P
D is
D oc
D LL
F ind
F eat
F ragment
F UNCT
G T
G roup
G PU
H ard
H istory
K L
L ike
M B
M ask
M NIST
N on
N um
N AT
O f
O bject
O ptional
O UT
P ack
P age
P UT
R ot
R ITE
R CNN
R GBA
S F
S LS
S AM
T ar
T emp
U tility
W h
W AR
W rite
Y LE
Z ip
[ <
\ '
a pe
a iled
c c
c ss
d l
e il
e ach
e urize
f ine
g z
g it
g win
g host
g ress
g mail
h g
h w
h ing
h am
h ip
h yp
h ow
h idden
h andlers
i y
i ers
j s
l ated
l anguages
l inalg
m ar
m ss
m ult
m eg
m ixed
m erge
m ilk
o in
o ct
o verse
o ising
p x
p are
r u
r w
s he
s ure
s sed
s ax
s imple
t d
t w
t ool
t type
u gging
v it
v is
v cs
w b
w ay
w alker
w char
w raps
w heels
x v
x z
y cor
z y
Ġ ~~~~~~~~~~~~
Ġ vector
Ġ ireq
in verse
se mb
re du
Ġt ake
im ation
im uth
st it
st ab
st mt
ro ut
ro ken
ro du
ro use
le l
le tters
Ġa m
Ġa mp
de ep
Ġ= '
al ways
al lel
Ġf ur
Ġf am
Ġf raction
Ġf ront
ar range
rom pt
ut ion
Ġc art
Ġc atch
Ġc au
Ġc alcul
Ġc ffi
Ġc eil
Ġimport ing
Ġp s
Ġp in
Ġp ut
Ġp ost
Ġp ipeline
Ġre peat
Ġre arrange
__ ))<
Ġs af
Ġs old
Ġs mall
Ġs leep
Ġo meg
et s
et ags
et ric
Ġin spired
Ġb ad
Ġb odies
Ġb rotli
Ġn ested
Ġd h
Ġd ry
Ġd uplic
lo op
ent ropy
Ġw indll
Ġm ar
Ġm omentum
ac er
Ġ( {
un install
ist ic
ol l
ĠP lease
ĠP SF
ch a
ch dir
ch ain
Ġl am
Ġl andmark
py test
py proj
py ttsx
pe ech
ĠC ode
ĠC Parser
ĠC ross
ĠC RED
ĠC red
el u
Ġdef ects
ra st
ra ft
ĠL abel
ĠL exer
ĠL inux
Ġan s
ĠS wish
ĠS calarString
ĠS pan
Ġ" --
Ġ" {}
Ġ2 4
str ate
th is
Ġth ree
Ġth us
Ġth ings
Ġg en
Ġg uild
ib l
Ġas k
ĠG V
ĠI Python
um ns
ĠR un
ĠR TF
ĠR Points
ĠR Lock
ĠD on
ĠD es
ĠD ATA
ĠD LL
ĠPy Side
ĠF ace
ĠF ield
ĠF older
ĠF actory
em a
em plate
ribut ed
ip s
ip ublic
Ġh bboxes
Ġdist ance
EN V
con stant
end ing
com ponents
gs pace
Ġcon f
Ġcon version
Ġun trust
Ġlo st
ap ex
par able
par sers
ys ql
ĠO R
ĠO b
ĠO r
ĠO ption
ĠO ne
yp ass
Ġnot e
init ial
ĠM ac
ĠM ap
ĠM ixed
ĠM etadata
(' <
(' ''<
Ġde que
Ġde dent
Ġde gree
Ġde tection
ver ify
Ġ20 02
ĠB asic
qu atern
qu ences
qu antize
() }<
() ``<
ĠĠĠĠĠĠĠĠĠĠĠĠĠĠĠĠ ĠĠĠĠĠĠĠĠĠĠĠĠĠĠĠ
ĠĠĠĠĠĠĠĠĠĠĠĠĠĠĠĠ ĠĠĠĠĠĠĠĠĠĠĠĠĠĠĠĠĠĠĠĠĠĠĠĠĠĠĠĠ
SE QUENCE
Ġr c
Ġr ather
20 19
20 02
ache d
pre load
pre ssed
Ġe i
Ġe quivalent
args pec
ore set
ĠW OR
ĠW ork
ĠW ritten
ĠH AS
ĠH ash
Ġ3 02
Ġal tern
ĠDe clarativeBase
ime o
Ġcol lision
ĠU sing
Ġse ns
Ġse quences
ĠE very
Ġint ens
ly ing
ĠV is
cept ron
IN AL
IN FO
type def
Re ference
Re porter
ma jor
ha z
Ġ< -
Ġ< <
kw s
eg in
os x
os ine
Ġset s
res ses
ĠCon nection
ĠIn ter
ĠIn secure
ĠIm port
iel ib
ST YLE
load s
ust er
Ġma ster
SS ION
Ġpy bullet
Ġpre fer
Ġpre tty
ich r
atch Embed
Ġro is
21 01
21 04
AN CHOR
Ġsc hed
Ġsc hemes
cache control
ink s
list s
sole te
ĠSe arch
ET IME
ĠRe al
ĠRe quire
ĠRe cognition
St dConv
Ġ% (
Ġsub stit
Ġle ss
ĠRes ult
ĠAp r
we b
Ġimple mented
cal c
spec s
clu ding
Ġgener ic
Ġgener ation
Ġdet ector
The me
ĠBase Constructor
Ġext ernal
co herence
Ġqu ality
Ġatt ention
ec ause
arg uments
CT RL
ĠĠĠĠĠĠĠĠĠĠĠĠĠĠĠĠĠĠĠĠĠĠĠĠ ĠĠĠĠĠ
prec ision
ĠHTTP Response
Ġbut ton
Ġmet aclass
Ġup dated
urrent ly
Ġlog its
Ġinter polate
Ġ... ]
mon th
mark ers
user id
process ing
Ġload ing
ĠJ sonHandler
File Error
String IO
Ġfeat map
sl ash
ene ous
ick le
ick ers
Ġencoding s
sh ared
Ġbuil der
19 11
seed s
Ch arset
------------ --<
ĠConv Module
ĠEn try
Cont ains
24 0
ĠOrdered Set
Data Frame
Ġman age
Ġhead s
Ġme chan
BO M
Ġrel ations
Ġrender er
TH READ
author ization
wh ite
ĠDefault Dict
face book
ĠQ u
Ġenv iron
Ġtransform s
ĠIt ems
Ġsp h
ĠX ML
ateg y
Request s
div ision
view port
main ing
Ġutil ity
Ġapp dirs
Ġcre ates
Ġcre dential
Ġpkg util
ĠCommand Error
Tree Builder
Ġexec file
Se e
Ġstride s
IG NORECASE
mat ches
weight ed
Node s
row s
Ġconv ex
Header Defect
Key Ex
Connection Error
PO INT
Ġq x
('. /
ĠWe ight
Ġclo sure
ĠĠĠĠĠĠĠĠĠĠĠĠĠĠĠĠĠĠĠĠĠĠĠĠĠĠĠĠĠĠĠĠ ĠĠ
ĠĠĠĠĠĠĠĠĠĠĠĠĠĠĠĠĠĠĠĠĠĠĠĠĠĠĠĠĠĠĠĠ ĠĠĠĠ
Ġet ree
Ġbeha ves
Ġsepar ated
assert Equal
ĠIO Error
Ġprocess ing
Test Case
rel ative
Cre ated
sk learn
Ġsign al
Open KeyEx
Ġsim pl
ĠNew line
Hel per
pri ors
Ġ~~~~~~~~~~~~~~~~ ~~~~~~~~
Ġsimple json
Ġinv oke
idget s
14 159
Ġfinal ize
Ġcert ain
Ġiss ues
ABC Meta
stack overflow
Ġspace Characters
Ġattempt s
End Event
Gener ate
Ġca rouse
Ġvoxel ize
AC P
AC Y
cell s
li er
Ġlower case
As sertionError
Link s
mm rotate
Ġauthor ity
dec imal
plet ion
Ġdisplay ed
sim ul
Ġmak es
Ġlex ers
GR AD
real path
ĠPlatform Dirs
clus ion
Ġlocal s
ĠWIN API
Ġaccept s
Ġaccept ed
ĠZip File
Ġindent ation
Ġbox es
ĠCan vas
ĠStream Type
ĠFl ags
Ġproper ly
Ġproper ties
RoI Extra
connection pool
Ġcomput ing
System Directory
ĠPyPI RCCommand
annot ations
USER S
Windows Directory
fast jsonschema
Ġselect ed
Ġchunk s
resolve Ctypes
>~~~~~~~~~~~~ ~~<
ĠLP VOID
ĠRo I
Standard RoIHead
Ġconsist ent
Output s
Platform Error
vo Norm
Ġvert ical
indent ation
Exc ite
Ġformatt ing
-> ")<
got o
multip le
plot lib
Ġmid point
Ġcho ose
Param eter
tl s
Ġcal endar
export able
ĠBatchNorm Act
ĠBullet Client
Ġweb encodings
symbol s
ho od
sampl ing
imin ator
Ġrelease d
Ġissub class
Ġmaint ain
ministr ators
acon f
ĠSystem Exit
emon strate
COL OR
CPU S
cr iminator
Ġem it
ĠCoun ter
SIG NAT
EXPORT ABLE
ĠMobileNet V
Esc ape
fba ipublic
Ġbub blesort
ĠFIX ME
Ġexpress ions
ĠInst ead
DEVIC ES
Ans i
Temp orary
mss ql
redu ction
stab l
rout er
rodu ced
Ġfur ther
Ġsaf ely
Ġsold iers
Ġomeg aconf
Ġuntrust ed
Ġmechan is
THREAD S
facebook research
ĠItems View
Ġcarouse l
RoIExtra ctor
resolveCtypes Imports
SIGNAT URE
fbaipublic files
" '<
% %
' %
' [
( """<
( ())<
) -
) ',
* \
, '
, )<
, ))<
. ],<
/ >`_<
3 88
4 1
5 3
5 8
6 0
6 1
7 0
: -
: ")<
< /
= \
> \
A ware
A RE
A man
A FF
B right
B ound
B OT
B ottleneck
C I
C UL
D F
D ate
E V
E fficient
F N
F etch
G L
G uild
G REEN
H R
H on
H INE
H KEY
H ANDLE
I R
I MAGENET
I oU
J az
K NO
L F
L IB
L anguages
L BRACKET
M IC
M IT
M emory
M easurement
M ultiplexedPath
N ow
N ON
N AB
N umber
N VIDIA
O K
O fficial
O rphanPath
P ER
P AL
P SNR
P UNCT
P HANUM
Q L
R AN
R UN
R untime
S cal
T W
T ool
T ry
T rain
T ENT
T CO
U s
U ATION
W el
W ITH
Y M
Y TE
] '<
] ],
_ :
_ ()
b w
b ind
b rid
b ca
c def
c ffi
c ircle
c annot
d r
d raw
d temp
e e
e f
e lf
e of
f in
g am
g aolib
g allery
h u
h ighlight
h bboxes
i or
i ol
i ang
i ence
j ac
l a
l ab
l int
l id
l ive
l ify
l ins
l atin
m id
m omentum
m aterial
m igr
m ysql
n ist
o UL
p illow
p aced
q t
q kv
r py
s dist
s andbox
s leep
s peed
s izes
t qdm
t ected
u c
u ed
u ide
u ous
u uid
v l
v ices
w ar
w rit
x c
x range
x cor
y es
y brid
z A
{ :
| \
} '<
} ').
Ġ ),
Ġ emoji
Ġ urlopen
Ķ âĶĢâĶĢ
or row
in iv
in sensitive
in cluding
se conds
se curity
re pl
re cord
Ġt d
Ġt w
Ġt unnel
en um
en oising
en ience
st a
st and
le c
le y
Ġa io
de epcopy
al abel
Ġf t
Ġf ace
Ġf alse
Ġf our
ar map
ar row
ar pn
ar ily
ar aco
ar Xiv
ut s
it ation
Ġc ent
Ġc id
Ġc sv
># :
is y
ic le
Ġp at
Ġp il
Ġp ri
Ġre ally
__ )
__ _
__ ).
Ġs olution
Ġs light
Ġs atisf
Ġs ites
Ġs andbox
Ġs patial
Ġo grid
il ers
il ities
ct ype
Ġin coming
Ġb ug
Ġb uf
Ġn oc
Ġd a
Ġd er
Ġd ense
lo sed
ent ries
Ġw b
Ġw ild
Ġw intypes
ĠT rans
ĠT rie
ĠT raceback
Ġm c
Ġm p
Ġm ixed
Ġm agic
un used
un sorted
un raveled
ad ow
Ġ' %
Ġ' *
if t
if ted
ĠP I
ĠP andas
ĠP anel
ex pr
ch o
ht ype
Ġl iteral
Ġl imit
urn al
om as
py c
py wintypes
py arrow
ĠC opy
ĠC ustom
ĠC alcul
ĠC GI
ĠC ython
ĠC URSOR
ĠC osine
ĠC HINE
Ġret rie
ra ys
ra gg
ce eded
ĠL ive
ĠL ookup
ĠS ize
ĠS ingle
ĠS upported
ĠS ession
ĠS VG
ĠS kip
Ġ" :
Ġ2 2
int ranges
str s
up per
ĠA ug
ĠA ssign
ĠA LP
ĠA verage
Ġ# --
id om
id ence
Ġg allery
ib ration
Ġas ync
ĠN F
ĠN amed
ĠN egativeInfinity
ĠG ET
ĠR et
ĠR ound
ĠR otation
ĠD an
ĠD irect
ĠD NS
ub yte
Ġv ery
Ġv irtual
Ġv ideo
ĠPy Py
ĠPy OpenSSL
ĠF orm
ĠF low
ĠF irst
em bers
pl ain
ser ialize
ser ializer
Ġh al
Ġfrom Node
ss ue
Ġor n
Ġ* =
Ġ* ,<
com mit
com ponent
Ġcon str
`` .
`` :<
Ġun wrap
Ġun supported
Ġun iform
Ġ[ {
Ġu i
Ġu id
Ġ1 4
Ġ1 5
Ġ1 8
Ġ1 99
tr unc
get env
get Raw
get TreeBuilder
ĠO pt
ĠO ptions
ens ure
lib c
ĠM IMENonMultipart
(' #
(' ../
In tern
Ġst ates
Ġst derr
file type
Ġde cl
ver al
Ġ20 08
ĠB en
ĠB ACK
ĠB ytes
ĠB BOX
ĠB igInteger
() ))<
() ``,
Ġim plicit
Ġex ha
Ġex pression
SE PAR
Ġr anges
20 17
PL ERS
ple ft
pre v
pre dict
pre vious
pre tty
Ġe val
Ġe valu
Ġe valuation
rap htype
iv ing
iv idual
ĠW rap
ĠW ill
ĠW inter
(" '
(" ,
(" .
ĠH art
ĠH andle
Ġ3 20
Ġal en
ĠDe codeError
Ġpar dir
Ġpar ses
Ġcom ponents
ain ing
Ġx s
ĠU p
ĠU DP
und file
Ġse q
Ġse nd
Ġse ems
Ġcl aim
ĠE voNorm
ĠE LF
Ġpro vid
Ġpro xies
pro b
pro c
pro d
Con straint
Con nectTimeoutError
Con flict
Ġunder lying
Ġint ended
Ġint roduced
quest ion
AT OR
ĠV ar
ĠV ert
ign Key
ans ion
out files
RE G
art icle
pack ed
Ġch oice
Ġch anged
Ġ/ =
Ġres pect
eg ral
MA P
MA PPING
ĠCon dConv
ĠCon nectTimeoutError
ĠCon verts
Ġraise s
ĠIn completeRead
ĠIm ages
Ġab stractmethod
Ġar Xiv
Ġar bitrary
ST AT
fix up
Ġdata root
SS IM
ide code
Ġpy wintypes
Ġpre load
Ġpre print
ML P
Ġro le
Ġro ut
Ġro aming
act ive
Ġnp rint
Ġlib name
Ġsc en
Ġdict s
Ġabs path
ast ype
ĠUn defined
AR EN
man y
Ġout going
xy xy
ĠRe ader
col lect
IT ER
Ġpass ing
Ġ| =
Ġ| |
St at
ence Handler
AL PHANUM
join path
len der
win reg
cont ains
PE ER
PE LINES
Ġsub type
fer ences
sed Version
Ġany thing
Ġle g
Ġle t
Ġco st
Ġcheck s
Py Bytes
ĠRes olve
Ġopen ed
OL ON
Ġj araco
') ))<
Ġap pend
object ness
ĠSt udio
Par sedVersion
De ep
train er
ĠK enneth
du o
Com parison
The se
ĠBase d
ĠBase Module
ĠBase New
ĠBase SSLError
ox els
[: ]
Ġcopy reg
Ġqu oted
dat amodule
Ġ4 27
Ġatt ached
ĠDist libException
En codeError
En hance
run Tests
arg overse
([ -
urre d
Ġorig inally
YPE PROC
Ġat exit
Ġup on
Ġpl ace
AS K
idd le
Ġend s
Ġdis pose
Ġmax size
Ġinter pre
not e
Ġglob ally
LS cheme
12 7
Ġstart ing
new object
Ġel en
Ġind ividual
ĠImage Net
Version TypeVar
Ġfeat s
cor ded
Ġser ies
Ġser vers
Un pack
Un defined
Un parsed
sig mas
Tensor Struct
19 97
gt k
prefix ed
Ġus b
Ġus ually
Ġneed les
ĠDistutils FileError
ĠDistutils PlatformError
TER S
HTTP Warning
HTTP ConnectionPool
HTTP HeaderDict
HTTP RequestHandler
Ġtrain er
Ġover laps
enc oders
ĠConv Net
cre ts
Ġact ivation
ant ic
Cont rast
Pro cess
Pro vider
Ġent ire
lt k
lt as
replace ments
Ġman ual
go od
Ġinit file
Ġ7 5
Get ACP
Get SystemDirectory
Get WindowsDirectory
Ġstat ic
Ġper mute
ĠCol lect
flow Method
Ġrel u
Ġprogram ming
wh ile
>` .<
mp otent
ĠInvalid Requirement
ĠInvalid Wheel
Ġ'. '
Ġ'. '.
Det ails
header len
ĠX Y
ĠX ception
Ġconvert ed
Request History
Dataset Wrapper
apt ure
)) ))<
]] ]
Ġdif f
ĠRotated TwoStageDetector
grad ing
Ġplatform s
Ġhelp ers
Class Var
ĠInstall ation
Tree Item
ret ries
Se lect
over load
over write
assign ment
top down
Ġdepend s
Ġdepend ing
bl ah
Ġweight ed
SL URM
sy m
sy mmetric
Ġfilter false
dum my
ĠCO M
ĠParse Float
Ġclo ud
Enum Key
Enum Value
TYPE S
uf ft
trans lation
:`~ .
COM MENT
Ġold str
ĠSSL Error
ĠSSL Context
Console Options
ĠâĶ ĶâĶĢâĶĢ
inu it
ĠID ENTIFIER
Cre d
PRE TER
Ġpr d
Ġpr ereleases
Ġsign ed
Mark edYAMLError
debug x
NAME S
NAME PROC
ynam ically
epoch s
Ġ~~~~~~~~~~~~~~~~ ~~~~
ref ine
Ġnorm ally
Ġstor ing
Ġstor age
Ġident ifiers
offset s
Ġinv olved
Ġ12 8
ĠWAR NING
ĠCON DA
BACK END
Ġbl ue
ĠUnsupported Extension
Sh ared
Sh arpn
ĠTh at
ĠTh omas
Ġlp Type
Ġlp Name
Ġalgorith ms
Ġ\\ <
Ġattempt ed
support s
Ġca ption
ĠFormat Control
cell ing
pan el
tim es
Ġpyp a
Ġow ner
plan e
Ġhighlight ing
Ġunpack ed
ĠRequirement Set
Start Token
CON DA
Ġdum ps
Ġparsed ate
Ap ply
SY NON
tot ensor
Ġsu it
ĠHard Swish
ĠHard Sigmoid
Callable T
From Page
LP AREN
QQ QQ
Ġport ed
ident ity
ĠMark up
ĠBack bone
Ġcoun try
LEG ACY
Can cel
Can celling
Grid Data
Le vel
rest ormer
rest oration
Environment Name
ĠHTTPS ConnectionPool
Ġfast er
Ġfast api
Ġ'/ '<
ĠAbstract Distribution
ĠFl ask
Ġdec imal
Ġevery thing
minist ic
Traversable Resources
space Characters
}) "<
Ġra ilroad
Ġmemory view
ENUM REST
Ġproble ms
separ ator
Ġnet loc
ĠBO M
Ġquatern ion
ĠTextIO Wrapper
CRED ENTIAL
Qu ery
see k
adapt ers
adapt ive
ĠRich Renderable
ĠSocket Timeout
Adam P
HH H
fe ather
mes hes
Ġdes ired
Ġprodu ct
INTER PRETER
Ġ`- '
ĠAdam W
ĠTOML DecodeError
GI oUL
aug ments
Ġck pts
ĠAdapt ive
resh old
ĠIndex ed
Exc itation
neighb ors
ĠRegular GridData
ĠTraversableResources Loader
DOC UMENT
PAR EN
multip rocessing
Ġjo b
Ġjo urnal
Ġsl ash
ersist enceHandler
ĠSafe Constructor
Ġdeb ugging
Ġoverride s
Free Library
past eurize
ĠTrain er
Ġmk path
exclus ive
ĠSp hinx
ĠDepend encyWarning
ĠUR I
focal pose
ĠVoxelization Type
ENUMRES LANG
ENUMRES NAMEPROC
ev ents
ĠPO ST
ĠStr uct
Ġ28 22
combin ing
ĠVer bose
Entry Points
ĠCallback Query
Ġantialias ing
={} ,
efficient net
onal d
ĠTk inter
idi Error
Ġgot s
ENG INE
Invariant Pooling
ĠWith out
printable s
modern ize
Ġpurpose s
CAL CUL
XY WHA
Ġembed ding
Ġsus pend
ĠRep r
ĠHead ers
Ġchose n
CODE S
FOL DER
gon s
Ġinstant iate
Ġ'' ')<
elta XYWHA
ĠSim on
ĠDOC UMENT
Ġexact ly
produ cing
provid ers
ustify Method
ĠUnsafe Loader
Ġsubse quently
Network s
Ġneighb or
Ġregard less
monos paced
ĠJonath an
ĠCacheControl Adapter
ĠAppEngine Manager
>######################################################################### #<
Ġrecomm ended
APP ENGINE
Be fore
Feat ures
RGBA ugmentation
SAM PLERS
ghost net
ru its
rw ightman
xv y
deep mind
Ġans wer
ibl ings
ĠOb tain
Ġsens or
haz mat
ĠConnection Error
Ġsched ule
calc size
Ġdetector s
simul ator
Temporary File
AFF INE
Bright ness
Hon da
Jaz z
KNO WN
MIC OLON
NAB idiError
PUNCT UATION
RUN TIME
Wel come
bw ang
eof s
jac ent
lid ing
lins pace
orrow ed
iniv as
Ġslight ly
Ġnoc over
ĠPandas TensorCollection
ĠCHINE SE
ragg ed
ĠALP HANUM
ĠNamed TemporaryFile
getRaw Ident
Ġexha ust
SEPAR ATOR
ĠHart ley
Ġprovid ing
LScheme Unknown
Unparsed Version
Sharpn ess
SYNON YM
ENUMREST YPEPROC
GIoUL oss
ENUMRESLANG PROC
CALCUL ATORS
! !
" %
" '
" >
" ],<
$ "
' }
' ve
' ''<
( "",
) *
) }<
) **
* =\
. {
. '<
. )),<
/ .
/ _
/ ~
/ __
/ '<
/ ")<
/ '))<
1 50
1 19
5 4
5 01
7 4
8 9
8 00
; ',
> !
> "
> ``.<
? $
? \
A Y
A ug
A uth
A ugment
A vgPool
B IC
B box
B lob
B ias
B ody
B SD
B YTE
C Parser
C LU
C adene
C ryptodome
C ENTER
D D
D irect
D RepPoints
E AD
E moji
F D
F older
G aussian
G LOB
H ow
I A
J upyterMixin
J sonSchemaValueException
L ab
L ow
L ast
L abel
L EX
L LEGAL
L anguage
M I
M at
O B
P ip
P art
P os
P illow
R out
R otation
R Adam
S H
S IT
S moothing
S GD
S egment
S QL
T yp
T ick
T here
U r
U ST
U TP
U rl
V EL
V imeo
X Net
Y AN
Y STRING
] ")<
` :
a T
a head
b u
b ut
b all
b est
b old
b ranch
c id
c ap
c ustom
c riterion
d t
d ay
d ia
d StdConv
e om
f eed
f ragment
f rozen
f ruits
g en
g st
g un
g if
g id
g aussian
g uess
h ot
h and
h bb
h ighlighter
h uman
h dr
j ie
j pg
k l
k s
k it
k ld
l c
l iteral
l ights
l azy
l anguage
l inen
m pt
m ess
m tree
m icrosoft
m ulticlass
m AP
n f
n i
n l
n acl
o per
o UR
p c
p lo
p us
p ublic
p ipeline
q w
r s
r bboxes
s un
s weep
t if
t up
t ract
t Color
u k
u ic
u an
u future
v en
v ate
v ant
v oice
v isited
x l
x ff
x ception
y m
y se
y our
z hang
} ]
Ġ ^
Ġ }
Ġ kw
Ġ ],<
Ġ err
or iented
er g
in f
in i
in el
in ja
in clination
se quence
se cond
re name
re corded
Ġt t
Ġt z
Ġt type
Ġt au
im es
st able
st ud
ro id
ro po
ro ps
ro cal
Ġa ff
Ġa lembic
Ġa udio
de g
de velopment
al gorith
he ssian
Ġf in
Ġf ra
Ġf ine
ar ing
ut es
ut ive
Ġc le
Ġc url
Ġc ha
Ġc riterion
># %%
ic on
Ġp h
Ġp ure
Ġp join
Ġp pu
Ġre n
Ġre name
Ġre po
Ġre ward
Ġre verse
Ġre strict
Ġre named
ur istic
Ġs r
Ġs il
Ġs low
Ġs ns
Ġs peed
ed it
as i
as inter
as ily
as sets
as semb
Ġin cor
Ġin ner
Ġin finit
Ġin clination
Ġb o
Ġb s
Ġb u
Ġb right
Ġb row
Ġb unch
Ġb ranch
Ġn one
Ġd i
Ġd y
Ġd id
Ġd ynamically
ent ation
ĠT ime
ĠT arget
ĠT ask
ĠT imestamp
Ġm d
Ġm ass
Ġm ias
Ġm apped
Ġm achine
ac cept
ri er
Ġ( /
Ġ( :
Ġ( ?:
un ion
ist ent
ist ics
ol low
ad ers
ad ded
Ġ' -
Ġ' ../
if ul
ĠP l
ĠP in
ĠP ol
ĠP os
ĠP op
ĠP ret
ĠP atchEmbed
ch ast
ch mark
pt cha
Ġl ate
pe ar
ĠC S
ĠC o
ĠC ar
ĠC SS
ĠC rop
ĠC andidates
ĠC ryptography
ĠC PU
ĠC lear
ĠC alculate
ĠC amera
ĠC NN
ĠC enterPoint
ĠC urrently
ile Error
ab b
ab stract
ot gun
ig lob
ag ain
ag ram
ĠL ightning
ĠS ap
ĠS ign
ĠS plit
ĠS ource
Ġ2 99
int s
ĠA T
ĠA V
ĠA uth
ĠA uto
ĠA gree
all back
th ers
th rough
Ġth ough
Ġg ive
Ġg down
Ġg aussian
Ġg rass
Ġg libc
Ġg raphtype
Ġg ym
Ġ. __
Ġas pect
ĠN um
ĠN orm
ĠN ormal
ĠN AF
ĠG EN
ĠG host
ĠG luon
ĠI LLEGAL
um ask
ĠR t
ĠR MS
ĠD ate
ĠD oc
ĠD emonstrate
ext raction
ir m
Ġv oxels
Ġv xvy
ĠPy Open
ĠF oo
ĠF eed
ĠF LOW
ribut or
ip rocal
__( **
path sep
Ġh ack
Ġdist s
EN O
con tin
Ġ* ,
Ġ""" :
com es
com pression
Ġcon da
Ġcon ne
Ġcon vent
Ġcon current
Ġcon straint
Ġun ary
Ġun quote
Ġun expected
Ġun ravel
Ġun directed
Ġ[ -
Ġu uid
ke h
tr ued
po w
po sing
po wer
get opt
Ġbe gin
== <
Ġnot hing
init ialize
ĠM e
ĠM AD
ĠM issing
ĠM eta
ĠM emory
(' &
(' \\
(' ').
In crementalDecoder
Ġst icker
Ġst armap
file list
Ġde g
Ġde al
Ġde codes
Ġde precation
ver ter
ĠB ut
ĠB ad
ĠB lur
ĠB ecause
qu ats
() '
() ),<
are n
Ġex perimental
Ġex ceeded
Ġ0 0001
to chast
Ġr pn
20 00
20 01
20 10
20 18
Ġe g
Ġe ar
Ġe fficient
Ġe stabl
:// {
ĠW hat
data Elements
(" --
(" ./
Ġ: ,
Ġ: ]<
ĠH idden
ĠH ANDLE
ĠH EAD
ĠDe c
ĠDe v
bo p
bo keh
Ġcom ma
per m
ain Map
ĠU I
ĠU T
code c
ĠE vent
ĠE nsure
Ġ{ !
Ġpro c
Ġpro posed
Ġpro posals
Ġpro gress
Ġwh ose
Ġwh itespace
pro gram
pro bs
Con verter
text ures
sc ikit
Ġ`` /
Ġter min
ign Attributes
Ġnum er
Ġnum class
ĠGener ates
RE PO
pack et
app dirs
Ġfull name
=' ',<
iter ators
ĠCon text
ĠCon straint
ĠIn crementalDecoder
ĠIn voice
#### ##
ĠIm prove
Ġar m
Ġar rays
parse String
parse addr
ST ALL
mo unt
back port
Ġwe ak
Ġpy d
Ġpy lint
Ġpy uic
Ġpre dict
Ġpre served
rain ed
Ġad mins
Ġad jacent
Ġro ll
act ivations
21 02
Ġlib usb
eat o
ĠTensor Struct
FA IL
point er
OT AD
ast ian
met as
man ifest
Ġpack s
Ġout files
ĠSe quential
Ex plan
ĠRe place
config ure
'] ['
Ġversion added
te ctions
atter n
St d
22 9
files ystem
Ġbase s
valid ator
win error
Ġsub part
Ġsub tract
Ġdat amodule
SI P
SI ST
Ġnew object
Ġnew bytes
ian a
stru ctions
ĠIter ate
Ġco variant
Ġcheck points
Py torch
Py Qt
sub directory
Ġj upyter
Ġinput s
Ġassert Is
cal led
Ġap pear
ĠSt ep
ĠSt icker
ĠCom pose
ĠCom pute
Par allel
clu ded
Ġgener ally
Ġpoint er
ach ing
Ġrun ner
Com mon
Com mented
=" %
ĠBase Model
co ordin
Ġqu ite
Ġqu otation
Ġqu otes
Ġatt ack
IO U
En code
Ġreg istry
([ (
cv tColor
Ġac cur
split s
pect ive
Ġitem getter
ific ant
Ġfol ders
Ġmet ric
Ġdoc s
Ġshould n
pr im
Ġup grading
index ed
Ġmax headerlen
Ġmin imal
Ġmin idom
Ġopt s
12 52
Ġcolor ama
Ġimplementation s
ĠJ sonSchemaValueException
ĠJ AX
ey e
new list
LE VEL
cs i
ibility Wrapper
CHE ME
sl ashes
Ġser ializer
kg l
Var iant
doc utils
doc ument
sh al
sh apes
Ġremo ving
Ġindex ing
ĠEx ceptions
19 99
19 08
fl c
log its
op ri
Pool Manager
HTTP Connection
Ġover load
unt u
enc oder
ĠConv ex
cre ated
wrap ped
dis allow
rad ius
Ġtree builders
Ġfl at
IB LE
17 08
Text Type
ĠZ IP
replace ment
Token Type
tree builders
ĠFound Candidates
ĠFound Links
ca ptcha
Ġnormal izer
ION S
Ġhead ing
Ġdir url
Ġme ans
Ġme ant
unk nown
FI oUR
Ġper ceptron
(_ ,
require d
ĠConsole Renderable
wh l
ĠString Builder
Ġtensor flow
ĠInvalid Version
find all
ud o
ĠCont ainer
ĠCont ributor
Ġfa ctory
Ġfa iled
target s
ĠRotated RetinaHead
ĠRotated AnchorGenerator
ĠRotated BaseDetector
Ġapp author
Ġcre ation
Ġscript ed
Ġob solete
Ġthread s
Ġexec ute
extern ally
bl ack
Ġ"" .
Ġ"" ,<
Ġmat plotlib
EL LOW
render ing
iss ue
Ġloc ale
Ġcomp ile
Ġens ures
avg max
Rotated Single
Rotated RetinaHead
Rotated TwoStageDetector
dum b
Ġmy python
Mix ture
Ġstruct ures
Ġrot ate
WOR K
Ġdot env
trans late
Ġsepar ators
401 2
To Win
Ġtar info
COM PAT
Console Error
Ġcoordin ate
KEY S
PT YSTRING
rel ated
Ġadapt ive
Ġsign ificant
ĠTX O
formatt ed
ĠUser Dict
Reg ex
Qt Core
toml i
local host
Ġword s
Ġimplement ing
Ġident ical
Ġdirect ed
ĠST ART
Back port
Back ground
sec utive
ĠDrop Block
plug ins
ĠMutable Set
sv g
ĠTLS v
char det
Al ias
bar rier
just ify
Ġbl ank
Ġgo al
Ori entation
Ro le
Sh ort
depend s
Ġnetwork s
ĠPillow Color
ĠPillow Blur
ĠPillow Contrast
ĠPillow Brightness
ĠPillow Sharpness
End Token
Gener ates
Pre dict
Ġrow s
Color Tuple
Iter able
cp p
tim m
Ġcmd options
Ġunpack b
ĠEX P
Start Event
Ġintern ally
CON TENT
Link Source
Ġposs ibly
ĠCache Value
make file
Ap p
Ġredirect s
Ġsu ite
Ġsu ccess
(? :\
gn ore
Ġclip ped
Based Run
Anchor Head
Can vas
FIL E
cert ifi
non multipart
rec ipes
rec iprocal
Ġmo ve
Ġmo ved
ogn ized
Ġra vel
ĠSh ow
ĠBody Cache
SET S
Ġcomput ation
Ġbackport ed
Default Dict
aut iful
retin a
Ġtop k
oted ScalarString
byte array
Orig inally
36 5
Qu otedScalarString
TA G
Target s
Target Name
font size
oun ce
Ġrec ent
Ġmon key
Ġtool s
ĠSub ject
Ġcontribut ed
Ġordered dict
ĠAnsi ToWin
Ġmanipul ating
EnumResource Names
EnumResource Types
EnumResource Languages
Match er
Ġtri gger
leg acy
ĠUnicode DecodeError
GENER IC
Ġexecut or
secure transport
surrog ates
(.* )")<
Custom Exception
Fore ignAttributes
Render er
mix up
Ġsl ides
Ġmem bers
poss ibly
SER VER
Ġbyte array
Ġcho ices
Ġoptim ization
ĠAlign Method
ĠLoad s
>================================ ================================
gener ate
Ġcal ibration
Ġdri ver
Require ments
Ġouts ide
Ġevent ually
Ġmeaning ful
iny in
conf irm
Ġconsum e
ĠUN ICODE
SUPPORT ED
CV PR
tri vial
Ġpair s
ĠPack er
ĠPip Session
ĠCre ated
ĠRemo ve
ĠMin imum
ĠDeform able
ĠDeform Conv
ĠKe ep
BUIL D
68 1
CRE T
Epoch BasedRun
Full Loader
eff ects
pure lib
anal yse
Ġod d
Ġwrit ing
ĠFore ignKey
cons istent
ĠDepth wise
ResNe Xt
Distutils Error
Prefetch er
Dense Head
Pose Widget
Util ities
XML RPC
Ġlik ely
ĠOri ented
Inv ite
Ġenter ed
ĠRotatedSingle StageDetector
Credential Blob
orizont al
SCRIPT ABLE
Rot ate
zy me
Ġmar shal
ĠDes ign
ĠFace book
Ġaltern ative
Ġintens ity
ĠVis ibilityWrapper
STYLE S
Ġsubstit ution
ĠEntry Point
Ġrelations hip
Ġsimpl ify
Ansi Token
Bound ary
PER SIST
Train ing
fin ished
lec SLS
Ġpri or
Ġwild card
ĠOpt im
Intern al
ĠVar iable
Ġleg acy
note book
ĠInvalidWheel Filename
Ġsuit ify
ĠRepr Highlighter
CLU DE
GLOB AL
Part ial
Pillow RGBAugmentation
SIT ORY
Smoothing CrossEntropy
Tick Count
UTP UT
mpt y
ropo ut
algorith m
Ġfra ctions
Ġsil ently
Ġincor rect
Ġinfinit e
Ġmias m
ĠPop up
ĠCandidates FromPage
abstract property
again st
ĠSap in
ĠAgree ment
Ġgrass plane
ĠNormal ization
ĠGEN ER
ĠRMS prop
Ġconne ctions
trued iv
ĠMAD GRAD
ĠBlur Pool
tochast ic
REPO SITORY
ĠInvoice GCN
OTAD ataset
Explan ation
EpochBasedRun ner
" ^
" ])
" [^
' ^
( ("
) (
) ;
) }
) """<
) '<
) ",<
) ],
) ].
) ").
* ,
+ ?)
- +
- ]
- (?
. \
. ):<
. ],
/ #
0 2002
3 8
3 002
4 3
6 00
7 1
7 6
8 22
9 4
: ])<
: ].
; ').
= ["
> /
> [
> .<
> -------<
A V
A v
A SE
A PE
B E
B ER
B IO
C ut
C fg
C Base
C ould
C UR
C alled
C enter
C DATA
C ars
C rypto
C URSOR
D om
D IC
D AT
D ep
D IT
D WORD
D hi
E C
E LE
E SC
E mitter
F M
F IN
F eed
F unc
F ailed
F TW
G V
G o
G ST
G host
G liding
H ash
H igh
H ashes
I V
J SON
J OB
K G
K T
K ernel
K ld
L imit
L ocation
L ENG
L ETE
L ITER
M D
M M
M P
M o
M y
M on
M is
M ac
M em
M ain
M ixer
M ulti
M odified
M icrosoft
M IMENonMultipart
N ET
N ormal
N ormalized
N ONE
N ormalize
O ff
P IL
P arent
P open
P orted
P air
P apers
P unctuation
P rompt
Q I
R el
R atio
R GB
S PL
S ample
S AME
S ITE
S HA
S parseTensor
T itle
T rip
T raceback
U I
U se
V T
V AR
V OC
V isual
V iol
W R
W ay
W indow
W riter
W raps
W ait
W HEEL
X range
[ (
[ _
[ ~
] (
] /
] ['
] ])<
_ -
_ ()<
` ).<
a if
a ctions
a round
b on
b ang
b encode
b zip
b convert
b rotli
b idi
b untu
c er
c art
c client
c ently
c bc
c ureTransport
c udnn
c urred
c rops
d ct
d ra
d key
d ask
d uplic
e i
e ign
e valu
e asy
f s
f ill
f ancy
g v
g y
g ray
g ui
g reen
g enshi
g luon
h ib
h ind
h ide
i u
i ase
i hat
j k
j wt
k f
k ing
k to
k inen
l amb
l ie
l wh
l xml
l strip
m se
m im
m pl
m nt
m ust
m ml
m ber
m nist
n as
n adata
n fc
n ier
p m
p in
p et
p un
p id
p ap
p ull
p Formatter
p ickle
q s
r nn
r bbox
r mtree
s at
s Error
s ide
s ome
s mall
s olutions
t ab
t tr
u x
u ses
u da
u ish
u FE
v z
v ise
x fe
y u
y y
y an
y code
y cbc
y dra
z ma
z ill
z imuth
| |
} {
} ',
} ",
Ġ ,
Ġ ]
Ġ :<
Ġ ist
Ġ END
Ġ ]+
Ġ ulabel
-- -<
or p
in er
in valid
in ations
in crement
in coming
>< /
se lect
se udo
on ous
re y
re ction
re try
re map
re maining
Ġt b
Ġt ro
Ġt ab
Ġt gt
Ġt urtle
Ġt emplate
at an
at lib
im er
im ate
im pl
im ensions
im aged
en gine
en zyme
st rain
st ark
st ates
st op
ro b
ro v
ro ck
ro sta
le ine
le ave
Ġa way
Ġa zimuth
de cor
de gree
al g
al ter
al ize
he b
he ll
Ġf i
Ġf av
Ġf lex
Ġf uturize
ar nt
ar io
ar av
ion aries
it or
it Stack
it alize
Ġc c
Ġc ut
Ġc irc
Ġc udnn
Ġc apture
Ġc uda
Ġimport ant
is ode
is ra
ic ies
from array
Ġp ct
Ġp ager
Ġp ipe
Ġp ersist
Ġre org
Ġre order
Ġre curs
__ [
ing er
ing Python
ing ular
ing Tool
ing uish
an ch
an ded
an pm
lf ile
lf etch
ur m
ur s
ur rog
ur lfetch
Ġs gr
Ġs mooth
Ġs sim
Ġs iblings
Ġs ingular
Ġo thers
ed ian
es hes
et ri
Ġin vert
Ġin sensitive
Ġb z
Ġb el
Ġb ast
Ġb ypass
Ġn args
Ġn ms
Ġn ll
Ġn pos
Ġn tl
Ġn dbm
Ġn esterov
Ġn ltk
Ġd l
Ġd r
Ġd ue
Ġd lib
Ġd ay
Ġd NS
Ġd iagram
lo bj
Ġw ipe
Ġw riter
Ġw Language
ĠT ue
ĠT ry
ĠT urtle
ĠT anel
ĠT erm
Ġm uch
Ġm ediainfo
Ġm aterial
def late
def ects
def ining
ac her
ri an
ri end
Ġ( ~
un ter
un quote
un squeeze
un ichr
ist sError
ol ds
ad a
ad amp
ad orn
ad mins
ad ministrators
Ġ' ',
ĠP ix
ĠP aper
ĠP layer
ĠP late
ĠP ango
ĠP ersistenceHandler
ĠP attern
ex ml
ex ception
ex ports
Ġis dir
Ġl id
Ġl ight
Ġl inux
Ġl Param
Ġl residual
ers al
ers pective
py OpenSSL
py wt
py player
ĠC A
ĠC Python
ĠC Loader
ĠC pp
od ay
el p
ab i
ab orn
Ġto pleft
ra j
ra variant
ul um
ul ate
ul ates
Ġreturn ing
ame file
ag raph
ag ename
ĠL Q
ĠL ay
ĠL ook
ĠL oss
ĠL amb
ĠL imit
ĠL inear
Ġan ame
Ġan imation
Ġfor eign
ĠS in
ĠS up
ĠS cre
ĠS GD
ĠS SIM
cl dir
Ġ" ,<
Ġ2 34
str error
up dated
ĠA PE
ĠA ugmentation
ĠA symmetric
ĠA ttr
Ġ# :
id am
Ġth ing
Ġth ink
Ġth reshold
Ġg b
Ġg c
Ġg re
Ġg id
Ġg ate
Ġg ues
Ġg reen
Ġg ives
ĠN A
ĠN ames
ĠN eed
ĠN VIDIA
ĠG T
ĠG round
ĠI s
ĠI ssue
ĠR P
ĠR am
ĠR andom
ĠR aw
ĠR atio
orm able
orm ous
ure d
class ification
ĠD raw
ĠD raft
ĠD enoising
ĠD eltaXYWHA
ir ks
and roid
Ġv oid
Ġv cs
ĠPy P
ĠPy torch
ĠPy So
ĠF D
ĠF loat
pl ies
__( *
path name
ser vice
ser vices
Ġh i
Ġh im
Ġh yp
Ġh ome
Ġh istory
Ġdist inguish
Ġtorch script
Ġtorch sparse
ss lobj
EN et
con struct
con catenate
Ġ* _
com poser
com posed
Ġcon caten
Ġcon flict
Ġstr ategy
`` ,<
Ġun ix
Ġun its
Ġun defined
Ġun ordered
Ġun raveled
Ġun parsed
Ġun finished
Ġ[ [
Ġ[ _
Ġlo ops
Ġlo aded
ap py
Ġ1 3
par ator
set attr
set opt
set state
set Level
tr im
get state
Ġbe v
Ġbe come
Ġbe hind
ens ive
ire ctories
lib usb
init file
ĠM or
ĠM an
ĠM ore
ĠM ay
ĠM ultipart
ĠM omentum
ĠM ultiplexedPath
ĠM oll
ĠM UST
ĠM asinter
(' %
(' ^
(' {
(' [\
In crementalEncoder
In dia
Ġst able
Ġst eps
file object
Ġde v
Ġde velopment
Ġde prec
Ġde sign
Ġde clar
Ġde composed
ver ified
so undfile
ĠB B
ĠB R
ĠB l
ĠB uil
ĠB ox
ĠB ey
ĠB oolean
ĠB ottleneck
ĠB ond
ĠB astian
qu iet
qu xx
() ]
() ])<
ck pt
form er
form ance
Ġim ply
Ġim write
are st
are Mixin
Ġex posing
version control
url encoded
gg reg
to o
SE Loss
SE CRET
Ġr t
Ġr ate
Ġr ule
Ġr residual
Ġe z
Ġe ver
Ġe lem
:// <
:// ``
:// ",
ok ens
iv ate
iv ersal
Ġget env
Ġget gr
Ġget next
Ġget pass
Ġget pw
ĠW idth
ĠW IP
ĠW HEEL
ĠW RITE
ĠW asi
data root
Ġ+ ----------------
Ġ+ ----------
ĠH e
ĠH as
ĠH ell
ĠH KEY
ĠH uk
Ġ3 5
Ġ3 08
Ġ3 07
Ġal g
Ġal abel
ĠDe cor
ĠDe precated
size of
Ġcol late
Ġcol lated
Ġcol umns
Ġcom e
Ġcom mit
Ġcom pletion
ern els
ĠU i
ĠU s
ĠU sed
ĠU tility
und led
Ġse lection
Ġse curity
Ġse veral
Ġse crets
Ġse aborn
ind sr
Ġcl one
Ġcl ick
ĠE mbed
ĠE mitter
ĠE moji
ĠE mpty
Ġtyp ically
Ġpro vision
Ġwh ite
Con version
Con stant
00 22
sc andir
lic k
lic ing
ard ised
model ine
Ġpath name
fo und
ĠV OC
Ġsup pressed
Ġname prep
NU LL
IN S
IN DE
IN VAL
IN STALL
Re String
Re vision
Re Sub
Re vise
"< {
ma int
out going
RE F
RE SET
ha ve
Ġ/ <
Ġres hape
Ġres ample
Ġres net
Ġres olver
Ġare n
Ġ< /
kw idgets
DE LETE
OR CH
OR IG
OR ITE
Ġen ormous
num el
MA CH
iter keys
ĠCon da
ĠCon struct
ĠIn ception
ĠIn ference
ĠIn herit
ĠIn crementalEncoder
base string
ĠAn other
ved Command
): :<
Ġcont ravariant
Ġurl un
Ġurl encode
32 2
back slashes
Ġwe ake
SS Kld
sing Error
Ġpy installer
Ġpy stark
Ġsh own
Ġsh adow
Ġsh ift
21 06
21 84
Ġlib c
AN A
AN et
Ġsc reen
Ġsc hema
add Handler
ĠTensor Collection
cache str
cache points
FA R
ert ypes
Type Registry
param etri
Res idual
Ġcode point
list dir
ml inks
Ġclass Dict
ĠUn order
AR C
AR RA
torch ist
ĠSe parable
ĠSe cureTransport
reg ular
Ex istsError
ĠRe v
col lision
'] )
lob al
Ġ| -
Ġ| _
Ġ| \\
Base Exception
Base Cache
Base Model
Base New
St ark
St udio
St orage
Ġback slash
buil t
len ame
inal Theme
Ġtry ing
win s
Ġbuild sys
HE S
cont ra
Ġsub dir
Ġsub modules
Ġsub package
Ġsub sur
with out
Ġspec ification
Ġspec ifiers
Ġspec ifies
Ġnew str
Im possible
Ġtext ure
Ġadd ress
ilen o
Ġle arnt
Ġkey val
Ġkey ring
Ġcheck er
Module Type
pace Reader
sub class
sub parts
sub mission
test ing
we ak
Ġdo uble
Ġj peg
ne ed
Ġcontain ers
') )
') [
lay out
Ġap i
Ġap parent
Ġap plied
ĠSt ride
ĠSt dConv
ĠSt ickers
Ġsupport ing
ĠDict ionary
Par singError
De clarativeBase
train val
ĠK FIoUR
ĠK leine
ward s
Ġid nadata
av ar
Com poser
ĠBase Cache
ĠBase Assigner
ĠBase Environment
ĠBase BBoxCoder
ĠBase Scene
ĠBase Representer
ĠBase Reporter
ĠBase DenseHead
[: ]<
10 4
10 8
10 24
rot ations
AD ATA
Ġqu iet
df Dataset
Ġ4 40
Ġz f
Ġz r
Ġatt ach
ray Scale
ĠDist ributed
Ġiter keys
Ġiter items
Ġiter values
det ect
det ails
arg types
IL S
check ing
CT STR
split lines
pect Augmentation
ĠHTTP Connection
ĠHTTP ConnectionPool
ific ally
EX CLUDE
Ġparse Fragment
pr d
Ġup grade
Ġpl t
Ġlog ical
net s
start s
Ġdis criminator
cket ing
cket Error
Ġinter val
Path Finder
Ġ... '<
Conv FCBBoxHead
Ġinstall ations
mon d
mon otonic
graph ident
default s
Ġimage io
mark er
SR C
Ġfind s
Ġi e
Ġstart s
tuple s
Ġpos itional
Ġev ents
File Attributes
Version Error
cor rection
dot ty
sl urm
context j
context o
ene DatasetWrapper
Ġser vice
word s
Un ix
Un available
doc info
sh aring
sh otgun
ĠEx itStack
19 05
19 07
gt kgl
Ġsome one
Ġfield name
Ġvar i
Loader Adapter
ĠDistutils Internal
ĠPro vide
ĠPro vides
HTTP Message
HTTP Server
HTTP Response
06 00
56 35
pool manager
Ġbet as
Not Chunk
Not Htt
Set up
cre te
cre ds
ĠEn larg
Cont roller
Dist libException
dis card
dis covery
oo ja
Ġfl us
Ġfl ask
11 1
sp h
(). ")<
Data Module
Data Source
Text IO
ank s
Ġhash able
tree item
Ġ10 3
Ġeach line
NA F
go verse
Ġ-- -
ĠFile Cache
ĠFile ExistsError
Ġvalid ator
ak ing
exist ent
Ġgroup by
pop item
Get Console
Get Std
Get TickCount
unk res
Ġzip import
ĠCol on
Ġprogram s
lower key
wh en
Ġlink ed
az ing
az ily
itle ts
Ġoption ally
loc ate
>` <
ĠInvalid ChunkLength
Ġprefix es
call er
Ġsp am
Ġsp inner
Ġsp herical
block ing
var s
ĠX LA
Request Error
Att ribute
div ide
Ġtra il
Ġtra verse
OCK SIZE
NI X
Ġfa ir
ampl ing
)) ?
Ġbound ing
pyp lot
Ġbackend s
Cache Key
{} ".
{} '.
isc ale
isc losed
Ġhard tanh
For So
MENT UM
ĠURL s
ĠURL Fetch
Cl s
Cl asses
Cl uster
Class ification
Retry Meta
match ing
rp clib
ĠRequest Methods
patch er
Resource Ex
Resource Container
exp ires
exp ansion
over laps
ĠPoint s
ĠAPI Rout
Ġexp ire
Ġexp anded
Ġexp ensive
Ġ"" ,
Ġ"" )<
Ġdig its
ĠAtt ributes
UN KNOWN
Ġsystem s
Context Manager
ĠCh ar
project ed
car rera
Ġconv enience
Ġcomp ared
Ġcomp iled
08 681
Ġens uring
Ġthere of
filter name
filter warnings
ĠMapping Proxy
Read TimeoutError
={ '
Rotated BaseDetector
Ġmultip lier
('. ')
Ext ract
mask rcnn
Ġpick ed
Ġpick ling
Ġexample s
Fix Coder
Mix In
Ġclo ser
soft plus
ĠĠĠĠĠĠĠĠĠĠĠĠĠĠĠĠĠĠĠĠĠĠĠĠĠĠĠĠĠĠĠĠ Ġ
ĠĠĠĠĠĠĠĠĠĠĠĠĠĠĠĠĠĠĠĠĠĠĠĠĠĠĠĠĠĠĠĠ ĠĠĠĠĠ
ĠWindows Console
NotFound Defect
13 5
13 6
Enum Func
ĠSc eneDatasetWrapper
To As
To Wait
Ġdire ction
ĠFix Print
ĠFix Add
ĠKey word
COM PRE
HAS HES
Ġms vc
Ġround ing
44 8
44 49
HO W
PT STR
Sub Method
Test ed
ĠID NA
ĠID NABidiError
PRE SER
ĠUser String
ĠUser List
ĠUser Ser
ĠVER BOSE
Reg ister
Ġextra ction
Ġglobal s
be ha
be fore
be comes
rand perm
Ġag ent
ĠPAT H
exec file
ĠNew ConnectionError
Ġcover ed
ĠDistribution Version
Hel pFormatter
long opt
Ġ~~~~~~~~~~~~~~~~ <
Ġ~~~~~~~~~~~~~~~~ ~~~~~~~~~~~~
Ġ~~~~~~~~~~~~~~~~ ~~<
sen code
local time
ĠPool ing
Ġstor es
Ġdest inations
Image Dataset
Image Formatter
Image Enhance
Ġident ifier
IM PORT
Uns afeLoader
vious ly
Ġinv ite
Ġdirect ives
Ġaut oreset
Invalid Codepoint
Invalid ChunkLength
Filter Proxy
Trans fer
[[ _
frame work
Ġcert ifi
char map
Ġ". /
ĠQt Widgets
Al so
Al go
auth entication
Ġjoin ed
Ġrefer enc
Ġbl azing
Ġgo es
plib Compat
Comp areMixin
ABC D
27 3
27 28
Ori ented
Sh ow
]+ )\
baz file
tk inter
Ġfree ze
itable Partial
entry points
Ġlp EnumFunc
ĠLink Error
ĠLiteral ScalarString
Stream EndEvent
Ġ\\ ||
Ġattempt ing
BL UE
BL OCKSIZE
cos ine
full argspec
Ġframe work
acc ent
ĠFormat Error
Ġ16 384
ĠExample s
Iter ate
Ġow ed
Ġlookup s
pix buf
ĠCache Controller
ĠInt egral
ĠModel s
ĠProxy Error
Ġperform ing
Ap ache
Co unter
OP S
cy thon
cy gwin
neg ative
Ġpast e
Ġlay out
convert To
ĠHard Mish
score board
NUM BER
Ne Xt
Ġport ion
real file
omat ic
ĠMA PPING
ĠWIN BOOL
Based CompareMixin
Le arn
cookie jar
rec ognized
rest ype
Ġrest oration
abase Aware
ĠSimple Reader
ĠSimple XMLRPC
Ġstack level
tok ens
geom etric
ĠHTTPS Connection
EXTR A
EXTR ACT
Child Path
Child ren
Proxy Manager
Ġfix es
Ġpaper counts
Ġ'/ ',
clip ped
ĠFl ag
Ġdec ay
ĠBe autiful
Ġspecific ally
ĠResponse Error
ĠResponse NotChunk
Ġextract ed
Ġinitial ization
bc b
handle s
vid ia
Ġra veled
hex digest
hex lify
ĠFunction s
ĠBody NotHtt
Ġcomput ed
prog ress
CCE PT
dw conv
ĠError When
chr onous
ĠAs sertionError
ĠDis content
ĠModule Type
ĠModule List
Ġsent inel
Ġadjust ForeignAttributes
'\ [
Final Form
Missing Warning
So up
font face
icular ly
Ġrec ipes
ĠTimeout s
ĠTimeout State
Ġmon otonic
ĠLib Error
ĠSpec ifically
ĠSpec LoaderAdapter
Ġassign er
ĠGaussian Mixture
ĠDet ect
ĠDet ector
ĠGeneric Meta
REQUI RED
Ġchunk ed
Ġappro ach
RESOURCE ID
>~~~~~~~~~~~~ ~~~<
MO MENTUM
cook ielib
gd al
sha ke
Ġide mpotent
Ġbund led
ĠGroup Norm
ĠMulti Step
Ġprodu ces
Ġshort est
Ġmanipul ation
Ġdescrib ing
renderable s
Ġconsist ency
Ġprim arily
FO UND
Future Imports
Platform Warning
RO I
RO OT
Random Sampler
Sec ureTransport
User Name
dition ally
fam ily
sess ions
Ġtre es
Ġtre ew
leg ate
Ġrem embers
ĠSNI MissingWarning
Ġvert ices
Ġeff ects
ĠIndex es
ĠUnicode EncodeError
Ġspecify ing
Ġformatt ers
calcul ator
Ġexecut ed
ĠRegular ized
sonSchema Exception
(.* ?)
Basic Auth
DOC TYPE
Simple Reader
Valid ationError
Ġfall s
ane ous
Ġoc curred
Ġconstruct ing
Ġdeb t
ĠComp are
ĠComp ileError
gener ated
mut ed
mut ation
miss ions
Ġauth entic
Ġdd p
ĠTrain ing
Ġmk dtemp
ĠCreate PoseWidget
ĠSJ M
ĠSp inner
ĠSer ializer
ĠFull Constructor
ĠBullet Scene
ĠHR SRC
ĠHeader Registry
ĠDepend s
perim ents
ĠUR LSchemeUnknown
Require s
poly gons
policy base
ĠScale dStdConv
ĠVoxelization Pooling
Ġ------------------------------------------------ --------<
>~~~~~~~~~~~~~~~~ ~~~<
Fl ip
Fl ags
VG G
sampl ers
Ġclean up
Ġcircle s
Ġinsert Before
ĠPO INTER
Ġissub set
ĠLog ical
combin er
Ġcombin ed
Ġmaint ains
1234 5678
ministr ator
AF TER
Do uble
Over laps
Over flowMethod
dic ate
}/ {
ĠPip Error
Ġassum e
ĠNull Handler
ĠRemo vedCommand
ĠDat aloader
ĠMo ck
Ġdeter min
Ġdeter ministic
ĠBL OCK
Ġexpose s
Ġrand range
msvc compiler
Ġsen ds
Ġsen ding
ĠImple ments
ĠImple mentation
Ġprefetch er
Resize ToAs
Ġupper case
Ġstats msg
CRE AT
Down load
MY SQL
NOT E
With Import
tra iling
utc now
anal ys
ili ary
Ġden om
ĠPart ial
ĠPart icularly
ĠAda factor
ĠGaoLib TreeItem
ĠFIL E
ResNe St
ĠUnpack Exception
ĠPrefetch Generator
ĠPrefetch DataLoader
similar ity
ĠLibrary Loader
66 7
93 4012
>---------------- ----
@@ @
CR IME
EM PTYSTRING
Factory Factory
Htt p
OPTION S
OPTION AL
Pl ane
SO FTW
Spec ial
Used Container
bet as
bet ween
pair s
team A
team B
Ġsw apped
Ġnat ural
Ġexport ing
Installation Candidate
Represent s
ĠStandard ization
Convex GIoULoss
TERM INAL
ĠInvalidCodepoint Context
ĠSyntax Error
canonical ize
ĠInitial ization
Buffer ed
Find ResourceEx
FUNCT IONS
KL DRepPoints
MB OL
Mask RCNN
Num py
Zip File
hyp hen
oct et
Ġam ong
Ġfam ily
Ġcau ses
Ġps nr
Ġduplic ate
ĠCode c
ĠLabel SmoothingCrossEntropy
('< '):
quatern ions
ĠWOR D
ĠWork ing
ĠHash Mis
ĠInsecure PlatformWarning
ĠQu oted
Ġenviron ments
Ġcredential s
hood s
Ġmechanis m
Date Time
IoU Assigner
Memory BIO
Us age
hu a
mid point
migr ations
Ġtw ice
Ġcent ers
ĠTraceback Type
cho ose
ĠCalcul ates
ĠLookup Dict
ĠAssign Result
ĠRet ries
ĠRound Trip
ĠRotation InvariantPooling
Ġhal f
ĠBACK OFF
Ġevalu ated
ĠUDP Server
Conflict ed
REG EX
STAT US
Ġnprint f
Ġscen es
iddle ware
Ġentire ly
ĠXY Z
Ġ~~~~~~~~~~~~~~~~~~~~ ~~~<
ĠStruct ure
ĠVerbose Logger
Ġexhaust ed
Bbox Overlaps
SH ORT
Ur dfDataset
bu gs
Ġkw arg
erg ed
Ġtz info
Ġcha os
Ġbu cketing
ĠTask Outputs
ĠPret ty
Ġlate st
ĠCar rera
ĠCrop ResizeToAs
ĠLightning DataModule
ĠSign ature
ĠNum Py
ĠDoc ument
Ġvxvy vz
ĠPyOpen SSLContext
ENO ENT
('& '):
Ġeg gs
("-- %
ĠHidden Text
ĠDec imal
Ġweak ref
Ġaccur acy
Regex Lexer
Background Augmentation
Ġdriver Name
consistent Candidate
Boundary NotFoundDefect
Dhi raj
ELE MENT
ESC APE
Location ValueError
LENG TH
LITER AL
Mon otonic
SPL IT
SHA RED
Traceback Lexer
Viol ation
Way ToWait
bon nier
cer ts
cently UsedContainer
duplic ates
iase d
ihat exml
mml ab
pun ycode
pap ertypes
tab lename
ux iliary
ycbc r
zill a
Ġist ext
imaged ata
stop word
decor ator
arav indsr
Ġreorg an
anch ard
lfile s
Ġbast ardised
Ġntl m
ĠdNS Name
ĠTanel i
ĠTerm inalTheme
riend ly
adorn ed
ĠPlate au
Ġlid ar
ĠCpp Extension
ĠSup er
ĠScre en
ĠAPE X
Ġgues sed
ĠDraw s
Ġvoid Elements
ĠPySo cks
ĠMoll ik
Ġgetgr nam
Ġgetpw nam
Ġ+---------- -+
ĠHell er
ĠHuk kinen
Ġprovision al
ĠVOC BackgroundAugmentation
INDE X
ReString Match
ReSub Callable
Revise s
MACH INE
Ġweake st
SSKld Assigner
2184 1
parametri ze
ĠUnorder d
ARRA Y
Storage Backend
Ġsubsur f
ĠKleine idam
ĠDistutilsInternal Error
5635 9
GetConsole Mode
GetStd Handle
ForSo cketError
ĠAPIRout er
ĠMappingProxy Type
ĠWindowsConsole Features
COMPRE SSION
PRESER VE
ĠUserSer vice
FilterProxy Model
plibCompat ible
ĠSimpleXMLRPC Server
EXTRACT ORS
ĠBeautiful Soup
ĠResponseNotChunk ed
ĠBodyNotHtt plibCompatible
ĠTimeoutState Error
ĠBulletScene Renderer
ĠVoxelizationPooling Type
ĠRemovedCommand Error
SOFTW ARE
ĠHashMis match
ĠCropResizeToAs pectAugmentation
WayToWait ForSocketError
aravindsr inivas
! """<
! "<
" [
" ).<
" ]:<
" [-
" ...
" (\
# ]*
' d
' ``
' ",<
' >)<
' ...
' "{
' ``).<
' -'
( #
( ',
( ...
) ).<
) [-
) }")<
+ $
+ /
+ ?
+ \
+ .<
+ (\
+ )"
- ',
- ")<
- *.
. %
. :<
. ).
. ]*
/ ',<
0 22
0 99
1 10
1 12
1 000
2 20
2 99
3 04
3 15
4 2
5 15
6 05
7 20
7 32
7 49
7 45
8 17
; ").
< <
= ""
> %
> =
> -------------<
> /<
? '<
@ {
@ ").
@ ]+
A I
A re
A sk
B M
B l
B y
B ON
B atch
B ox
B IG
B eta
B old
B GR
B inary
B yte
B ILINE
B LOB
B egin
C P
C AT
C ORS
C our
C alculate
C annot
C ython
C enterPoint
D K
D iv
D LA
D ARY
D iagram
D ASK
D onald
D ropout
E G
E i
E SE
E ma
E EX
E mail
E VAL
E nsure
E INVAL
F ON
F ont
F LA
G C
G P
G OR
H Q
H Y
H AL
H ost
H IS
H BBoxCoder
I SE
I RE
I DE
I Python
I VE
J K
J oin
J ustifyMethod
K Dataset
L I
L T
L Y
L EN
L ine
L ICENSE
L AT
L ED
L AB
L amb
L arge
L atin
L URM
L ifted
M en
M lp
M OJ
M eter
M onkey
N L
N eed
N egativeInfinity
O per
O ther
O ne
O ld
O BBoxCoder
O UND
O MY
O UTPUT
P S
P er
P in
P ri
P ersist
P ickle
P erspective
Q UEUE
R est
R ow
R ST
R ich
R emo
R AND
R PN
R ANG
R BRACKET
R edu
R ARY
R PAREN
S p
S dist
S queeze
S andbox
S patial
S CHEME
T X
T k
T r
T able
T HE
T ask
T ODO
T rie
T empDirectory
T NT
T urtle
T imestamp
T EXT
T ORCH
U G
U U
U i
U SR
U RES
U Cache
U INT
U BIC
V ert
V ideo
V ORITE
W O
W ill
W ritten
W ARD
W RITE
X ON
X ception
X iao
Y ear
Z eroOrMore
[ ()
[ ]")<
\ ]\
] '
] {
] ).
] ",<
] ),
] ),<
] ["
] ").
] |\
_ *
_ {
a de
a int
a ix
a ys
a ff
a ugment
a unch
b en
b ad
b om
b ian
b log
b roken
b ypass
b lender
c w
c x
c ut
c ent
c ure
c url
c ise
c nt
c python
c allable
c df
c ategories
d d
d en
d st
d al
d an
d ad
d od
d ue
d ry
d ates
d ds
d ash
d nd
d ilation
d iag
d onald
e o
e le
e pl
e lements
e header
e qual
e asily
f an
f lo
f ail
f ree
f log
f EL
f old
f usion
g i
g m
g name
g ence
g iven
g wd
g inally
g roff
g elu
g uide
g abi
h ome
h ref
h itespace
h orizontal
i ated
i vert
i hood
j y
j ection
j ython
j bwang
k as
k gs
k ms
k its
l er
l and
l ens
l ps
l imits
l vl
m c
m i
m x
m ro
m ers
m yp
m ay
m us
m emo
m usl
m ham
n g
n od
n ip
n eth
n ox
n br
n eato
o up
o fficial
p d
p ang
p ager
p andas
p ipe
p aired
p itch
p apers
p unctuation
q e
q stat
r v
r is
r upt
r tree
r tf
r partition
r ng
s pl
s ns
s fp
s queue
s mooth
s moothing
s gd
s quare
s peech
t nt
t gt
t pu
t cp
t resnet
u so
u ary
u ufuture
v n
v net
v ents
v oxel
w an
w idget
w riter
x n
y ield
y pose
y ond
z s
z able
z field
| ".
} "
} ')
} "'<
} ://{
Ġ er
Ġ ut
Ġ .<
Ġ iv
Ġ ])<
Ġ ia
Ġ },<
Ġ uri
Ġ questions
Ġ emojis
Ġ question
-- [
er es
er ial
er aining
in ners
in herit
se l
on gs
on acher
re w
re po
re ason
re pository
re moves
re cursive
re itz
Ġt ails
Ġt ries
Ġt tk
Ġt iny
Ġt ee
Ġt oday
Ġt weak
at ble
at ural
at ively
im iter
im inuit
en able
st ic
st ad
st ig
st alled
st andle
st ufft
st imate
ort h
ort ho
port Lab
le ach
le aut
le ading
le vant
Ġa head
Ġa abb
"" <
de s
de ps
de velop
de pth
de clarative
de leted
de ltas
Ġ= "
al o
al ic
al one
al form
al ay
al phan
al lfiles
he mas
Ġf s
Ġf ar
Ġf low
Ġf ive
Ġf etch
Ġf fn
Ġf usion
Ġf ancy
Ġf riendly
ut or
Ġc m
Ġc ur
Ġc nt
Ġc ook
Ġc aching
Ġc heb
Ġc Pickle
is o
is ib
is digit
Ġp i
Ġp p
Ġp th
Ġp ys
Ġp oo
Ġp ids
Ġp atched
Ġp inyin
Ġre def
Ġre pe
Ġre ports
Ġre write
Ġre scale
Ġre maining
__ '
__ .<
__ ',
__ ")<
__ ":
__ ":<
__ '])<
ing ly
ing MixIn
an f
an ose
an ced
ur se
ur ry
ur ally
ur ge
Ġs io
Ġs aving
Ġs ilu
Ġs nowflake
Ġs ane
Ġs izes
Ġs aves
Ġs urrog
Ġs licing
Ġs ampling
Ġo ps
Ġo dm
ed Graph
am in
am an
et ools
et rog
et imes
il on
il it
il led
as is
ct rl
Ġin her
Ġin compatible
Ġin planes
Ġin clusion
Ġin structions
Ġb ot
Ġb ash
Ġb ran
Ġb ring
Ġb ottleneck
Ġb atched
Ġb orrowed
Ġb asis
Ġn a
Ġn cclient
Ġd c
Ġd ark
lo ops
lo aded
ent ype
ent ities
Ġw c
Ġw s
Ġw on
Ġw ent
ĠT ar
ĠT ot
ĠT ools
ĠT IME
ĠT oo
ĠT anh
ĠT EXT
ĠT CP
ĠT HIS
Ġm v
Ġm ut
Ġm ult
Ġm ps
Ġm atter
Ġm ute
Ġm angle
Ġm igr
Ġm erged
ac ing
ac ity
ri age
ri ps
Ġ( __
Ġ( ((
un e
un ce
un pat
un named
un iform
un idecode
un formatted
ol ves
ad ig
ad ir
ad just
Ġ' "
Ġ' :
Ġ' ')<
Ġ' ).
Ġ' **
Ġ' '.
ĠP ass
ĠP IP
ĠP lot
ĠP alette
ĠP VOID
ch mod
ch ars
pt r
Ġis bytes
Ġis lice
Ġl q
Ġl arge
Ġl zma
Ġl azily
om ed
om etimes
py tree
py extension
py usb
py country
py installer
pe m
pe ak
ĠC I
ĠC ut
ĠC lo
ĠC ookie
ĠC aut
ĠC SV
ĠC adene
ĠC ryptodome
ĠC YAN
ĠC orp
ĠC rosta
od oc
el low
el ihood
ab et
ab out
ab ling
ab ilities
Ġto x
Ġret ain
ra ilroad
ot rans
ot icon
ce ed
ce mber
ig her
ĠL et
ĠL INE
ĠL arge
ĠL ARS
ĠL iang
ĠL ARC
Ġan n
Ġan si
Ġfor ms
Ġfor ces
ĠS ans
ĠS eg
ĠS ave
ĠS hape
ĠS che
ĠS core
ĠS ampler
ĠS AC
ĠS nowflake
ĠS mall
ĠS CAL
ĠS aves
ĠS tochastic
ĠS DK
ĠS LURM
ĠS ometimes
Ġ" *
Ġ" )<
Ġ2 1
Ġ2 23
Ġ2 53
Ġof ten
int ens
int ern
str ft
ĠA F
ĠA c
ĠA nn
ĠA lex
ĠA ggreg
ĠA erial
Ġ# #
id a
th an
th ough
Ġg r
Ġg st
Ġg am
Ġg ist
Ġg zip
Ġg uide
Ġg iving
Ġg eom
Ġg pus
Ġg dal
Ġ- =
ĠN AS
ĠN ested
ĠN adam
ation al
ĠG ert
ĠG rid
ĠG rad
ĠG Stream
ĠG IF
ĠG REEN
ĠG lobal
ĠG rayScale
ĠI M
ĠI T
ĠI dent
ĠI oU
ĠI gnore
um b
um p
um s
ĠR ot
ĠR enderable
ĠR ob
ĠR ES
ĠR etina
ĠR BRACKET
ĠR PAREN
ĠR yan
ĠR onacher
iz ers
ĠD i
ĠD if
ĠD FS
ĠD OTADataset
ĠD irectories
ir ing
ir an
ub les
rib ed
and oc
and alone
Ġv isit
Ġv ikas
Ġv isib
ĠPy Cryptodome
ĠF F
ĠF uture
ĠF FI
ĠF raction
ĠF used
ĠF ollow
em ote
ate ver
Ġ_ )
pl aces
pl atlib
path items
Ġh r
Ġh ide
Ġh orizont
Ġh ydra
ter eo
ss h
ss ize
ss dod
Ġfile size
con da
con sum
con versions
con secutive
Ġor iented
Ġ""" .
Ġ""" ``
Ġ""" \<
com pletion
Ġcon cat
Ġcon stant
Ġcon verts
Ġstr ong
Ġun like
Ġun known
Ġun used
Ġun mut
Ġun ders
Ġun ichr
Ġun adorned
Ġ[ ('
Ġ[ ]))<
ap f
ap ed
Ġ1 7
Ġ1 01
par ation
ys ics
get root
get attribute
get TreeWalker
Ġbe yond
ĠO K
ĠO ur
ĠO per
ĠO perator
ĠO fficial
ĠO dds
Ġnot ation
ire ction
lib name
lib yaml
lib futurize
ĠM on
ĠM ain
ĠM SI
ĠM esh
ĠM achine
ĠM SV
ĠM XNet
ĠM edian
ĠM unkres
(' "
(' :
(' ')<
(' >'
---------------------------------------------------------------- --------------<
In stance
In formation
In stalled
Ġst em
Ġst ages
Ġst uff
Ġst ickers
Ġst rips
Ġst andalone
file paths
Ġde init
Ġde mo
Ġde ep
Ġde lay
Ġde ltas
Ġde tections
ver Proxy
ver gence
Ġ20 04
Ġ20 45
ĠB ot
ĠB all
ĠB ound
ĠB ax
ĠB uffer
ĠB EL
ĠB ilinear
ĠB FS
ĠB roken
ĠB orrowed
Ġdistribut ing
qu ot
qu otes
() ).
() ['
ck er
Ġim show
Ġim prove
Ġim possible
Ġim inuit
Ġex clusion
Ġex cluded
url parse
Ġso on
Ġso le
ifi y
Ġ0 00
ĠĠĠĠĠĠĠĠĠĠĠĠĠĠĠĠ ĠĠĠĠĠĠĠĠĠĠĠĠĠĠĠĠĠĠĠĠĠĠĠĠĠĠ
ĠĠĠĠĠĠĠĠĠĠĠĠĠĠĠĠ ĠĠĠĠĠĠĠĠĠĠĠĠĠĠĠĠĠĠĠĠĠĠĠĠĠĠĠĠĠĠ
SE CON
SE MICOLON
Ġr bboxes
Ġr cos
Ġr limit
Ġr hat
20 12
20 15
20 47
pre t
Ġe ase
Ġe ager
put es
>> >
rap er
ft Target
Ġget opt
Ġget stat
Ġget output
Ġget cwd
ĠW rapper
ĠW rit
ĠW hitespace
(" ("
(" ["
(" \\
(" {}
(" )").
(" ;").
(" @").
(" ]").
ang led
ĠH ybrid
ĠH IDE
Ġ3 1
Ġ3 3
Ġ3 8
Ġ3 9
Ġ3 01
Ġ3 03
Ġ3 45
Ġal most
Ġal ph
Ġal ongs
ĠDe fine
ĠDe bian
Ġy apf
Ġpar agraph
Ġpar adig
Ġcom pression
Ġcom parison
ern ers
per ated
per ties
per mutation
Ġx r
Ġx ception
ĠU S
ĠU buntu
Ġse cure
Ġse perated
Ġcl amp
Ġcl uster
ĠE qual
ĠE CA
ĠE IGHT
ĠE mail
ĠE moj
ĠE DIT
ĠE MOJ
Ġtyp ed
Ġ{ },
Ġpro ces
Ġpro vider
Ġpro tected
Ġwh atever
pro cessed
pro posals
pro tected
Ġunder stand
Ġint ention
ĠPython s
00 25
ly ssdod
text wrap
sc anner
sc ores
sc hemas
sc raper
pec ially
low s
.. '))<
AT TR
Ġ`` "
Ġ`` (
Ġ`` @
Ġsup posed
ĠGener ate
IN PUT
Re cord
Re Det
Re cursive
Re cognition
Re fine
==== =<
pack agename
=' '),<
=' ./
Ġmodule FactoryFactory
ff n
ff bca
Ġres p
Ġres Type
eg ration
os pace
OR D
OR MA
ll inux
Ġen ough
res p
module graph
Ġlist ing
MA IN
MA NI
iter ations
ĠCon strain
ĠCon ditionally
ĠIn stances
base s
base lines
ĠAn d
Ġar row
Ġ** *
): '
Ġcont inu
Ġcont roller
Ġurl join
ord ers
Ġ` __
Lo gin
back ed
back bones
SS R
Ġpy qt
[' \
Ġcan vas
ug in
Ġpre ference
Ġpre pare
Ġpre vents
Ġpre paration
rain s
Ġhas Children
Ġad ministrators
Ġsh ip
Ġsh are
Ġsh lex
act ivation
21 05
AN NO
Ġsc an
Ġsc ope
Ġsc anner
Ġsc ikit
add itional
Ġdict ionaries
FA VORITE
ert ific
item getter
param eter
OT H
ml vl
ast er
pose widget
source Model
Ġclass name
ĠUn ique
ĠUn known
met er
met ric
ep isode
AR Dataset
torch sparse
Ġout fp
ark Net
Ġno x
ET TE
xy wh
reg exp
jo b
ĠRe presenter
ĠRe cons
ĠRe portLab
config s
config obj
col lap
col umns
Ġhe uristic
'] "<
attr getter
Ġversion ing
Base Version
Base Resolver
Base Assigner
Base BBoxCoder
Base StorageBackend
Ġprint ing
Ġdefault ing
AL GOR
da emon
files z
join s
ual ity
len ded
valid ation
win inst
Ġbuild s
ere qs
Ġsub set
Ġsub command
Ġsub packages
Ġsub dirs
Ġsub directory
Ġsub parts
ED T
Ġ[' ./
ĠAr g
ĠAr min
iron python
SI DD
append Child
Ġnew line
ann ounce
Ġadd resses
Ġany one
Ġany way
ge o
Py gments
ĠRes Ne
GEN TA
sub ject
sub part
test ed
we i
lp Type
lp Name
lp RESOURCEID
Ġj wt
Ġj bwang
Ġj inja
for w
inter ior
inter leave
ken neth
') ")<
function s
served ScalarString
led ge
CK S
ĠSt d
ĠSt at
ĠSt ack
ĠSt ate
ĠSt ark
ĠSt rip
ĠSt oll
ĠSt ufft
ĠDict Converter
av a
av ig
Ġread able
conv ex
ENT ITY
Ġrun py
01 6
Ġdet ail
Ġdet ailed
Ġ\ |
ĠBase Specifier
af a
Ġext end
Ġext ens
Ġext ending
Ġcopy mod
co o
co is
co uri
Ġqu ick
Ġqu antize
Ġqu opri
Ġqu irks
html parser
dat ing
dat adir
Ġ4 0
Ġ4 4
Ġz one
Ġz src
Ġz tgt
Ġline ar
comp ilers
ec utable
Ġiter ation
Ġiter ating
Ġiter ators
uff le
det ail
Ġreg ion
Ġconfig s
Ġconfig ured
check ed
([ [
([ ])<
vi a
vi kas
Ġac count
Ġac cessed
EX CL
time delta
time zone
Ġmet rics
script ed
pr ereleases
Ġup sampling
Ġpl us
AS Assigner
AS SES
Ġdis k
Ġdis co
Ġdis allowed
Ġdis covery
encode string
Ġinter f
Ġinter ior
Ġmin utes
dim ension
feat map
abc d
PY PI
link ed
Ġ... "
Ġ... ]]
Ġinstall able
mon of
") )
") ]<
") ("
") [-
PI P
PI PAL
PI PELINES
fun cs
mark down
Ġopt sep
no ah
no elp
no stic
ash ion
igh lights
image io
rid den
process Error
Ġfind all
rol led
ical OverflowMethod
Ġyield ing
Ġstart ed
Python Version
ĠJ ust
ĠJ IT
ĠJ oin
ĠJ ustifyMethod
Ġpos itions
File Cache
String s
ey ing
new bytes
std in
std call
LE SS
Ġel imin
ĠSet s
ĠSet FileAttributes
Version Control
imple ments
plic ations
PR ISE
Un ion
Un able
Un iform
Un recognized
sh aders
Ġremo ves
Ġstate ments
ĠEx clude
ĠEx ponent
ĠEx ecutable
ĠVersion Type
ĠVersion Control
19 20
19 12
19 03
CH AR
fl ush
Ġsome how
Ch ange
ĠY ield
ĠY our
ĠY ELLOW
Ġrepresent ative
HTTP S
\\ \
Ġover all
Ġover flow
Ġover ridden
06 5
06 17
TR AN
TR OL
pool ing
Ġsy mmetric
ĠConv olutions
ĠConv Mlp
Ġtoken ize
Set tings
cre dential
names paces
Ġtemp d
Ġact ive
ĠEn d
ĠEn code
Ġ[" _
Dist ributed
II QQQQ
dis criminator
Ġtree Item
Pro vide
oo ser
alk ers
Ġfl ip
Ġfl ake
Ġyour formatter
55 64
sp an
sp ore
sp inners
17 10
Data Base
Token Formatter
tree builder
Ġ5 322
Ġman ifest
Ġ10 80
STR ONG
Ġoper ating
ID ATION
Ġinit ially
Ġnormal ization
Ġmod ifications
ĠAd ds
ak ed
ak Key
Ġ7 6
exist ing
Ġsocket s
Ġpython api
Get opt
Ġstat istics
FI RST
ĠCol lection
ĠFor ward
BO P
sign ature
Ġ6 6
Ġ6 56
Ġencode s
wh at
Ġlink ing
ĠString s
az imuth
loc ations
Ġpol icies
Ġwork around
ĠInvalid Marker
ĠInvalid Sdist
Tuple s
mod ifier
mod ifiers
Det ect
down sample
var iable
var fmt
ĠX iao
Request Warning
Att empt
Ġtra vers
)) [
)) ]<
List Model
]] ]:<
Ġ8 0
Ġsingle ton
Ġwar ns
** (
{} .
Ġredu ced
ĠRotated BBoxHead
ĠRotated StandardRoIHead
ĠRotated AnchorHead
DATA CENTER
DATA SETS
Loss Multi
Ġapp name
token izer
Ġscript ing
LO GS
patch ing
dig raph
fn match
Ġob eying
Ġwidth s
Ġstandard s
"] ["
>""" )<
Se ction
Se lecSLS
hash lib
99 9
mat mul
ĠAPI s
Ġlook s
Ġlook ing
Ġexp lo
Ad ded
bl ake
mode s
ob Net
Ġmat ched
ĠReg ression
platform s
Parse Results
23 0
23 4
UN ICODE
sy nt
Ġsplit s
16 9
>) ("_
Man y
ĠCh u
ĠCh en
ĠCh ange
ĠCh ild
ĠCh anges
ĠCh ainMap
project s
Ġchild Item
Ġentry points
=[ <
has hed
Ġfilter name
Ġloc ated
Ġloc ations
Ġcomp ilation
Ġcomp ilers
Ġscale s
Ġoperator s
08 6
08 9
Key word
element Tree
Code s
Raise s
cmd line
ĠPR OPS
={ "
Rotated BBoxHead
Rotated AnchorGenerator
Rotated RetinaNet
dum per
ran cois
system Wheel
Ġq kv
Ġmy module
Ġmy max
Ġmy min
ĠAl low
ĠAl ias
ĠAl iases
('. '):<
Ext Type
Ext ensions
ĠMIME Base
ĠWe akKey
BU F
pass port
Ġver ifiy
Ġstruct ural
18 10
>' '
Ġ"\ "
ired dy
Graph Util
Graph Algo
Model s
Method Type
Message Error
WOR KER
create posewidget
enn y
Ġdot ty
ĠSc an
Int Enum
ĠHTML Input
Ġsepar ately
Ġrenderable s
09 6
xml rpc
Ġmark s
Ġmark er
ĠAN D
ĠAN CHOR
factor ingTool
Ġedge Data
Ġedge fn
COM BIN
ble ak
ope fully
Ġkeep ing
44 3
44 86
HO OK
KEY WORD
Sub processError
Ġ9 000
align ed
Ġreason s
Ġdown grade
Ġadapt ers
Ġjust ification
NE CKS
Ġauto complete
Ġstd in
ĠUser Register
ĠUser Login
Reg Net
Reg ression
"{ '-'
Mark up
Or d
Or der
Qt Widgets
be v
ĠPAT CH
ĠSE MICOLON
ĠConfig Parser
ĠConfig Handler
ĠConfig Option
NAME D
Hook Missing
long long
pri vate
Ġ~~~~~~~~~~~~~~~~ ~<
Ġ~~~~~~~~~~~~~~~~ ~~~<
ref resh
ref specs
local id
25 4
DO UT
IM IT
title s
ĠST DOUT
ĠParser Image
86 01
86 57
Ġaut om
Ġaut odoc
Ġaut otrans
Invalid Marker
valu ate
mit ted
Ġcustom ize
Ġcustom izing
ĠFree zable
BACK BON
Field Type
Sc anner
satisf ied
Ġjoin String
Ġtrans fer
Ġtrans lation
Ġbl ack
Ġbl end
ĠClass ification
Ġgo ogle
Control Type
Control Code
AME L
]+ ")<
Ġref resh
entry point
ĠLink s
ĠFOR MAT
Ġdel imiter
Stream Handler
End UpdateResource
({ '
Adapt ive
Gener al
Pre pare
_. ")<
_. ]+")<
cos ypose
Ġfail ures
acc data
child Nodes
Ġview port
Ġview keys
bound ing
ush y
Client Id
AC CE
Ar ray
Build Tag
Build System
Ġreq s
Ġavoid s
Ġenn Conv
Ġenn ReLU
Ġenn MaxPool
Start Tag
Ġindic ates
Ġoffset s
35 7
CON TROL
pix el
Ġcy thon
Ġdum p
ĠModel Ema
Ġequal ity
Ġperform ed
Ap plication
Ap plies
Call s
SY MBOL
Ġsu itable
Ġsample d
thread s
Ġdecor ated
namespace HTMLElements
(? :
Callable Operator
GR P
LP WSTR
QQ QI
XX X
typ ed
Ġport ing
Ġsig moid
Ġsig mas
ĠTO ptional
Ġtok list
Ġ"\\ \\
ĠMA GENTA
ĠMark edYAMLError
ĠBack bones
()) ("
ĠAnchor Generator
Ġaccess ible
Le e
Le arning
Le ViT
PN G
Ġ'& #
tok entype
ĠStream Mark
ĠStream TextType
Child Nodes
Ġes sent
Ġes pecially
alias ing
Ġfix ers
Ġdw Flags
Ġdrop ped
Ġ'/ '
ĠCheck s
ĠAbstract s
ĠAbstract Provider
Input Plane
Ġdec ide
Ġdec ision
ĠBe cker
()`` ,<
ĠResNet s
Ġplug in
Ġinitial ized
ai ro
Ġcell s
Ġpatch ing
ĠSU DO
ĠSU PPORT
ĠSh ort
Ġexclude s
Ġscore board
Default s
expand user
97 1
Package Finder
aut oreset
Ġ-------------------------------- ---<
Ġmac osx
Ġskip ped
57 745
Check s
TA XON
fast ero
ier arch
lu cid
named tuple
orn ia
Ġrec ently
Ġsum mary
Ġinherit ing
Ġmon th
Ġmon ospace
Ġmim ic
adapt er
Ġtool box
Ġant i
ĠSpec ify
ĠExt Type
ĠExt ract
ĠExt ension
Ġcontribut ors
FOR M
HH I
gd k
Ġsort ing
ĠLP CTSTR
ĠLegacy Specifier
ĠGroup ed
ĠRo ot
ĠRo bin
ĠOver ride
ĠMulti Epoch
Ġprodu ced
Standard Library
Ġmanipul ate
Future StandardLibrary
Platform Dirs
TE ST
dif f
iag nostic
vo vnet
Ġtri ple
leg al
Ġwalk ing
ĠPer ry
ĠAct ivations
ĠHook Missing
ĠIndex Error
Ġformatt ed
ĠRegular ization
-> "))<
37 0
RA G
Simple Path
Tri vial
TIME OUT
VAL UE
VAL IDATION
Valid ator
Win DLL
do es
iet f
Ġreport ing
Ġreport ed
Ġsuffix es
ĠTest Case
Ġmem cached
ĠSafe Loader
constructor s
ĠMish JitAutoFn
Ġenable d
ĠComp iler
Ġoptim ized
ĠJSON DecodeError
Ġsyn chronous
ĠAlign Conv
Ġdownload ing
Ġcertific ates
>================================ ================
AP Scheduler
Too Short
fd open
rev ctrl
Ġtoml i
Ġdri ve
Ġdri vers
exclus ion
exclus ions
ĠSer verProxy
ĠFull Loader
And Compute
5678 12345678
IIII IIII
IIII HHH
Extra Data
Ġ------------------------------------------------ -----<
Ġ------------------------------------------------ --------------<
Ġbracket s
*) ?$
On ce
[^ @]+
ev en
final ize
final ized
mk time
mac os
__} ('{
Ġinsert ed
Ġbind ings
conf str
ĠObject Graph
Inter face
Inter polate
Ġcombin ations
ĠVer ify
Ġrespon s
Ġenc oders
Stack Error
TRA IN
cred its
Align ment
+) *\
+) (.*)")<
ae fc
basic sr
gamma hat
hr dad
tri plet
Ġpop up
Ġshe ll
Ġshe bang
ĠPose Predict
ĠCre ates
Ġassum es
ĠGuild Invite
ĠGuild Join
ĠDat abaseAware
Ġuv z
ĠMo ving
Invariant Violation
Ġdepth wise
ĠBL ACK
ĠBL UE
ĠSection ed
ĠStart BoundaryNotFoundDefect
Ġregex es
flip ud
Ġsymbol ic
Ġsymbol izing
BUIL DER
ĠParameter ized
ĠSelective Kernel
RepPoints Head
>. +?)
FE ST
XY Z
linux found
tra itlets
Ġcap able
Ġcap abilities
Ġcare ful
Ġcare fully
ili ates
Ġden ormalize
Ġwrit es
ĠTF DS
Ġang le
Ġang ular
Ġang les
Ġ"/ "
ĠABC Meta
ĠNAME D
ĠFIL ETIME
ĠMix Net
("- _.")<
ĠEd itablePartial
ĠEnum Resource
Ġprop ag
ĠUnpack er
ITH M
CODE D
ĠCharset Match
ĠSupports Int
DB G
Dat abase
Legacy Specifier
Pl ugin
Support s
WIN FUNCT
ph ans
report lab
Ġturn s
Ġpush d
Ġrepl aced
Ġnat urally
Ġmix up
adam w
ĠSqueeze Excite
ĠIN FO
ĠDown load
ĠFast er
ĠOri ginally
Ġexit code
Ġproj ection
Ġprotocol s
SIM PL
ĠResolution Impossible
ĠComment Check
ENTER PRISE
Convex IoUAssigner
markup base
ĠTexture Cache
ĠControl Type
ĠRotatedSingle RoIExtractor
TOML DecodeError
ĠBackend Invalid
ĠBackend Unavailable
neighbor hoods
ĠInitial ise
=", ",
Doc ument
GT K
Hard Sigmoid
Non Recursive
WAR N
hyp ot
she ets
tool kits
Ġ~~~~~~~~~~~~ ~~~<
Ġ~~~~~~~~~~~~ ~~<
Ġfront end
Ġcau sed
Ġcalcul ated
Ġps util
peech Recognition
ĠCred Read
ĠCred Write
ĠSwish JitAutoFn
ĠGV Ratio
ĠDLL s
ĠField ing
Ġconf usion
Ġconf idence
ĠOR Conv
ĠMixed Conv
quatern ion
Ġrc dataElements
ĠWOR KER
ĠInter face
ĠInsecure RequestWarning
Ġprefer red
ĠRequire ments
web m
web view
Ġ~~~~~~~~~~~~~~~~~~~~~~~~ ~<
ĠPlatformDirs ABC
Ġmechanis ms
EV EN
Efficient Net
LIB RARY
PAL ETTE
RAN K
RAN GE
Scal er
Scal ing
bind ing
gaolib treeitem
Ġaio gram
Ġsatisf y
Ġder ived
ĠPI PELINES
ĠCosine LRScheduler
Ġretrie ved
Ġ": "
ĠAug mented
ĠNegativeInfinity Type
ĠDirect edGraph
Ġ199 9
trunc ated
Ġdecl ared
Ġimplicit ly
(", ").
Ġclaim s
Ġclaim ed
Ġrout ine
Ġrout ines
active state
ĠUndefined Comparison
ĠUndefined EnvironmentName
many linux
Stat us
Ġinterpre ting
Undefined Comparison
Undefined EnvironmentName
ĠInstallation SubprocessError
ĠCOM MENT
ĠHardSwish JitAutoFn
ĠHardSigmoid JitAutoFn
119 29
How ever
LEX ER
Mat ches
Pip Error
Rotation al
cap italize
linen os
nf nets
ni qe
sun py
xl s
your car
Ġ} [
Ġaff iliates
Ġfin est
Ġcle andoc
Ġcurl y
>#%% <
Ġph ysics
Ġren dered
assemb ly
Ġbo ot
Ġbrow sers
ĠPol y
ĠSource Distribution
ĠAuth Info
Ġaspect s
ĠNAF Block
Ġconvent ions
Ġconstraint s
Ġbegin ning
ĠMeta PathFinder
('\\ ',
Ġear lier
ĠDev Studio
ĠUT C
Ġnumer ical
ĠContext Manager
###### #<
Ġpyd antic
ĠStep LRScheduler
coordin ate
RotatedSingle StageDetector
WORK ERS
COMPAT IBLE
Ġsignificant ly
Backport ed
App Name
Ġsuccess fully
ĠGENER ATED
Av ailable
Cut Mix
Dep end
Feed Parser
JSON DecodeError
MM Rotate
Mac Version
Off set
Prompt Type
aif f
evalu ator
gy ro
kf iou
mim etypes
mnt or
Ġ]+ ")("
seudo AnchorGenerator
rob ust
Ġfav or
Ġflex ible
ĠSin ce
Ġgre ater
ĠNA VER
Ġconcaten ated
ĠMor sel
ĠMultipart InvariantViolation
Ġdeclar ation
ĠBey ond
Ġrule s
Ġez mntor
ĠEmoji Variant
maint ype
ORIG INS
Ġurlun parse
ĠRev Options
ĠKFIoUR RetinaHead
detect AndCompute
Ġvari ations
Ġflus hed
TextIO Wrapper
NAF SSR
Ġfair ly
beha viour
Ġreferenc ing
ĠDetector MaskRCNN
ĠMultiStep LRScheduler
Ġtreew alker
ĠPartial Sampler
>-------------------- <
KLDRepPoints Loss
ĠQuoted String
hua wei
ĠSignature Database
Ġreorgan ization
ĠPlateau LRScheduler
"[- _.]+")<
+(\ .\
+)" ')<
099 25
515 79
749 8
BILINE AR
Begin UpdateResource
Cour ier
EEX IST
FON T
HAL F
NegativeInfinity Type
Oper ation
RPN Head
RANG ES
TX O
THE ME
UU ID
[() ],
ben chmark
cw du
diag onal
epl ab
fEL F
mus llinux
memo ize
mham mond
uso utput
voxel ize
}') >"<
Ġut ime
Ġiv s
eres net
Ġtiny css
atural ist
standle y
alform ed
alphan ums
Ġcook ielib
Ġcheb net
Ġpoo led
etrog eneous
ĠTot al
ĠToo Many
Ġmult iscale
unpat ched
ĠPIP AL
ĠPlot ter
ĠCaut ion
ĠSche ma
ĠScore board
ĠSnowflake Generator
ĠSCAL AR
strft ime
ĠGert zfield
ĠGrid Targets
ĠGrad ient
ĠGStream er
ĠRES OURCE
ĠFused Lamb
Ġhorizont ally
consum es
Ġstrong est
Ġunmut atble
Ġunders core
ĠMesh DataBase
ĠMSV CCompiler
('>' ):
ĠBax ter
Ġimprove ments
SECON DARY
Ġeager ly
ftTarget CrossEntropy
Ġgetstat usoutput
("(" ).
("[" ).
Ġalph abet
Ġalongs ide
Ġparadig m
Ġcluster ing
ĠEqual ity
ĠEmoj is
ĠEMOJ I
Ġproces ses
ORMA L
MANI FEST
xywh r
ĠRecons ider
collap se
ALGOR ITHM
kenneth reitz
couri er
Ġquick short
monof ont
Distributed Sampler
IIQQQQ QQ
ĠInvalidSdist Filename
LossMulti Label
ĠWeakKey Dictionary
ĠHTMLInput Stream
COMBIN ED
4486 0
"{'-' *
ĠConfigOption Parser
Ġautotrans late
ĠFreezable DefaultDict
BACKBON ES
ĠFORMAT TERS
BuildSystem Details
QQQI HHH
ĠSUPPORT ED
57745 2
TAXON OMY
lucid rains
ĠMultiEpoch DataLoader
PlatformDirs ABC
Trivial Conv
VALIDATION S
TooShort Error
ĠPosePredict or
>.+?) -(?
linuxfound ation
WINFUNCT YPE
NonRecursive TreeWalker
Ġphysics ClientId
ĠMultipartInvariantViolation Defect
! ')<
! '<
" #
" (
" ><
" ':
" ``.<
" '{
" *.
" /><
" '")<
" |".
# \
$ ",
' m
' ")
' ((
' })<
' [\
' >"<
( ...,
) $
) ]
) ._
) [:
) ][
* (?
* (\
* ?)
* =%
* "],<
* ?\
+ '
+ ,
+ {:
, "
, ]
, ):<
, \<
- ')<
- ]*
. |
. ),
. ))
. )):<
. ]])<
. ]+)\
. +$
/ '
/ ?
/ @
/ {
/ "<
/ ']<
/ **
/ '),<
/ *.
/ \<
1 22
2 80
2 2104
3 00
3 50
3 02
3 0000
4 20
4 00
4 06
4 02
4 13
5 1
5 37
5 95
6 25
6 97
7 00
7 01
8 11
8 99
8 27
8 0000
9 6
9 01
9 25
9 28
9 41
: .
: ``
: ])
: ]))<
: {:
; '
; "<
; '}<
< =
= !
= >
= __
= """
= (),
= ':'
> :<
> ',
> ')<
> ------------
> ".
> ((
> .*
> [[
> ]*
> [\
> ----------
? "
? ,
? ")<
? .*
? ([^
@ -
A G
A g
A ut
A lt
A Graph
A wait
A mit
A bn
A GE
A SER
A REST
A symmetric
A rian
A ILS
B F
B Z
B ut
B it
B id
B ry
B AT
B OR
B ill
B Net
B OL
B oth
B iT
C C
C b
C q
C r
C y
C or
C he
C rop
C au
C Python
C Loader
C RL
C uboids
C PP
C AC
C ategories
C URE
C artesian
C Dumper
C urrently
C apture
C YAN
C JK
C ertific
D R
D T
D on
D ing
D ig
D est
D OT
D rop
D Conv
D raw
D Loss
D RA
D elta
D GRAD
D emonstrate
D enoising
D eltaXYWHA
D OTADataset
D imensions
D UrdfDataset
E o
E u
E ro
E ST
E LS
E uler
E asy
E hf
E GL
E BM
F Y
F u
F name
F low
F ocal
F Loss
F UN
F ormer
F red
F ilenames
F RO
F oldedCase
F igure
F aster
F RAG
G A
G G
G r
G u
G as
G if
G IC
G rad
G AM
G GD
G aoLib
G rass
G eom
G UI
H e
H i
H ess
H ere
H ighlight
H ITE
H ybrid
H appy
H etrogeneous
I AL
I FI
I ES
I gor
I RECT
I ssue
I gnore
J e
J sonHandler
J sonSchemaException
K IT
K FI
K EL
K enneth
L M
L W
L ook
L iterals
L ambda
L PCWSTR
L inux
L PTSTR
L aunch
M Q
M T
M c
M ul
M IN
M PI
M uch
M isc
M ake
M IS
M SP
M KL
M eshes
M SELoss
M iddleware
N ext
N amed
N ECT
N SP
N FD
N REF
N ORMAL
O F
O O
O p
O w
O RE
O DI
O VER
O BB
O cc
O MP
P r
P at
P ass
P ure
P ix
P rop
P ager
P ick
P TH
P ART
P ipe
P ush
P ReLU
P ABLE
P ANG
P ango
P atchEmbed
P ersistenceHandler
P MI
P KG
P ooja
Q Color
Q OS
Q Main
Q uality
R N
R U
R and
R AL
R ENT
R CO
R UE
R TU
R NN
R Resize
R ATE
R RandomSampler
R BboxOverlaps
R aman
R IES
S X
S l
S y
S ing
S em
S low
S us
S parse
S ave
S hape
S pace
S afe
S orted
S CO
S our
S VE
S OURCE
S omething
S tochastic
S ENet
S HOW
S ASAssigner
S peechRecognition
T B
T g
T s
T urn
T Error
T rap
T op
T ran
T ES
T TYPE
T ResNet
T erm
T imer
T okens
T wins
T ADATA
U P
U NA
U rb
V C
V K
V u
V er
V is
V Net
V oxel
V alues
W C
W ord
W arnings
W alk
W LINE
W rong
W XYZ
W TError
Y ELLOW
Z a
Z EN
Z OO
[ ,
[ '<
[ {}
[ (.*?)
[ @-
\ ?
\ ])
] "
] -
] ?
] _
] """<
] ',
] }<
] ])
] ".
] **
] ``<
_ %
_ '
_ ")<
_ ][
_ ]\
` ;
` """<
` ."""<
` ),
` ):
` ."<
` -'
` __.<
a a
a ing
a CCEPT
b g
b re
b al
b ing
b an
b as
b ert
b ml
b gr
b its
b Data
b inds
b egin
b ecause
b undled
b iased
b lended
c d
c m
c cl
c um
c ext
c ir
c ata
c ite
c ould
c mp
c ubic
c mul
c rt
c rypto
c acer
c uts
c aching
c jk
c ribed
c Ord
d i
d p
d it
d lib
d ark
d ns
d ong
d ings
d CrossEntropy
e X
e in
e Er
e file
e per
e very
e bml
f b
f y
f ib
f name
f to
f ew
f ines
f req
f rank
f ilenames
f modern
f ollow
f allback
f inger
f ileno
f sencode
f illed
f rancois
g as
g Error
g pl
g ain
g mentation
g object
g ins
g iou
g ather
g drive
g eneous
g pus
h n
h s
h or
h im
h il
h un
h int
h ack
h ate
h ong
h ou
h older
h Update
h mac
h ints
h omed
h igher
h opefully
i h
i ation
i ans
i python
j d
j in
j an
j ul
j inja
j amin
k B
k p
k y
k is
k am
k ata
k ang
k inds
k ana
k jd
l m
l w
l z
l in
l am
l ient
l ates
l ik
m r
m ic
m ad
m el
m ass
m ine
m ument
m cs
m ely
m icro
m agent
m agic
m embers
m iddleware
m stad
m projects
n ss
n est
n ll
n ically
n ested
n SN
n digits
n dbm
n esterov
n ltk
n bconvert
n vidia
n avig
n aked
n ccl
o ber
o cket
o Model
o Block
o perator
o Queue
o prim
o VNet
p i
p ic
p ango
p kl
p inyin
p creds
p Perspective
p kgs
p urge
q k
q x
q y
q size
q encode
q rt
r il
r th
r ss
r ms
r type
r ices
r ings
r anchor
r strip
r feats
r limit
r inivas
s it
s am
s ib
s ity
s olution
s yn
s api
s olve
s ql
s ync
s qlalchemy
s ni
s ulates
s lick
s mi
s nip
s dCrossEntropy
t b
t i
t re
t ro
t ic
t path
t andard
t ick
t ell
t kdir
t urtle
t unnel
t ips
t mpl
t cldir
t standley
u el
u str
u ght
u ck
u ated
u han
u ssian
u Wheel
u FN
v ile
v ir
v ind
v cv
v lt
v isit
v ron
v Prop
w c
w x
w ro
w al
w as
w get
w ine
w ha
w ould
w av
w ritten
w idgets
x S
x r
x ed
x ied
x term
x axis
x large
x fy
y axis
y gwin
y ellow
z ow
z Type
z ones
{ ([^
} _
} ']
} ")
} '.
} "]
} ({
} ]*
} ]"<
} >"<
} ]\
} @{
} ;"<
¶ tz
Â ł
Ã ¶tz
â Ģ
ã Ģ
ï ¼
Ġ ?
Ġ ir
Ġ EN
Ġ >"""<
Ġ ):
Ġ ports
Ġ emb
Ġ 560
Ġ uts
Ġ iglob
Ġ âĢ
-- \
-- '<
-- \\
-- +<
-- -")<
---- +<
or a
or phan
or land
er f
er ce
er str
er em
er ry
er ies
er ates
er group
er cise
in cl
in line
in ference
in formation
in planes
in structions
in aturalist
se em
se gments
se nd
se crets
se gmentation
on line
re es
re mo
re load
re ally
re fer
re curs
re quently
re starts
re mely
Ġt i
Ġt ip
Ġt pl
Ġt ire
Ġt ck
Ġt range
Ġt ell
Ġt ak
Ġt old
Ġt rack
Ġt anh
Ġt ech
Ġt cldir
at ex
at om
at ypes
at map
im m
im en
im od
im ag
im ary
im ension
im show
en et
en py
en cl
en amed
st ex
st one
st rap
st ere
st ian
st ik
st ein
ort able
port ing
import er
import ed
import ant
ro s
ro pe
ro vers
ro ute
ro aming
ro him
ro ught
le xt
le ctor
le ms
Ġa st
Ġa uxiliary
"" ]
de cl
de ter
de que
de mo
de coder
de compress
de tections
de eplab
Ġ= [(
al en
al ia
al loc
he ap
he lper
he tic
Ġf c
Ġf d
Ġf it
Ġf et
Ġf lo
Ġf ac
Ġf id
Ġf ire
Ġf its
Ġf oo
Ġf rag
Ġf mode
Ġf use
Ġf inger
Ġf ileno
Ġf sencode
Ġf iring
Ġf xfy
Ġf requently
)< /
ar ity
ar ched
ar iant
ar rass
ion error
ion Co
ut Of
it u
it el
it ter
it to
it ow
it uan
Ġc if
Ġc iv
Ġc type
Ġc df
Ġc riter
Ġc su
Ġc tags
Ġc ElementTree
Ġc words
Ġc gi
Ġc bData
Ġimport er
># ------------------------------------------------------------------------------<
is ite
is abs
is hes
is Cache
is lice
is Valid
is upper
is aing
ic ip
ic orn
ic lient
from keys
from Node
Ġp a
Ġp f
Ġp g
Ġp rom
Ġp id
Ġp ok
Ġp ull
Ġp res
Ġp list
Ġp print
Ġp asses
Ġp ract
Ġp ie
Ġp wd
Ġp illow
Ġp apers
Ġp ending
Ġp kl
Ġp efile
Ġre v
Ġre ct
Ġre init
Ġre ly
Ġre load
Ġre start
Ġre work
Ġre nd
Ġre factor
Ġre leases
Ġre store
Ġre ordered
Ġre used
Ġre covery
Ġre produ
Ġre levant
__ =
__ `
__ ):<
__ """<
__ ['
__ '):<
__ )),
__ ']:<
ing Base
ing Class
an H
an it
an der
an other
ur andom
ur ring
Ġs s
Ġs ve
Ġs ug
Ġs aw
Ġs olve
Ġs ampler
Ġs lot
Ġs lur
Ġs qrt
Ġo up
Ġo leaut
ed Dict
ed Resolver
ed Sampler
ed YAML
ed ora
ed isCache
am isra
am uel
es c
es peak
et c
et rov
il oc
il ations
as d
as m
as per
as Net
as net
as ier
as wan
""" ,<
Ġthe ta
Ġin ve
Ġin file
Ġin cre
Ġin crement
Ġin complete
Ġin cremental
Ġin sensitively
Ġin jection
Ġb id
Ġb po
Ġb are
Ġb ook
Ġb read
Ġb rot
Ġb az
Ġb old
Ġb ott
Ġb tw
Ġb ounce
Ġb ump
Ġb rings
Ġb rought
Ġn b
Ġn x
Ġn om
Ġn br
Ġn eato
Ġn Orientation
Ġn bconvert
Ġn anose
Ġn InputPlane
Ġn tpath
Ġd u
Ġd ask
Ġd raft
Ġd ropout
Ġd RCO
lo it
ent ity
ent ral
Ġw ide
Ġw ww
ĠT urn
ĠT ix
ĠT AR
ĠT ou
ĠT ob
ĠT PU
ĠT hen
ĠT ait
ĠT akes
ĠT iny
ĠT emplate
ĠT imer
ĠT okens
ĠT wins
ĠT WO
ĠT RUE
Ġm h
Ġm se
Ġm ro
Ġm ig
Ġm pl
Ġm yp
Ġm ail
Ġm arg
Ġm utable
Ġm ention
Ġm icro
Ġm oment
Ġm achinery
Ġm erge
Ġm nist
Ġm ilit
Ġm varfmt
Ġm alformed
def g
def path
def ormable
ac ert
ri stian
Ġ( %
Ġ( ,
Ġ( .
Ġ( [
Ġ( `
Ġ( ),<
un i
un ot
un ix
un dir
un link
un supported
un defined
un verified
ist ep
ist ring
ol ation
ol umn
ol ding
ad ministrator
ad afa
ad ushy
Ġ' ^
Ġ' {
Ġ' |
Ġ' )<
Ġ' ',<
Ġ' ')
Ġ' ').
Ġ' {}
Ġ' )]<
Ġ' ''
Ġ' -'
Ġ' ]'<
Ġ' )'<
Ġ' ?'<
if tin
if oQueue
ĠP C
ĠP age
ĠP UT
ĠP oss
ĠP open
ĠP ReLU
ĠP OS
ĠP rompt
ĠP KG
ĠP ooja
ĠP seudoAnchorGenerator
ĠP ortable
ĠP etrov
ex ponent
ex change
ex cluded
ex periments
ch io
ch ant
ch anged
ch erry
ht a
ht adushy
Ġis file
Ġl ame
Ġl atter
Ġl arg
om ex
om ial
om ark
om og
om imen
py d
py i
py o
py dist
py cache
py cls
py wrap
py char
py graphviz
py vector
py mediainfo
py mssql
pe ction
pe file
ĠC L
ĠC V
ĠC c
ĠC ap
ĠC atch
ĠC Base
ĠC ould
ĠC ORS
ĠC alled
ĠC rypt
ĠC enter
ĠC BA
ĠC ars
ĠC sv
ĠC SP
ĠC HW
ĠC ERT
ĠC Dumper
ĠC losed
ĠC Emitter
ĠC airo
ĠC ygwin
od able
el en
el ly
el ative
el erate
ab us
ab ases
Ġto Node
Ġret ire
Ġdef ense
Ġdef ect
Ġdef ormable
ra ke
ra Data
ra ven
ra vind
ot s
ot ion
ot as
ot File
ot ingClass
ul ers
ul ated
ul ename
ig ant
ig uous
ig enpy
ag gd
ĠL ow
ĠL ine
ĠL oc
ĠL ET
ĠL ong
ĠL EX
ĠL AB
ĠL ambda
ĠL ars
ĠL BRACK
ĠL td
ĠL uc
ĠL aT
ĠL iu
ĠL PTSTR
ĠL ifoQueue
Ġan al
Ġfor k
ĠS Y
ĠS un
ĠS end
ĠS AN
ĠS te
ĠS win
ĠS olution
ĠS TR
ĠS olver
ĠS OCK
ĠS AME
ĠS OURCE
ĠS PEC
ĠS peed
ĠS patial
ĠS cheme
ĠS AX
ĠS SLS
ĠS cho
ĠS CHEME
ĠS ENet
ĠS lick
ĠS HOW
ĠS tereo
ĠS ARDataset
ĠS rinivas
ĠS amuel
cl ic
cl ick
Ġ" +
Ġ" @
Ġ" ))<
Ġ" **
Ġ" ...
Ġ" :",
Ġ" @@@
ath an
Ġ2 3
Ġ2 6
Ġ2 7
Ġ2 40
Ġ2 82
Ġ2 388
int ers
str g
str y
str ategy
up ied
up grade
ĠA bo
ĠA fter
ĠA DA
ĠA LL
ĠA rian
ĠA CCEPT
ĠA GGD
ĠA gain
all en
all ing
all ins
all enn
all papers
id point
th row
th ai
th inc
Ġth row
Ġth anks
Ġg it
Ġg if
Ġg one
Ġg ap
Ġg ithub
Ġg sp
Ġg ross
Ġg ui
Ġg ras
Ġg space
Ġg ram
Ġg roff
Ġg elu
Ġg rained
ense mb
Ġ- <
ib yte
ib rohim
ĠN N
ĠN et
ĠN ext
ĠN ow
ĠN ik
ĠN ormalize
ĠN esterov
ĠN vidia
ation ale
ation Failed
ĠG H
ĠG uess
ĠG IoU
ĠG UI
ĠG DLoss
ĠI d
ĠI ron
ĠI rv
um ing
um ans
util ities
Ġ__ <
ĠR O
ĠR and
ĠR ET
ĠR ank
ĠR anges
ĠR Adam
ĠR BRACK
ĠR Resize
ĠR GBA
ĠR ename
ĠR RandomSampler
ĠR BboxOverlaps
ĠR emote
ĠR MSP
ĠR enamed
ĠR edisCache
ĠR elative
iz z
iz able
iz ations
ure Tran
able d
able Null
able Body
ĠD B
ĠD om
ĠD ense
ĠD ual
ĠD atasets
ĠD EP
ĠD EL
ĠD eter
ĠD ialog
ĠD WS
ĠD ASK
ĠD IV
ĠD imensions
ĠD eraining
ĠD arkNet
ĠD enny
ĠD iagnostic
ĠD IRECT
ĠD itto
ĠD igant
ir d
ir it
ir Info
ir seq
rib e
and s
and rey
Ġv s
Ġv z
Ġv oc
Ġv env
Ġv isible
Ġv iol
ĠPy En
ĠPy Unicode
ĠPy Simple
ĠPy Win
ĠPy Crypto
ĠPy Tg
ĠF M
ĠF S
ĠF n
ĠF ri
ĠF ind
ĠF ocal
ĠF inds
ĠF ragment
ĠF usion
ĠF ancy
ĠF allback
ĠF BNet
ĠF edora
em cached
em oticon
Er asing
ate Decoder
ate Pair
Ġ_ /
Ġ_ <
Ġ_ )<
Ġ_ ):<
ip v
ip ping
pl atter
pl ates
pl ays
__( )
__( ),
path set
path lib
ser ts
Ġh key
Ġh File
Ġh op
Ġh ops
Ġh old
Ġh our
Ġh urt
Ġh mac
Ġh olds
Ġh appy
Ġh ighlights
Ġh ierarch
Ġdist orm
ter ns
Ġtorch net
Ġfrom string
ss ion
ss ume
Ġfile type
Ġfile tuple
EN ATE
EN CODED
con cat
con straint
Ġor phan
Ġor phans
end ulum
Ġ* _):<
Ġ* _:
Ġ""" (
ult aneous
ict ed
com ma
com plet
com XX
com pressed
Ġcon n
Ġcon versions
Ġcon catenate
Ġcon secutive
`` '
`` -
`` ),
`` ::<
Ġun able
Ġun cont
Ġun link
Ġun signed
Ġun su
Ġun normalized
Ġun const
Ġun installed
Ġun prefixed
Ġun verified
Ġun hexlify
Ġun biased
Ġun lik
Ġun alloc
Ġun icorn
Ġun changed
Ġ[ ^
Ġ[ ])
Ġ[ ','
Ġ[ ,]
Ġu u
Ġu ul
Ġu Size
Ġu ufuture
ke file
Ġlo t
Ġlo ck
ap s
ap is
ap ot
ap ple
ap scheduler
ap iclient
Ġ1 9
Ġ1 88
Ġ1 234
par allel
ect ive
set default
set Filter
ix x
ix y
ix z
tr ary
ys rc
get previous
get filesystem
get pid
get fullargspec
get ChildNodes
get cwdu
Ġbe ings
Ġbe gins
ĠO NN
ĠO rphan
ĠO rphanPath
ĠO UTPUT
ĠO utOf
yp w
== '
== =<
Ġnot es
lib raries
lib cairo
ĠM S
ĠM ar
ĠM ET
ĠM ultip
ĠM LP
ĠM EM
ĠM nas
ĠM isra
ĠM eshes
ĠM SELoss
ĠM lvl
ĠM ODI
ĠM emcached
(' [
(' ['
(' '))<
(' /')<
(' -',
thon y
In dic
In Tar
In consistentCandidate
Ġst ub
Ġst ale
file tuple
file Name
Ġde velop
Ġde script
Ġde mod
Ġde bl
Ġde dic
Ġde legate
so fa
Ġ20 00
Ġ20 47
ĠB E
ĠB Z
ĠB in
ĠB ig
ĠB rain
ĠB OT
ĠB ias
ĠB GR
ĠB iT
ĠB ring
ĠB atched
ĠB acon
ĠB egin
ĠB ARE
ĠB leach
ĠB erners
ĠB orland
Ġit ers
Ġit alic
qu ad
qu opri
qu oprim
qu isite
() ):<
() ._
() "<
() )]<
() ][
() })<
form s
form able
Ġim pro
Ġim read
Ġim pend
Ġim resize
ps f
ps ample
are hou
Ġex cl
Ġex pl
Ġex periments
his h
his car
Ġso up
Ġso urces
Ġso cks
Ġso undfile
Ġ---------------------------------------------------------------- -------------<
gg ers
gg est
htt plib
to pe
to string
to Node
to pleft
to pretty
ĠĠĠĠĠĠĠĠĠĠĠĠĠĠĠĠ ĠĠĠĠĠĠĠĠĠĠĠĠĠĠĠĠĠĠĠĠĠĠĠĠĠĠĠĠĠ
ener ate
SE ED
SE CURE
Ġr eresnet
20 2
20 000
20 04
20 03
20 48
PL AT
PL UG
ple x
pre processing
pre fs
Ġe e
Ġe uler
Ġe asily
Ġe stimate
Ġe lems
Ġe asier
args ort
ok ay
ok ky
rap ackage
iv ating
ft p
Ġget t
Ġget Dict
Ġget TreeWalker
Ġget fullargspec
que es
ĠW ang
ĠW out
ĠW arning
ĠW indow
ĠW ords
ĠW arned
ĠW orth
ĠW EBM
ĠW HITE
ĠW arehou
data frame
ise nt
dir tools
Ġ+ ------------
ess Detector
(" %
(" ==
(" {([^
ow idget
~~~~ ~<
Ġ: ("
ang ing
ang ular
ang les
IC E
ĠH a
ĠH f
ĠH int
ĠH ug
ĠH ost
ĠH eter
ĠH ighlighter
ĠH SV
ĠH GLOBAL
ĠH olds
ĠH alo
ĠH WC
ĠH umans
nt ire
nt lm
Ġ3 4
Ġ3 6
Ġ3 00
Ġ3 11
Ġ3 108
Ġal lp
Ġal tered
Ġal iased
Ġal though
ĠDe fl
ĠDe cember
bo u
bo unce
bo sity
Ġy c
Ġy es
Ġcol on
Ġcom mat
Ġcom plet
per ature
pen up
ain ScalarString
ain BasicAuth
Ġx w
Ġx lw
ĠU C
ĠU V
ĠU til
ĠU sers
ĠU rl
ĠU NIX
und ant
Ġse ctions
Ġse gments
Ġse arched
code point
code tag
ind ableBody
ine ment
ER E
ER ASER
Install ing
ĠE ro
ĠE AS
ĠE ffic
ĠE CON
ĠE asy
ĠE stabl
ĠE ven
ĠE PS
ĠE valuate
Ġtyp er
Ġtyp ical
eth ink
Ġ{ (
Ġ{ _
Ġ{ },<
Ġpro ced
Ġpro bs
pro xies
pro perties
Con dConv
Con catenate
ew alkers
00 7
sc i
sc atter
sc ope
sc alar
sc xr
lic ffi
model zoo
AT AL
AT SSKldAssigner
AT URES
Ġ`` **
Ġ`` --[
ĠV id
ĠV endor
ĠV ide
ĠV ector
ĠV iew
ĠV alid
ĠV imeo
ĠV aswan
ĠV otingClass
NU ALL
NU TES
ans wer
ans itow
License d
IN IT
IN VER
IN DIC
ial ization
oc chio
Re parse
Re fer
Re ports
Re order
Re centlyUsedContainer
Re factoringTool
us p
us alay
out s
out ine
out RefactoringTool
RE C
RE AL
RE TR
RE GI
==== ==<
pat terns
pack aged
ive Info
ff f
ff pyplayer
ff ective
Ġ/ __)
Ġres idual
Ġres izing
Ġ< !
Ġ< ,
eg gs
os name
DE FIN
box Tree
OR B
Ġen gine
Ġen coder
Ġen larg
res ample
res olution
res olved
ON LY
Ġlist dir
Ġlist File
MA C
MA SK
MA DGRAD
MA GIC
iter values
iter rows
ĠCon cat
ĠCon crete
ĠCon trary
ĠIn stance
ĠIn place
ĠIn cre
ĠIn spired
ĠIn dicate
ĠIn consistentCandidate
ME TADATA
ĠAn thony
ĠIm plicit
Ġab use
Ġab sen
Ġab bre
parse str
parse Fragment
Ġlogg ers
Ġcont rib
dist orm
ST EM
Ġurl split
ord Cars
load txt
ust ness
Ġ` {
Ġ` --
32 4
Lo g
Lo op
back off
back slash
SS ING
SS IBLE
dict config
ide mpotent
Ġelse where
Ġpy py
Ġpy doc
Ġpy tree
Ġpy graphviz
Ġpy OpenSSL
Ġpy runtime
Ġpy mediainfo
Ġpy mssql
[' __
info url
Ġpre tt
Ġpre ced
Ġpre processing
Ġad vice
Ġad vant
Ġad ministrator
Ġfuture s
Ġsh allow
Ġsh apes
Ġsh ips
Ġsh geo
Ġsh uffle
Ġro c
21 7
21 98
Ġlib s
Ġlib path
Ġlib pasteurize
AN K
AN Y
AN IM
AN ESE
Ġsc al
Ġsc op
add resses
add cmul
github user
ĠTensor s
ĠTensor Dataset
cache s
cache able
FA CE
FA UNA
item Type
Type Error
Type Alias
Type Gu
pon ly
Res net
Res uming
me htadushy
ULT S
ml p
Ġclass ifies
ĠUn its
ĠUn cert
ĠUn iform
ĠUn idecode
ĠUn rew
met avar
AR GS
env build
ite packages
torch box
torch vision
Ġpack et
Ġpack aged
ĠSe curity
ĠSe lecSLS
ĠSe anpm
Ġno ins
Ġno isy
xy wha
Ex p
ĠRe present
ĠRe LU
ĠRe sets
ĠRe centlyUsedContainer
irectory Error
read lines
col late
Ġhe llo
'] ;
'] ):<
'] ``
'] ))<
'] ).
IT ION
Ġk B
Ġk ang
Ġk inds
Ġk iran
Ġk ornia
te k
te apot
tin s
Ġ| (
Ġ| ------
Ġ| .|
Base Module
Base String
Base Distribution
Base BytesIO
Base StringIO
Base GetSystemDirectory
Base GetWindowsDirectory
Base Pos
Base EnumResourceNames
Base EnumResourceLanguages
Base FindResourceEx
St anf
AL T
AL IC
AL CHE
AL PN
da ys
da vis
22 82
Ġback ports
Ġback space
place holder
Ġtime it
Ġimg hdr
valid ations
gr ader
win errors
HE D
HE X
HE LP
cont act
cont iguous
Ġsub string
Ġsub ject
Ġsub classes
Ġsub sample
Ġsub stant
Ġsub mission
Ġsub subpart
Ġ[' /
Ġ[' _
Ġ[' __
Ġ[' *.
ĠAr range
ĠAr gumentParser
ĠAr bitrary
ĠAr goverse
Ġmm ap
Ġdat abases
Ġnew next
Ġnew lines
Ġnew super
Ġnew Parent
Im aging
ann files
print er
son gname
Ġfun cs
SSL Transport
Ġcollect ing
Ġcollect ed
ale s
og rid
Ġright Data
ĠIter ation
Ġle af
Ġle aves
Ġle fto
Ġkey point
Ġco vers
Ġco herence
Ġco efficient
Ġco ef
Ġco urse
Ġcheck ed
Ġcheck ers
Py PI
Py Pro
Py CREDENTIAL
Py Cryptodome
by ob
ĠRes ize
Net s
Module s
Module Error
pace Path
ĠPY PY
sub module
sub types
Ġopen ing
Ġopen ssl
Ġdo ctype
OL KIT
lp Filename
for war
ne o
ne cessary
inter face
inter pret
inter bas
') ]
') ):<
') ),<
Dict Converter
Ġassert Not
che ap
Ġap plications
": "
Ġcache able
Ġcache control
ĠCom putes
Ġresult ing
Ġmodel ine
ĠOpen GL
De v
De que
De velopment
De pth
De precated
De lete
De ja
De legate
De fines
De formable
ĠK L
ĠK S
ĠK ernels
ĠK ORE
ĠK elly
Ġarg mument
Ġpoint ers
Ġid c
Ġid i
MAGEN TA
du f
python com
python net
av id
ject Build
conv olution
ENT RIES
vert ex
vert ical
Ġrun times
01 03
01 136
01 169
Ġ\ '%
=" /
=" (\
=" ([^
The y
ĠBase lines
ĠBase HTTPError
ĠBase HTTPRequestHandler
UT ILS
UT RAL
af z
Ġext ent
Ġext ended
Ġext ends
Ġext remely
http bin
tt k
tt ing
tt kwidgets
rot ected
AD ME
AD DR
AD irectoryError
AD ITION
Ġqu ats
Ġqu eries
dat abase
Ġ4 1
Ġ4 2
Ġ4 3
Ġ4 18
Ġ4 05
Ġ4 80
Ġ4 29
Ġz s
Ġz ones
Ġline feed
IO Error
IO Python
En v
ition And
Ġiter xml
run times
Ġconfig obj
([ <
CT rie
bin ning
cv f
vi ated
split ext
An im
input stream
arch ived
Ġitem type
ĠHTTP Warning
ĠHTTP Adapter
au c
ific ates
EX P
EX PI
EX EC
Ġfol ding
Ġmet avar
64 0
64 7
script ing
Ġup scale
Ġup dates
ative Name
Ġpl ate
Ġpl aced
Ġsource Parent
Ġlog m
Ġlog p
Ġlog in
Ġlog file
UR DF
UR LSchemeUnknown
]. *)?$
start ing
Ġdis patch
Ġdis car
Ġdis allow
Ġdis card
Ġdis abling
Ġmax es
Ġmax replace
Ġinter p
Ġinter polation
Ġinter ested
Ġinter section
Path Like
PY PY
min utes
Ġ... ')<
Ġ... ).
Ġ... "<
Ġ... ),
Conv olution
Conv BnAct
Conv NeXt
pend ulum
Ġinstall s
aw ay
mon key
") [
") ):<
") }<
") ])<
graph lib
open access
PI PE
no isy
Ġsize of
the m
the y
the ir
the cvf
style guide
Logger Hook
stat s
rid able
12 80
Ġfind ers
ose ly
ssl transport
Ġpart icip
Ġload Ui
Ġstyle d
ĠPar mar
pos itive
Ġroot ed
Python Lexer
Python TracebackLexer
aracter izing
ĠJ an
ĠJ ython
ĠJ AP
ĠJ ustify
ĠJ sonSchemaException
ĠJ une
ĠJ WTError
ĠJ sdCrossEntropy
Ġev olved
File Reader
File Wrapper
File Source
new str
new range
new car
new folder
cs Info
cs uhan
Ġwin s
Ġwin con
Ġwin api
ĠSet up
Ġnumber ing
ĠImage Dataset
ĠImage Enhance
ĠImage Folder
ĠIterable ImageDataset
Ġfloat s
struct s
struct ure
Ġformat date
afe Dumper
cor respon
dot ted
sl ides
imple gui
ĠText Span
ik ced
Ġtim er
Ġser if
Ġser ious
Ġser ves
kg lext
other file
AB ASE
Un author
Un do
Var ious
ĠNot ADirectoryError
doc umentation
doc strings
fa ker
fa irseq
fa kefile
sh adow
sh iftin
Ġindex es
ĠSo ftTargetCrossEntropy
ĠEx porter
ĠEx perimental
ĠVersion edResolver
19 6
19 89
fl at
fl ag
fl uous
Ġsome file
Ġsome otherfile
log o
log y
log in
log ical
log probs
Ch at
Ch anges
Ch anged
Ch ainMap
Ch ooser
Ch aracterizing
Name Warning
copy ing
op ied
vers ation
Ġvar iance
Ġvar iet
]) ).
ĠY Cb
Ġus ages
Ġus ual
Ġus ability
Ġneed le
ĠDistutils Ar
ĠDistutils Setup
ĠDistutils ModuleError
Pool Exec
TER DOC
VER Y
ĠPro c
ĠPro gram
ĠPro cessing
ĠPro gress
func name
\\ .
\\ *)
Ġed itable
Ġover write
Ġover writ
ell ips
ell aneous
000 2
000 8
000 9
06 3
06 667
TR ACE
TR ADITION
Ġsy mlinks
ĠConv Head
ĠConv enience
Ġtoken izer
Ġtoken Types
ĠBSD DB
Not es
Set s
cre ating
cre afz
ie f
ie ve
ie poch
Ġtemp or
Ġact s
Ġact ivate
ant amisra
ĠEn cap
Point Generator
Point Elements
Ġstream ed
dis k
dis place
". "]:<
Pro ble
Ġpool manager
Ġgraph ics
Ġyour self
Ġyour style
Ġyour filter
11 605
ding dong
sp Net
sp acy
Ġent ers
Ġent ities
STD OUT
17 3
Data Parallel
ĠZ e
ĠZ oo
ĠZ hang
ank er
CO UN
CO SX
Token izer
Token Types
tree Type
Ġ5 43
Ġman aging
Ġman aged
Ġ10 4
STR Y
ca ke
ca ff
Ġrandom ly
ID AR
ID NA
ID NABidiError
Ġinit iated
ĠFile s
ĠFile List
ĠFile Reader
ĠFile Proxy
ĠFile System
ĠFile Dialog
ĠFile systemWheel
Ġvalid ating
ak a
ak y
ak as
Ġ7 8
Ġ7 230
Ġme asure
Ġme hrdad
pop ulates
Ġsocket server
Ġpython comXX
Ġstat ically
Ġstat uses
Ġzip p
RL IMIT
Ġper missions
ĠCol late
ĠCol lin
ĠGA E
ĠFor ce
Parser Element
flow Error
sign um
Ġ6 0
Ġ6 3
Ġ6 5
Ġ6 21
Ġ6 60
Ġrel ies
Ġrel atively
Ġrender ing
rag ana
Ġencode string
wh itespace
wh itel
IP V
IP v
roz et
loc ales
Ġ(' ',
>` ,
>` )<
>` ,<
>` _.
parent ly
ĠQ Name
Ġforward ing
Ġenv s
ĠInvalid Base
02 78
yn omial
Ġ'. ')<
Ġ'. ',<
Ġ'. '):<
Ġ'. '))<
Ġ'. ')]<
Col late
Det erm
find iter
ud c
ud fff
Ġsp hinx
Ġsp irit
fore ver
fore ground
var args
ĠX Z
ĠX HTML
ĠX iang
Request Methods
div isor
main Loop
Ġutil ize
Ġutil ise
Requirement Information
ookie Jar
04 971
NO FOL
NO FILE
]] ):<
]] ]<
Ġcor ner
Ġcor ners
Ġdif ferences
RES ULTS
Ġregister ed
Cache Value
cle an
direct ive
{} )
Ġcase dkey
Ġredu cing
Ġbin s
ĠRotated RetinaNet
ĠRotated Shared
ĠRotated ConvFCBBoxHead
ĠRotated RPNHead
Ġplatform dirs
zip p
Loss Warning
Cl ip
Class Attn
ress List
Ġcre dit
token ize
LO G
my py
my list
my string
of Resource
ins pect
ĠInstall ing
Resource Reader
Resource Handle
03 3
dig antamisra
norm case
ret ch
Ġwrap pers
exp loit
Ġthread safe
"] ]<
SC REEN
Se q
Se lf
Se parable
Se anpm
Se parator
Se lector
over lay
off line
temp orary
ĠPoint sets
assign ed
scale d
99 97
mat plotlib
mat lab
eta h
Ġlook ed
Ġexp ansion
Ad ding
bl k
bl ique
bl anchard
bl urry
Ġ"" .<
Ġ"" ),<
Ġmat rices
ĠReg Error
ĠReg OpenKeyEx
ĠReg EnumKey
ĠReg EnumValue
ĠReg Exp
Parse Float
Command Info
23 88
EL L
EL U
UN FIN
cu ssion
sy mlinks
}, \
}, {
}, ')<
Ġsplit query
Ġsystem Id
Ġnon amefile
old dict
Man age
ĠCh at
ĠCh aracter
ĠCh annel
ĠCh ris
ĠCh ristian
=[ ]<
=[ ("
has a
nd file
nd hdr
row ser
Ġfilter ed
ics Python
Ġconv s
Ġloc n
ĠUse ful
distribut ors
Ġscale d
08 69
08 217
Header Parser
Header Body
Header ParsingError
Key BasedCompareMixin
Ġthere fore
play Role
ialize Error
ĠSequence Node
Code Formatter
PO OL
PO SSIBLE
cmd options
ĠPR s
ĠData Node
ĠData Table
ĠData LossWarning
ĠMapping Node
... ')<
Read s
Read ing
={ <
Rotated StandardRoIHead
Rotated ConvFCBBoxHead
system Id
tem perature
Ġq k
Ġq w
Ġtk dir
Ġtk Message
Ġtk Color
Ġtk Common
Ġtk Font
Ġmy model
Ġmultip ath
ĠCO DE
ĠAl ways
ĠAl ready
ĠNumber Formatter
('. {}'.
Ġxml str
Ġxml ns
Ġxml rpclib
RED S
ferent iable
Ġattribute Map
Ġfactor ed
No WayToWaitForSocketError
PC ookieJar
Fix Print
Fix Xrange
pass lib
Ġ& ,
ance stry
Ġver b
Ġver bs
Ġver bosity
ĠĠĠĠĠĠĠĠĠĠĠĠĠĠĠĠĠĠĠĠĠĠĠĠĠĠĠĠĠĠĠĠ ĠĠĠĠĠĠĠ
ĠĠĠĠĠĠĠĠĠĠĠĠĠĠĠĠĠĠĠĠĠĠĠĠĠĠĠĠĠĠĠĠ ĠĠĠĠĠĠ
ĠWindows Error
18 07
100 0000
ratio s
warn ed
remove Child
imit ives
ĠSOCKS Connection
Ġdisable s
>`` """<
BA RE
Graph Stat
Graph icsPython
Message ParseError
tar ball
ĠSc rolled
trans action
Int Var
Int egral
Int egration
ĠTypeError s
Ġdifferent ly
Ġdifferent iate
09 0
09 595
HTML Parser
Mapping StartToken
QA bstract
xml str
xml rpclib
Ġtar s
Ġmark ers
Ġlong est
Ġlong opt
ĠFix Raise
ĠFix Import
ĠFix Imports
ĠFix Unicode
ĠFix Xrange
tern ativeName
ĠKey board
ĠKey BasedCompareMixin
COM P
COM PL
COM PIL
05 941
Directory Source
assert Raises
ĠIO U
Ġ{} )<
Ġ{} '.
HO ST
Test Dataset
Ġ9 3
rel ation
rel ations
ars all
Ġdown sampling
Ġdown loaded
setup cfg
Cre ating
NE AREST
NE WLINE
NE UTRAL
PRE V
slo t
Ġauto play
Ġpr ereqs
Ġpr imitives
Ġsign alling
ĠUser names
Reg OpenKeyEx
Reg EnumKey
Reg EnumValue
Ġextra ctor
Mark edYAML
Ġsim ulate
Ġsim ultaneous
ĠPackage Metadata
ĠPackage Details
ĠSE Module
ĠSE SSION
ĠNetwork Outputs
common prefix
Ġsess ions
ERR ORS
ĠDistribution Finder
src ysrc
.* $
USE D
USE S
oration Helper
ref lection
ref iner
local s
ĠNo ise
ĠNo WayToWaitForSocketError
Ġdest dir
Ġapply ing
Ġgenerator s
Ġident ity
Ġident ify
ĠException Trap
wait Key
ĠColumn DataSource
25 23
25 0103
DO S
DO W
DO MAIN
Ġsimple st
Ġinv olves
Ġdirect ive
Ġ'_ ')<
ĠDo uble
DET AILS
Ġcorrespon d
Back flip
Value Meter
Ġtrue color
ĠLe vel
term info
ĠMutable Sequence
msg list
,) *
FF HQ
Filter ingPython
TO OLKIT
Ġattr getter
insert ions
insert Before
roll no
roll axis
ĠTo Tensor
ĠTo ASCII
ĠTo Unicode
ĠTLS ing
ĠCON NECT
Ġ". ".
ĠRFC s
Ġrank dir
Ġrank sep
ĠAdd ition
WORD S
Al ternativeName
auth entic
bar file
case dkey
case Tokens
hi ragana
Ġtrans posed
Ġtrans lates
Ġrefer ences
chunk ed
ĠClass Var
cond ition
ĠUnsupported VersionError
ĠUnsupported Operation
Example s
ĠResource Container
ĠResource Handle
Comp Cars
count str
Act ivating
IS REG
IS HED
Ro ot
SU DO
rect angle
stack exchange
depend ent
depend ency
Ġref Node
any Of
Ġbatch wise
ĠTh rows
Ġlp Data
Ġlp Buffer
Ġhope fully
atern ionCo
Stream Reader
Stream Mark
Stream Server
Stream StartEvent
Stream Writer
End Tag
({ !
({ "
BL ANK
Gener ationFailed
Pre serve
Pre servedScalarString
drop ped
lap PatchEmbed
pdf base
Ġ50 3
Ġff pyplayer
Ġff imod
Ġca iro
Ġca using
Ġwant ed
acc elerate
libs ndfile
Ġchar bonnier
Ġpresent ed
Ġrow Count
Ġleft Data
Ar ch
Ar goverse
Build Extension
Iter ator
Retina Refine
su ccess
Ġtitle s
imal Distribution
Ġdb g
plate au
Ġhighlight er
Ġhighlight ed
Ġunpack ing
foo file
Ġenn AvgPool
Ġenn Interpolate
Ġenn TrivialConv
Ġarch ives
35 78
Item Model
Item Is
Item FilterProxyModel
Specifier Set
suffix es
tf Formatter
uint ptr
Ġhtt ponly
ordered dict
Ġauthor s
dec odable
isit ing
Ġpad ded
Ġop posed
Ġdum b
Ġdum per
Ġmulti homed
ĠPre c
ĠPre vent
ĠPre viously
ĠCache Key
Ġthrough put
Ġthrough out
ĠGet s
ĠGet Last
ĠInt Enum
ĠInt rapackage
ĠOS X
ĠModel ing
ĠBy obNet
Config Parser
Config Handler
Ġcontrol s
ĠProxy Manager
ĠProxy Config
26 925
ACE LESS
Buil tins
Co aT
SY NT
SY STEM
cy an
Ġredirect ed
Ġsu ggest
Ġdate util
ĠMax ConvexIoUAssigner
Ġepoch s
ĠHard ware
0001 10
resnet v
Resolver Exception
specific ations
PROC ID
ĠConvolution Block
namespace URI
Ġconsider ations
MODUL ES
/* /
/* <
34 5
GR AP
GR AY
Ne ural
Ne arest
VI RTU
limit ed
limit ations
site custom
used Anchor
------ -
les ale
desc ribe
Ġtok s
ĠLo ck
ĠLo gger
ĠLo gging
clus ive
Ġ"\\ "
Ġ"\\ ".<
ident ifier
Ġord inal
Ġlocal rev
ĠMA E
ĠMA NUALL
ĠBack wards
()) [
()) ),<
Ġhex lify
Ġquery ing
ĠZip Reader
ĠZip Info
FIL L
FIL ETIME
cert ificates
non zero
non amefile
rec warn
rec ently
rec ognition
ĠSimple Path
ĠSimple Dialog
Ġ"_ ")<
Ġconnect s
Ġconnect ed
Ġconnect able
Ġstack ing
tok dict
ĠHel p
Load Resource
regex es
regex opt
ĠCompat JSONDecodeError
Proxy Error
ĠRequests Depend
digest s
#! .*
Ġtag TokenTypes
Ġpaper type
Ġdrop down
Ġ'/ ')
ĠCheck point
ĠCheck boxTree
ĠAbstract Resolver
Ġhow ever
settings dialog
Ġdec ides
("\ "'")<
book s
mak er
Import er
Import ed
ĠResNet V
Ġextract ing
URL Fetch
URL ENCODED
minist ically
Ġmarkup base
07 00
Cookie Policy
IF IC
LIST TYPE
SP ORT
Up per
bb code
bb rowser
center point
tmp dir
}) '<
}) ".
Ġra re
hex version
edi um
edi ately
pyproject toml
otation Categories
ĠSh ared
ĠSh ift
ĠSh ifted
ĠSh lens
Ġcomput es
Ġwho lesale
sched ulers
Default Type
Ġevict ion
PROTOCOL S
ĠYAML Error
Ġsession maker
ĠCONTR OL
Ġtrunc ated
LOCAL TIME
LOCAL RANK
tz data
vg max
vg Formatter
ĠError s
inst ead
Ġrece iving
Ġnet s
Ġ", ".
ĠAs serts
ĠRE SET
ĠRE ADME
ĠDis patcher
ĠFrozen Requirement
Ġadjust ments
byte code
network s
ĠColor System
USER NAME
Ġpypro j
36 64
57 1
CL ASSES
CRED KEYS
Final Typ
LA P
MAT CH
Max RetryError
Qu otas
Qu aternionCo
So fficial
Size ofResource
font family
}. {
}. ".
images pace
Ġcrop ping
Ġrec ogn
Ġrecord s
Ġinert ial
Ġborder Mode
ĠTimeout Error
Ġmim ics
Ġmim etools
Ġtool tips
ĠLR UCache
ĠLib raries
ĠLIGHT RED
ĠLIGHT BLACK
ĠLIGHT WHITE
ĠLIGHT GREEN
ĠLIGHT BLUE
ĠLIGHT CYAN
ĠLIGHT YELLOW
ĠLIGHT MAGENTA
ĠSub class
ĠSub mitted
ĠSpec ial
ĠSpec Path
Ġassign ing
ĠRich ard
ĠRich Handler
Ġsecond ary
ĠExt ensions
ĠExt raction
ĠExt raData
0000 1
Ġspecial izations
Ġkeyword s
ĠSocket Server
Column DataSource
Attention al
ĠContent TooShortError
Adam W
Ġtokens ource
49 09
>~~~~~~~~~~~~ <
>~~~~~~~~~~~~ ~<
Cross ViT
fe ac
sha zow
}: {
include s
Ġtable s
Ġtask s
olded ScalarString
ĠLP BYTE
ĠLP aren
ĠGo Pro
ĠIP V
ĠRo IT
Ġconstructor s
ĠOver load
ĠOver laps
ĠOver flowMethod
ĠOver ridable
Ġstrip ped
ĠBuild Extension
Ġalign ed
Ġalign ment
Ġprodu cing
Ġterm color
INTER FACE
ĠAnsi Back
ĠAnsi Decoder
ĠAnsi Fore
Ġ`- .
Ġ`- .<
Ġ`- '<
Ġ`- `.
Ġshort er
Ġshort cut
Ġknow s
Ġknow ledge
ĠComposer Error
Ġregular ization
Ġmanipul ates
ĠAdam P
45 4
Future Builtins
Mish Me
NS sw
New Type
RO UND
Random ly
Random Rotate
Random Flip
Sec ureTran
User Base
aug mix
guild s
memory view
vo Grad
Ġtre at
Ġtre ated
Ġtre ats
Ġtri ed
ĠPer form
ĠPer ceptron
ĠPer formance
ĠPer cent
ĠLocation ValueError
ĠAdapt er
Ġ.- .<
Ġvert ex
MAN D
MAN ENT
Ġrobot parser
ĠRef inement
calcul ators
Unicode Error
Unicode EncodeError
disable d
Ġexecut ion
Ġexecut ing
Ġconvolution al
PREFIX ES
Struct ure
([' %
-> |
Ac cess
Basic Block
Custom er
NT IRE
NT LM
RA vlt
Render Result
Render ingPython
Sig ma
Swish Me
Tri ed
US B
`_ .<
`_ ).<
ba hasa
do uble
mix ta
mix ture
plot ly
Ġtmp dir
Ġfall ing
Ġfall back
Ġrepr lib
Ġsl ide
look ahead
Ġ'\\ "':
ĠPSNR Loss
ĠCl ipping
ĠSafe Representer
ĠSafe FileCache
Ġ"' "<
uplic ate
ĠNe ither
ĠIS O
Ġconstruct ed
Index Error
Ġdeb undled
ĠInit ialize
ĠInit ializer
ĠSelect Adaptive
Ġpassword s
Ġcop ies
ĠComp iled
Param Spec
Ġedit ing
Container Cls
ĠAlign ed
Ġverify ing
ĠLoad LibraryEx
Ġesc apes
Ġesc aped
Ġantial isaing
>================================ =<
Ann otated
Layer Scale
Ordered Set
Pol y
Time Warning
Time Limit
Too Deep
Too Much
bs olute
fd p
gener ic
inert ia
Ġauth entication
Ġcr ash
Ġcenter ed
Ġpur ge
ĠCreate Guild
ĠSp herical
ĠSer vice
ĠNon Local
const rain
quiv ariant
Ġrad ians
pretrained models
ĠHeader ParseError
ĠHeader ParsingError
ĠUR Is
Rep VGG
herence Matches
Ġida utils
Ġida api
([^ \
And rey
Ġparticular ly
share s
Scene DatasetWrapper
ĠProxyScheme Unknown
Ġappropri ately
>~~~~~~~~~~~~~~~~ <
>~~~~~~~~~~~~~~~~ ~<
>~~~~~~~~~~~~~~~~ ~~~~~<
BC ConvexGIoULoss
MIME Base
Names paceReader
Names pacePath
On ly
Print able
We b
We ight
ev icted
hang ul
mk path
mk dirs
mk dtemp
mac osx
oU Shared
yaw s
Ġcar riage
Ġreal path
__} `
Ġbind ing
ented Python
ĠTable Column
ĠTree ItemFilterProxyModel
ĠTempDirectory TypeRegistry
ĠLog istic
ĠScalar Node
Ġvisual ize
Ġhand shake
conf idence
Ġconsum s
Ġconsum ed
trust Info
ĠObject Counter
Init ial
Inter net
Inter rupt
Ġimm ediately
Ġcombin ation
ĠUN C
Construct s
ĠVer ifies
users itepackages
contain ed
Entry Point
Entry Token
requested Pri
Ġdivide d
ryptod omex
STRING BUILDER
Ġpoly gon
Ġpoly gons
COMMA SPACE
HASH FUN
HASH SEED
Align Method
ĠCallback FileWrapper
77 7
Abstract Distribution
Blur Pool
Do es
Handle s
MULT I
mind spore
inc ip
Ġcos r
Ġcos y
Ġcos ine
Ġshe ar
Ġshe et
Ġdom ains
ĠTk constants
ĠTk dnd
unit test
ĠPack ages
ĠPose Data
ĠPose Dataset
ĠSystem TimeWarning
Ġ"{ :,
Ġassum ing
ĠNull Formatter
ĠNull Finder
ĠNull Highlighter
ĠDat atypes
ĠMin imalDistribution
ĠMethod s
Ġdeter ministically
ĠWith Bias
Ġsen se
resol vers
Lock Resource
ĠStart ing
ĠStart Tag
ĠKe ys
Ġsymbol s
Protocol Error
Protocol Meta
Add itional
BUIL T
FORMAT TER
Ġterminal s
SKIP PABLE
68 03
Down loads
DPN s
FE ATURES
MODE L
cr ime
cross vit
eff Order
sin omimen
tra iler
roff Formatter
robot parser
dev kit
Ġcap acity
Ġred act
Ġred undant
Ġsus pected
ili ans
ĠPadding Dimensions
change able
ĠCoun try
Ġ"- _")<
Ġ"/ "<
ĠAda hessian
ĠAda Hess
ĠABC s
Ġascii Upper
ĠGaoLib ListModel
ĠRep Points
ĠFIL TERS
ĠMix Conv
ĠWin Style
ĠWin Color
ĠWin Term
("- ",
("/ ",
ĠDeep mind
ĠDeep Lab
ĠEnum erates
ĠUnix Dat
owner Document
forward ing
128 90
flatten ed
Sequence StartToken
skip if
ĠConfiguration Error
Prefetch DataLoader
extractor s
)`` ,<
CR ITER
CS afeLoader
CS afeDumper
Legacy Version
Lookup Dict
Spec Path
SOCKS Connection
WIN DOWS
WIN DOW
XML Http
Your Formatter
aim s
bf s
larg er
visual ization
}' "
report ers
represent ing
represent ers
Ġturn ing
Ġturn ed
Ġpublic Id
Ġrepl acer
Ġmix in
Ġmix ture
Ġlik elihood
ĠCandidate Lookup
ĠCUDA Extension
ĠCUDA Prefetcher
ĠSim ilar
ĠIN PUT
ĠRED S
ĠRED Sofficial
ĠDOC TYPE
ĠDown sample
ĠFast API
Ġ[] ;<
('/ ')[
Inv oke
Ġexit ing
Installation Result
Ġproj Name
provid ing
ĠVideo TestDataset
ĠUnsafe Constructor
Ġsubse quent
ĠStandard Scaler
Compat ibility
Ġregard ing
monos pace
ĠJonath on
ĠTexture Dataset
Detection Head
ĠPoolError s
Generic Alias
Async Generator
Async Iterable
Async ContextManager
Async Iterator
LoadLibraryEx W
ĠDetection Dataset
>######################################################################### #######<
PYTHON HASHSEED
)\ )',
69 6
BIN ARY
Dis playRole
GPU S
Object Graph
Pack er
Pack Invalid
Tar File
Tar Info
Wh ich
Wh itespace
WAR P
WAR NING
Zip Reader
\' >'
each line
iy y
iy z
iy uan
mult istep
mult iepoch
she ll
sax utils
simple json
tw ine
tool bar
tool kit
vis ibility
Ġtake while
Ġcalcul ation
Ġpin occhio
Ġpin akas
Ġbad ly
Ġmar quees
cha os
ĠLabel Encoder
Ġask ed
ĠGV BBoxHead
ĠGV FixCoder
ĠRun ning
ĠDes cribed
ĠDATA SET
ĠDATA CENTER
ĠDATA SETS
ĠFace Rest
ĠOption Error
ĠOne OrMore
initial ized
ĠMap s
ĠMetadata GenerationFailed
ĠBasic Block
ĠHash Missing
ĠEvery time
Ġintens ities
ĠVis former
typedef s
ĠInter actions
ĠSearch ing
ĠReal Blur
Ġsubstit ute
Ġbutton s
Ġmanage ment
Ġsimpl er
Ġ~~~~~~~~~~~~~~~~~~~~~~~~ <
Ġlowercase d
Ġemit ting
Ġemit ted
Escape SubMethod
Ansi Codes
'[ {
CI FAR
DF LT
EV ENT
HR Net
IR USR
IR OTH
IR GRP
LIB DIR
PSNR Loss
TW O
Try ing
hu jie
la de
la unch
migr ating
war pPerspective
writ able
xc it
xc scxr
yes nod
|\ .
repl acer
Ġtw ine
Ġtunnel ing
sta ff
Ġaio http
Ġcent ral
Ġpat comp
___ /
Ġsatisf ied
Ġsandbox ing
Ġda ys
ĠTrans lated
Ġ'* '
Ġ'* ',
Ġlimit ed
ĠCustom Formatter
ĠCGI HTTPRequestHandler
Ġretrie ve
ĠLive Render
ĠLookup Error
ĠSingle QuotedScalarString
ĠSession Local
ĠSkip To
ĠAug Mix
ĠAverage ValueMeter
ĠNF Net
ĠRet rie
ĠRound ing
ĠDirect ive
Ġhal t
Ġ199 8
('../ ',
('../ ..'))<
Ġdecl are
ĠBen chmark
ĠBytes Parser
predict ions
(". ")[-
ĠUp per
ĠUp date
ĠEvoNorm s
ĠEvoNorm Sample
ConnectTimeoutError s
ĠVert ex
ĠVert icalOverflowMethod
STAT USES
Ġpywintypes XX
Ġscen ario
Ġappend Child
Deep Learning
ĠBaseNew Bytes
Ġinterpre t
127 31
Unpack Exception
Unpack ValueError
ĠConvNet s
Process Error
Process PoolExec
GetSystemDirectory W
GetWindowsDirectory W
ĠXY WHA
ĠInstallation Candidate
ĠCOM MAND
Ġcloud scraper
Cred its
ĠMarkup Error
ĠStruct ural
ĠVerbose List
Ġneighbor ing
Ġexhaust ion
"% {:
'} .<
AY S
Aug Mix
BIC UBIC
Bias Free
Direct Url
Emoji Variant
Emoji SubMethod
FD f
Low er
MI NUTES
Pip Session
Rotation InvariantPooling
Typ edDict
but ton
feed parser
hand s
hand shake
mess ages
oper ation
oper ations
pc build
plo tting
public Id
zhang hang
}] ({
inf owidget
Ġtt kwidgets
Ġaff ine
Ġren aming
Ġrestrict s
Ġrestrict ive
edit ed
assemb led
Ġinner HTML
Ġinner most
Ġbo ard
Ġbrow se
Ġdi ags
Ġdid n
ĠTarget Name
Ġmapped value
Ġ'../ ../
ĠPl Ã¶tz
ĠCSS Selector
ĠCPU Prefetcher
ĠCNN s
ĠCenterPoint Loss
abb ed
agram Server
ĠAT SSKldAssigner
ĠAuto Augment
ĠNAF Net
ĠGhost Module
ĠFeed Parser
ĠFeed Forward
contin uation
contin uous
Ġconvent ion
ĠMe hta
ĠMissing HeaderBody
ĠMemory Wheel
Ġdeg rees
ĠBad Command
ĠBad ZipFile
2000 000
Ġestabl ish
Ġestabl ishes
ĠDev ireddy
ĠUT ILITY
Ġ``/ ``,
Ġtermin ation
Ġnumer ic
Ġpyd ivert
Ġpredict ed
FAIL EDT
ĠassertIs Not
ĠSticker PackInvalid
Parallel Python
Common Python
coordin ates
prim ary
ĠConvex Assigner
ĠConvex GIoULoss
ĠContainer Cls
RotatedSingle RoIExtractor
RotatedRetinaHead Distribution
Predict ed
ĠSubject Alt
ĠSubject AlternativeName
Ġtrigger ed
Ġmembers hip
>================================================================ ========
Requirements Conflicted
ĠDeformable Block
ĠDeformable DetectionHead
ĠOriented StandardRoIHead
ĠOptim ization
ĠOptim izers
ĠGENER IC
ĠRMSprop TF
)} (.*)")<
=[" *"],<
CBase Loader
CBase Dumper
Could n
CUR RENT
Center Mask
Dom ainBasicAuth
DIC TTYPE
DAT ETIME
DAT ABASE
GV FixCoder
Go ogle
Ghost Net
Mo ve
Mo zilla
My String
Mem ber
Mem cached
NET WORK
Normalized Extra
Rel ations
VAR CHAR
VOC devkit
Visual Shape
WR dp
WR ONLY
fill color
gluon cv
hib it
hib li
hide turtle
jk stra
nas net
pet rov
yy y
Ġtro ve
Ġtro ubles
Ġcirc um
Ġcirc ular
Ġpersist ent
Ġrecurs ion
Ġrecurs ively
urs or
Ġsingular ity
Ġbel ong
ĠLay ers
ĠLay out
ĠLook ahead
ĠAsymmetric LossMultiLabel
ĠNames paceReader
ĠRP M
ĠRP aren
ĠRaw TokenFormatter
ĠDeltaXYWHA HBBoxCoder
ĠDeltaXYWHA OBBoxCoder
ĠPyP i
ĠPyP rotected
ĠFD CN
Ġhyp er
Ġhyp ot
Ġconflict s
Ġunix from
trim esh
ĠMan age
Ġdev pi
Ġdeprec ations
ĠBB code
ĠBR IGHT
ĠBR ACELESS
ĠBl ake
ĠBl anchard
ĠBuil tin
iversal Detector
Ġ+---------------- --+<
Ġ+---------------- ----+<
ĠHe ight
ĠHe imes
ĠDecor ate
ĠDecor ated
ĠUs ually
ĠEmbed ded
ĠEmbed ding
ĠEmpty Tag
ĠEmpty PoolError
INSTALL ER
ĠConda Env
Ġ|\\ <
BaseNew Bytes
subclass check
subclass hook
need le
ĠStickers TooMuch
Composer Error
Ġinterval s
ĠEnlarg ing
ĠEnlarg edSampler
ĠChar mers
ReadTimeoutError s
('.') [-
Extract ing
ĠFixAdd All
Ġ~~~~~~~~~~~~~~~~~~~~~~~~~~~~ <
Ġ~~~~~~~~~~~~~~~~~~~~~~~~~~~~ ~~~<
InvalidCodepoint Context
]+)\ ]',
accent uated
ĠHardMish JitAutoFn
'\[ ([
Ġauthentic ate
Ġauthentic ating
ĠMock Request
Ġdetermin ing
Ġdetermin ed
Ġuppercase d
analys is
analys ator
ĠGaoLibTreeItem Model
@@@ "<
Http Url
Special Form
Buffered IncrementalDecoder
Buffered IncrementalEncoder
bonnier Loss
stopword bahasa
"[ {
"... "
#]* ))?
(', '))<
.]* ([
022 701
110 75
112 3
732 3664
="" )<
Are Equal
BIG INT
Binary IO
CAT ENATE
FLA G
GC Net
HY DRA
LAT IN
LAB EL
Men lo
Old Dict
Per formance
Remo ve
Redu ce
Sp herical
Squeeze Excite
Tr uth
TempDirectory TypeRegistry
\]\ ((
ade mic
aint y
flo or
free ze
myp ackage
pang omark
pipe lines
sgd p
Ġer ikced
Ġtweak s
stig ation
Ġpys implegui
Ġredef ines
Ġrepe ated
Ġsurrog ate
Ġinher its
Ġbran ched
ĠTar State
ĠTanh LRScheduler
Ġmut ation
Ġmigr ations
Ġ'" \\\
ĠCI FAR
ĠClo thing
ceed ings
ĠLiang yu
ĠSeg mentation
Ġ"* "
Ġ223 1
intens ities
intern et
ĠAc cording
ĠAlex ander
ĠAggreg ation
Ġgr abbed
Ġgeom etry
ĠGIF s
ĠIM Loss
ĠIdent ifiers
ĠRot ary
ĠRenderable With
ĠRob ustness
ĠRetina Net
ĠDi vergence
Ġ"""`` --
ĠOper ators
irection al
ĠMon o
ĠMSI E
('" '):
(': ')<
Installed Distribution
Ġdeep im
ĠBuffer Full
ĠBroken Pipe
Ġrhat norm
ĠWrit ableNull
Ġ39 86
ĠUS ING
Ġsecure transport
ĠEmail Str
Ġintention ally
ĠGenerate Relations
ORD INAL
Ġarrow head
Ġcontinu ation
Ġship ped
Ġscan ning
ĠUnknown Exception
ĠArg uments
ĠResNe St
ĠStd outRefactoringTool
ĠStat istics
ĠStack Error
016 01
Ġextens ively
dating Defaults
Ġzone info
Ġdisco ver
Ġinterf aces
dimension al
PYPI RC
ashion MNIST
Strings AreEqual
Ġelimin ated
Unrecognized Format
ĠExponent ial
ĠYield s
HTTPS ConnectionPool
065 86
0617 1
TRAN SPORT
credential s
ĠEnd Tag
Ġtravers al
Ġsingleton s
Section ed
Ġexplo de
ĠRegression Loss
ĠChild Path
086 02
089 55
>'' ',
HOOK S
Markup Formatter
AMEL DEBUG
ACCE PT
typed file
Ġ"\\\\ ":
Ġessent ially
Ġdecide d
ĠShort cuts
ĠExtract s
ĠAlignConv Module
Ġrespons ible
Ġpropag ation
Supports Index
SIMPL IFI
ĠGVRatio RoIHead
ĠRequirements Conflicted
Ġboot loader
ĠPoly LRScheduler
Offset Coder
ĠTooMany Requests
Ġalphabet ized
"*. ",
#\ /@
827 82
:{: .
>------------ <
>---------- -<
?.* )\)',
Ag ent
Aut omatic
Await able
BF Matcher
But ton
Bid Je
Bry an
BOR DER
Cor outine
Che etah
Cau sed
CRL F
CAC ERT
Certific ate
Dest ination
DOT ALL
Drop Block
Eo Ehf
Eu rope
Former ly
FRO ZEN
FRAG MENT
Gr WRdp
Gas ussian
GAM MA
Geom etric
Hybrid Python
Igor Sus
KFI oUShared
KEL Y
Lambda Networks
Misc ellaneous
MIS MATCH
Next Call
Named Diagram
NSP s
NREF USED
Ow n
OBB Detection
Occ upied
Pr imary
Pat entedPython
PANG O
QMain Window
RU AMELDEBUG
Sl ider
Sing al
Sem antic
Slow ing
Space Characters
Sour ced
SVE M
Turn s
Top ic
Urb an
Vis former
Word Unicode
[{} ]".
]_ .<
bg color
bal anced
ban ana
cata vgmax
cacer ts
dns name
eEr Cq
fib ergroup
finger print
gas vn
gpl inks
jin xed
kam usalay
kata kana
mad grad
mel j
magent a
magic super
mstad t
nss s
nSN uFN
navig ator
oModel Cfg
oBlock Cfg
rms prop
sib ling
snip pet
tre ewalkers
tro ve
ustr alia
vile ges
vir ama
vcv arsall
visit or
wro te
wal ac
}]* )}(.*)")<
ãĢ Ģ
ĠEN ABLE
Ġemb arrass
ĠâĢ Ķ
--\\ --
erstr an
remo ved
refer er
recurs ionerror
Ġtell s
Ġtak sinomimen
Ġtrack s
Ġtech nically
imag enet
encl ature
stere o
stik hin
rovers ial
deter ministic
decompress obj
Ġfet ched
Ġfoo file
Ġfrag ile
Ġcif ar
Ġciv ilians
Ġcriter ia
Ġcsu han
Ġpok ing
Ġplist lib
Ġpract ice
Ġpie ce
Ġrework ed
Ġrend ers
Ġreprodu c
Ġsve m
Ġsug ar
Ġslur m
Ġinve stigation
Ġincre asing
Ġbid irectional
Ġbook title
Ġbread th
Ġbrot licffi
Ġnom enclature
Ġnanose conds
ĠTou vron
ĠTob ias
ĠTRUE COLOR
Ġmig ration
Ġmyp kg
Ġmarg in
Ġmention ed
Ġmilit ary
adafa ctor
Ġ'{} ',
ĠPage Validator
ĠPoss ibly
omog eneous
pychar mprojects
ĠCatch ing
ĠCORS Middleware
ĠCalled ProcessError
ĠCrypt Context
ĠCBA M
ĠCars UrdfDataset
ĠCsv Lexer
ĠClosed PoolError
abus ive
otFile Parser
ĠLoc ators
ĠLEX ERS
ĠLaT eX
ĠSPEC IFIC
ĠSSLS ocket
ĠScho field
ĠSlick Slider
ĠAbo ut
allenn lp
idpoint OffsetCoder
Ġthrow ing
Ġgsp aces
Ġgras stex
Ġgram mar
ensemb le
ĠNext Record
ĠNik i
ĠIron Python
ĠIrv ine
ĠRand Augment
ĠRET RY
ĠRemote NotFoundError
ĠRMSP rop
ĠDEL ETE
ĠDeter mine
ĠDiagnostic PipError
ĠDigant a
ĠPyEn chant
ĠPySimple GUI
ĠPyTg Calls
ĠFocal Loss
ĠFusion Module
ĠFancy Getopt
Ġhour s
Ġhierarch y
complet ed
Ġuncont roversial
Ġunsu itable
Ġunconst rained
Ġunlik ely
Ġunalloc ated
Ġ1234 5678
getfilesystem encoding
ĠONN X
ĠOutOf Data
ĠMET ADATA
ĠMEM ORY
ĠMnas Net
ĠMlvl PointGenerator
ĠMODI FY
ĠMemcached Backend
Indic ation
Ġdemod ata
Ġdedic ated
ĠBias Free
ĠBatched Meshes
quoprim ime
Ġimpend ing
topretty xml
SECURE TRANSPORT
PLUG IN
okky ibrohim
ĠgetDict Results
ĠWout ers
ĠWarehou se
isent angled
Ġ+------------ +<
essDetector Plugin
("{([^ }]*)}(.*)")<
ĠHug o
ĠHost Changed
ĠHeter geneous
ntlm pool
Ġallp apers
ĠDefl ateDecoder
Ġcommat ize
Ġcomplet ely
Ġxlw ings
ĠUtil ities
indableBody Error
ĠEAS Y
ĠECON NREFUSED
ĠEstabl ish
ethink ing
Ġproced ure
ĠVendor Importer
ĠVide os
ĠValid ationError
ĠVaswan i
ĠVotingClass ifier
ansitow in
INIT IAL
INVER SE
INDIC ATION
Reparse Exception
REAL M
RETR Y
REGI STRY
DEFIN ED
Ġenlarg ing
ĠConcat Dataset
ĠInplace Abn
ĠIncre ase
Ġabsen ce
Ġabbre viated
backslash replace
Ġpreced ence
ANIM ATION
githubuser content
TypeGu ard
ĠUncert ainty
ĠUnrew indableBodyError
ĠSecurity Warning
Ġnoins pection
Ġ|------ ->|
BasePos itionAnd
Stanf ordCars
ALCHE MY
davis king
Ġsubstant ially
Imaging Python
Ġlefto ver
Ġcoef s
PyPro jectBuild
forwar ded
interbas db
Deja Vu
ĠKORE AN
ADDR Z
EXPI RE
].*)?$ ')<
Ġdiscar ded
Ġparticip ating
ĠJAP ANESE
newfolder dialog
Ġserious ly
Unauthor ized
shadow ed
shiftin var
Ġvariet y
ĠYCb Cr
ĠDistutilsAr gError
ĠDistutilsSetup Error
Ġoverwrit es
ellips is
TRADITION AL
ĠBSDDB CookieJar
ĠEncap sulates
Proble m
dingdong helper
COUN T
ĠFileSystem Loader
whitel ist
0278 1
Determ ine
NOFOL LOW
Separable Conv
Separator Defect
UNFIN ISHED
0869 2
ĠtkMessage Box
ĠtkColor Chooser
ĠtkCommon Dialog
ĠAlready Occupied
ĠScrolled Text
Integration PointElements
QAbstract ItemModel
ĠKeyboard Interrupt
COMPIL ED
Ġsimultaneous ly
250103 69
Backflip Cheetah
authentic ated
Preserve Elements
Ġffimod s
RetinaRefine Head
ĠGetLast Error
VIRTU AL
sitecustom ize
usedAnchor Warning
ĠMANUALL Y
ĠRequestsDepend encyWarning
ĠCheckboxTree view
LOCALRANK ID
FinalTyp ingBase
QuaternionCo effOrder
Ġ`-`. `-'
NSsw Ts
SecureTran port
RAvlt EoEhf
mixta pe
ĠSelectAdaptive Pool
LayerScale Block
ĠLogistic Regression
requestedPri vileges
HASHFUN C
ĠAdaHess ian
ĠUnixDat agramServer
CRITER IA
XMLHttp Request
ĠFaceRest orationHelper
yesnod ialog
DeepLearning Examples
ProcessPoolExec utor
ĠMissingHeaderBody SeparatorDefect
FAILEDT ELL
ĠSubjectAlt NameWarning
Ġtroubles ome
ĠPyProtected Member
pangomark up
Ġerikced erstran
ĠBrokenPipe Error
datingDefaults HelpFormatter
SIMPLIFI ED
#\/@ ].
BidJe G
GrWRdp Ei
IgorSus melj
nSNuFN FDf
Ġembarrass ingly
Ġtaksinomimen os
ĠHostChanged Error
BasePositionAnd Orientation
PyProjectBuild Requires
RAvltEoEhf T
