{"<s>":0,"<pad>":1,"</s>":2,"<unk>":3,"<mask>":4,"!":5,"\"":6,"#":7,"$":8,"%":9,"&":10,"'":11,"(":12,")":13,"*":14,"+":15,",":16,"-":17,".":18,"/":19,"0":20,"1":21,"2":22,"3":23,"4":24,"5":25,"6":26,"7":27,"8":28,"9":29,":":30,";":31,"<":32,"=":33,">":34,"?":35,"@":36,"A":37,"B":38,"C":39,"D":40,"E":41,"F":42,"G":43,"H":44,"I":45,"J":46,"K":47,"L":48,"M":49,"N":50,"O":51,"P":52,"Q":53,"R":54,"S":55,"T":56,"U":57,"V":58,"W":59,"X":60,"Y":61,"Z":62,"[":63,"\\":64,"]":65,"^":66,"_":67,"`":68,"a":69,"b":70,"c":71,"d":72,"e":73,"f":74,"g":75,"h":76,"i":77,"j":78,"k":79,"l":80,"m":81,"n":82,"o":83,"p":84,"q":85,"r":86,"s":87,"t":88,"u":89,"v":90,"w":91,"x":92,"y":93,"z":94,"{":95,"|":96,"}":97,"~":98,"¡":99,"¢":100,"£":101,"¤":102,"¥":103,"¦":104,"§":105,"¨":106,"©":107,"ª":108,"«":109,"¬":110,"®":111,"¯":112,"°":113,"±":114,"²":115,"³":116,"´":117,"µ":118,"¶":119,"·":120,"¸":121,"¹":122,"º":123,"»":124,"¼":125,"½":126,"¾":127,"¿":128,"À":129,"Á":130,"Â":131,"Ã":132,"Ä":133,"Å":134,"Æ":135,"Ç":136,"È":137,"É":138,"Ê":139,"Ë":140,"Ì":141,"Í":142,"Î":143,"Ï":144,"Ð":145,"Ñ":146,"Ò":147,"Ó":148,"Ô":149,"Õ":150,"Ö":151,"×":152,"Ø":153,"Ù":154,"Ú":155,"Û":156,"Ü":157,"Ý":158,"Þ":159,"ß":160,"à":161,"á":162,"â":163,"ã":164,"ä":165,"å":166,"æ":167,"ç":168,"è":169,"é":170,"ê":171,"ë":172,"ì":173,"í":174,"î":175,"ï":176,"ð":177,"ñ":178,"ò":179,"ó":180,"ô":181,"õ":182,"ö":183,"÷":184,"ø":185,"ù":186,"ú":187,"û":188,"ü":189,"ý":190,"þ":191,"ÿ":192,"Ā":193,"ā":194,"Ă":195,"ă":196,"Ą":197,"ą":198,"Ć":199,"ć":200,"Ĉ":201,"ĉ":202,"Ċ":203,"ċ":204,"Č":205,"č":206,"Ď":207,"ď":208,"Đ":209,"đ":210,"Ē":211,"ē":212,"Ĕ":213,"ĕ":214,"Ė":215,"ė":216,"Ę":217,"ę":218,"Ě":219,"ě":220,"Ĝ":221,"ĝ":222,"Ğ":223,"ğ":224,"Ġ":225,"ġ":226,"Ģ":227,"ģ":228,"Ĥ":229,"ĥ":230,"Ħ":231,"ħ":232,"Ĩ":233,"ĩ":234,"Ī":235,"ī":236,"Ĭ":237,"ĭ":238,"Į":239,"į":240,"İ":241,"ı":242,"Ĳ":243,"ĳ":244,"Ĵ":245,"ĵ":246,"Ķ":247,"ķ":248,"ĸ":249,"Ĺ":250,"ĺ":251,"Ļ":252,"ļ":253,"Ľ":254,"ľ":255,"Ŀ":256,"ŀ":257,"Ł":258,"ł":259,"Ń":260,"ĠĠ":261,"--":262,"ĠĠĠĠ":263,"----":264,"ĠĠĠ":265,"or":266,"er":267,"in":268,"><":269,"se":270,"on":271,"--------":272,"re":273,"Ġt":274,"at":275,"im":276,"ĠĠĠĠĠĠĠ":277,"en":278,"st":279,"ort":280,"port":281,"import":282,"ro":283,"le":284,"Ġa":285,"\"\"":286,"de":287,"Ġ=":288,"al":289,"he":290,":<":291,"Ġf":292,")<":293,"ar":294,"ion":295,"rom":296,"ut":297,"it":298,"----------------":299,"Ġc":300,"Ġimport":301,"čĊ":302,">#":303,"is":304,"ic":305,"from":306,"Ġp":307,"Ġre":308,"__":309,".<":310,"ing":311,"an":312,"lf":313,"self":314,"ur":315,"Ġs":316,"Ġo":317,"ed":318,"am":319,"es":320,"et":321,"il":322,"as":323,"ct":324,"\"\"\"":325,"Ġthe":326,"Ġin":327,"Ġb":328,"Ġn":329,"Ġd":330,"lo":331,"ent":332,"):<":333,"Ġw":334,"ĠT":335,"Ġm":336,"def":337,"ac":338,"ri":339,",<":340,"Ġ(":341,"un":342,"ist":343,"ol":344,"ĠĠĠĠĠĠĠĠ":345,"ad":346,"Ġ'":347,"if":348,"ĠP":349,"ex":350,"ch":351,"pt":352,"\"\"\"<":353,"ht":354,"Ġself":355,"--------------------------------":356,"Ġis":357,"Ġl":358,"ers":359,"urn":360,"om":361,"ode":362,"py":363,"pe":364,"ĠC":365,"ile":366,"od":367,"ĠĠĠĠĠĠĠĠĠĠĠ":368,"el":369,"ab":370,"ue":371,"ass":372,"Ġto":373,"Ġret":374,"Ġdef":375,"ra":376,"ot":377,"ul":378,"Ġreturn":379,"ce":380,"ame":381,"ig":382,"ag":383,"ĠL":384,"ment":385,"Ġan":386,"Ġfor":387,"ĠS":388,"cl":389,"Ġ\"":390,"ath":391,"Ġ2":392,"Ġof":393,"int":394,"str":395,"up":396,"ĠA":397,"all":398,"ith":399,"Ġ#":400,"id":401,"th":402,"Ġth":403,"Ġg":404,"ense":405,"ror":406,"Ġ-":407,"ib":408,"Ġ.":409,"ase":410,"Ġas":411,"ack":412,"icense":413,"one":414,"ĠN":415,"ation":416,"ĠG":417,"ĠI":418,"Ġif":419,"um":420,"util":421,"orch":422,"Ġ__":423,"ĠR":424,"iz":425,"orm":426,"ure":427,"able":428,"Ġand":429,"class":430,"der":431,"ĠD":432,"ve":433,"ext":434,"ir":435,"ub":436,"~~":437,"rib":438,"ption":439,"and":440,"Ġv":441,"ĠPy":442,"ĠF":443,"]<":444,"Ġ\"\"\"<":445,"ype":446,"em":447,"ata":448,">#<":449,"ribut":450,"Er":451,"ate":452,"Ġwith":453,"Ġ_":454,"age":455,"ersion":456,"ip":457,"Error":458,"',":459,"ght":460,"opy":461,"name":462,"ction":463,"pl":464,"._":465,"__(":466,"right":467,"path":468,"ser":469,"Ġh":470,"Ġdist":471,"ool":472,"ter":473,"Ġtorch":474,"Ġfrom":475,"ss":476,"Ġfile":477,"EN":478,"con":479,"Ġor":480,"end":481,"Ġ*":482,"utils":483,"Ġ\"\"\"":484,"ult":485,"ize":486,"ict":487,"com":488,"gs":489,"Ġcon":490,"Ġstr":491,"ule":492,"``":493,"Ġun":494,"Ġ[":495,"Ġu":496,"odule":497,"ke":498,"Ġlo":499,"ap":500,"Ġ1":501,"par":502,"opyright":503,"ect":504,"set":505,"()<":506,"ix":507,"tr":508,"po":509,"ĠNone":510,"Ġ->":511,"ys":512,"get":513,"Ġbe":514,"ĠO":515,"ens":516,"yp":517,"==":518,"stall":519,"Ġnot":520,"ire":521,"lib":522,"init":523,"ĠM":524,"('":525,"----------------------------------------------------------------":526,"thon":527,"In":528,"ail":529,"Ġst":530,"file":531,"Ġde":532,"ver":533,"so":534,"Ġ20":535,"ĠCopyright":536,"Ġthis":537,"ĠB":538,"Ġdistribut":539,"Ġit":540,"qu":541,"()":542,"Ġos":543,"uture":544,"ck":545,"form":546,"uil":547,"Ġim":548,"ps":549,"are":550,"##":551,"Ġex":552,"his":553,"version":554,"url":555,"Ġso":556,"ĠThe":557,"Ġ----------------------------------------------------------------":558,"gg":559,"Ġdistributed":560,"ifi":561,"htt":562,"Ġ0":563,"to":564,"ĠĠĠĠĠĠĠĠĠĠĠĠĠĠĠĠ":565,"ater":566,"alue":567,"ener":568,"SE":569,"Ġr":570,"20":571,"ader":572,"bj":573,"odel":574,"//":575,"PL":576,"ple":577,"ache":578,"pre":579,"--<":580,"rue":581,"Ġe":582,"Ġ------------------------------------------------------------------<":583,"put":584,"args":585,">>":586,"ry":587,"')<":588,"://":589,"ok":590,"ore":591,"rap":592,"iv":593,"ft":594,"Ġby":595,"est":596,"Ġget":597,"que":598,"Ġon":599,"ĠThis":600,"ĠW":601,"ĠLicense":602,"data":603,"ay":604,"ise":605,"dir":606,"Ġ+":607,"ess":608,"ensor":609,"(\"":610,"ow":611,"Ġpip":612,"~~~~":613,"Ġ:":614,"ang":615,"IC":616,"))<":617,">\"\"\"<":618,"ĠH":619,"nt":620,"\",":621,"xt":622,"Ġ3":623,"ight":624,"https":625,"Ġal":626,"ĠDe":627,"ifier":628,"bo":629,"ace":630,"Ġy":631,"size":632,"ime":633,"Ġcol":634,"Ġpar":635,"ull":636,"alse":637,"Ġcom":638,"ctor":639,"ms":640,"',<":641,"'<":642,"ern":643,"per":644,"pen":645,"ain":646,"Ġx":647,").":648,"ĠU":649,"und":650,"Ġse":651,"Ġthat":652,"code":653,"ind":654,"ine":655,"ER":656,"Install":657,"Ġcl":658,"bject":659,"ĠE":660,"Ġtyp":661,"eth":662,"ĠĠĠĠĠĠĠĠĠĠĠĠĠĠĠ":663,"Ġuse":664,"ware":665,"ary":666,"uple":667,"urce":668,"':":669,"(<":670,"Ġsys":671,"Installer":672,"Ġ{":673,"ĠPyInstaller":674,"Ġpro":675,"Ġwh":676,"ftware":677,"future":678,"pro":679,"txt":680,"Con":681,"unction":682,"ments":683,"ptional":684,"Ġunder":685,"\")<":686,"ated":687,").<":688,"dent":689,"Ġint":690,"ew":691,"ĠPython":692,"00":693,"ly":694,"ENSE":695,"ICENSE":696,".\"\"\"<":697,"text":698,"ĠLICENSE":699,"sc":700,"lic":701,"ard":702,"ethod":703,"model":704,"val":705,"head":706,"pec":707,"quest":708,"Ġpath":709,"low":710,"fo":711,"fig":712,"rint":713,"..":714,"uild":715,"AT":716,"Ġ``":717,"ĠV":718,"Ġav":719,"Ġter":720,"\",<":721,"ign":722,"ault":723,"ning":724,"ools":725,"Ġsup":726,"Ġnum":727,"ĠGener":728,"Ġname":729,"NU":730,"else":731,"Ġlicense":732,"ans":733,"Ġsoftware":734,"Ġtyping":735,"License":736,"cept":737,"IN":738,"ator":739,"Ġterms":740,"eam":741,"ial":742,"type":743,"ree":744,"Ġtype":745,"ailable":746,"oc":747,"Re":748,"\"<":749,"us":750,"ublic":751,"ma":752,"out":753,"RE":754,"====":755,"PD":756,"ha":757,"art":758,"pat":759,"pack":760,"app":761,"Ġfull":762,"raise":763,"ĠSPD":764,"ĠSPDX":765,"nn":766,"io":767,"='":768,"Ġmodule":769,"ive":770,"Ġch":771,"Ġcolle":772,"ff":773,"Ġ/":774,"Ġres":775,"ĠGNU":776,"Ident":777,"Ġare":778,"ĠGeneral":779,"ĠPublic":780,"velo":781,"Ġ<":782,"Ġavailable":783,"velop":784,"error":785,"stan":786,"Identifier":787,"),":788,"kw":789,"velopment":790,"eg":791,".__":792,"ĠOptional":793,"os":794,"DE":795,"Ġset":796,"olut":797,"box":798,"OR":799,"ook":800,"ll":801,"ĠTeam":802,"ĠDevelopment":803,"Ġen":804,"Ġ==":805,"num":806,"res":807,"quire":808,"ON":809,"module":810,"Ġlist":811,"ptions":812,"MA":813,"heck":814,"iter":815,"ĠCon":816,"Ġhttps":817,"Ġraise":818,"ĠIn":819,"ther":820,"Ġlater":821,"ME":822,"mand":823,"base":824,"ĠAn":825,"####":826,"ange":827,"key":828,"ĠIm":829,"Ġab":830,"ts":831,"ved":832,"Ġar":833,"Ġ**":834,"):":835,"raph":836,"True":837,"kwargs":838,"None":839,"Ġobject":840,"parse":841,"UL":842,"Ġvalue":843,"iel":844,"endor":845,"Ġlogg":846,"fg":847,"Ġcont":848,"dist":849,"ST":850,"fix":851,"mo":852,"Ġurl":853,"later":854,"ord":855,"ield":856,"ĠGPL":857,"Ġ2020":858,"GPL":859,"arning":860,"load":861,"her":862,"ust":863,"Ġ`":864,"Ġdata":865,"32":866,"Lo":867,"back":868,"att":869,"Ġwe":870,"Ġma":871,"yle":872,"ĠList":873,"SS":874,"dict":875,"sing":876,"ide":877,"atase":878,"vendor":879,"ill":880,"ound":881,"Ġelse":882,"ĠFalse":883,"ctory":884,"oint":885,"Ġpy":886,"ames":887,"['":888,"ĠTrue":889,"info":890,"Ġcan":891,"ies":892,"ug":893,"Ġpre":894,"oding":895,"rain":896,"ages":897,"Ġhas":898,"),<":899,"ML":900,"Ġad":901,"els":902,"Ġfuture":903,"Ġfunction":904,"ich":905,"Ġsh":906,"atch":907,"ernal":908,"Ġro":909,"stance":910,"act":911,"Ġ>>":912,"icode":913,"21":914,"Ġnp":915,"Ġlib":916,"Ġbool":917,"eat":918,"():<":919,"AN":920,"Ġsc":921,"add":922,"ithub":923,"Ġ>>>":924,"org":925,"github":926,"cfg":927,"ĠTensor":928,"cache":929,"Ġdict":930,"internal":931,"Ġabs":932,"FA":933,"ient":934,"ert":935,"item":936,"point":937,"Ġlogging":938,"Ġstring":939,"Type":940,"pon":941,"}<":942,"ink":943,"eturn":944,"param":945,"Res":946,"me":947,"Ġcode":948,"ULT":949,"OT":950,"list":951,"ml":952,"ity":953,"ast":954,"pose":955,"source":956,"Ġclass":957,"tes":958,"ypes":959,"gger":960,"ĠUn":961,"],":962,"met":963,"ision":964,"Ġnn":965,"cess":966,"ep":967,"Ġother":968,"AR":969,"Ġ@":970,"dex":971,"ansform":972,"man":973,"env":974,"uth":975,"ite":976,"Ġyo":977,"torch":978,"ues":979,"asic":980,"essage":981,"FAULT":982,"Ġpack":983,"mentation":984,"Ġout":985,"sole":986,"olute":987,"ception":988,"']<":989,"ĠSe":990,"ave":991,"ark":992,"Ġno":993,"ET":994,"OC":995,"xy":996,"reg":997,"Ġdistutils":998,"Ex":999,"jo":1000,"ĠRe":1001,"irectory":1002,"~~~~~~~~":1003,"ctions":1004,"config":1005,"read":1006,"Ġwill":1007,"hape":1008,"ĠAny":1009,"col":1010,"Ġhe":1011,"']":1012,"IT":1013,"Ġk":1014,"attr":1015,"lob":1016,"Ġversion":1017,">@":1018,"te":1019,"Ġ)<":1020,"Ġpass":1021,"loat":1022,"TP":1023,"atter":1024,"sert":1025,"Ġabsolute":1026,"tin":1027,"Ġ|":1028,"Base":1029,"Ġprint":1030,"try":1031,"Ġlen":1032,"Ġdefault":1033,"St":1034,"ĠTuple":1035,">__":1036,"ses":1037,"ence":1038,"AL":1039,"TTP":1040,"da":1041,"DEFAULT":1042,"22":1043,"Ġback":1044,"Ġval":1045,"buil":1046,"Ġ%":1047,"Ġ..":1048,"reate":1049,"place":1050,"files":1051,"lass":1052,"join":1053,">_":1054,"ual":1055,"ally":1056,"len":1057,"value":1058,"Ġbase":1059,"Ġsuper":1060,"inal":1061,"Ġtime":1062,"Ġimg":1063,"ream":1064,"Ġtry":1065,"instance":1066,"portError":1067,"ĠAll":1068,"ates":1069,"valid":1070,"False":1071,"ber":1072,"gr":1073,"win":1074,"Ġbuild":1075,"HE":1076,"ere":1077,"cont":1078,"ataset":1079,"'s":1080,"method":1081,"Ġused":1082,"PE":1083,"Ġmethod":1084,"Ġsub":1085,"ormal":1086,"Ġexcept":1087,"ED":1088,"Ġ['":1089,"ĠImportError":1090,"fer":1091,"oul":1092,"ork":1093,"ĠAr":1094,"Ġ>":1095,"Ġmm":1096,"iron":1097,"Ġdat":1098,"abs":1099,"ould":1100,"SI":1101,"ations":1102,"with":1103,"Ġspec":1104,"append":1105,"rary":1106,"Ġnew":1107,"plit":1108,"Ġunicode":1109,"Im":1110,"ions":1111,"========":1112,"errors":1113,"-<":1114,"ces":1115,"Ġtext":1116,"rop":1117,"ample":1118,"ript":1119,"adata":1120,"ann":1121,"Ġadd":1122,"sed":1123,"ian":1124,"print":1125,"son":1126,"Ġfun":1127,"utf":1128,"own":1129,"Ġcollections":1130,"lock":1131,"chor":1132,"SSL":1133,".,":1134,"coding":1135,"Ġnode":1136,"irst":1137,"Ġcollect":1138,"ale":1139,"og":1140,"Ġright":1141,"ilen":1142,"Ġany":1143,"stru":1144,"ĠIter":1145,"Ġle":1146,"Ġkey":1147,"Ġco":1148,"ge":1149,"Ġcheck":1150,"ures":1151,"Py":1152,"by":1153,"ĠĠĠĠĠ":1154,"roup":1155,"ĠRes":1156,"headers":1157,"GEN":1158,"Net":1159,"ty":1160,"Ġrequest":1161,"Module":1162,"pace":1163,"arget":1164,"ĠPY":1165,"ĠAp":1166,"tring":1167,"ike":1168,"sub":1169,"test":1170,"DI":1171,"opt":1172,"we":1173,"Ġopen":1174,"Ġne":1175,"Ġdo":1176,"Ġ(<":1177,"Ġwhen":1178,"OL":1179,"])<":1180,"gments":1181,"lp":1182,"Ġj":1183,"Ġ[]<":1184,"Ġ201":1185,"for":1186,"ne":1187,"Ġinput":1188,"inter":1189,"ken":1190,"ING":1191,"iteral":1192,"Ġcontain":1193,"uthor":1194,"')":1195,"Dict":1196,"function":1197,"lay":1198,"lement":1199,"except":1200,"abel":1201,"Ġform":1202,"Ġassert":1203,"served":1204,"Ġimple":1205,"Ġall":1206,"cal":1207,"che":1208,"ns":1209,"Ġap":1210,"Ġyou":1211,"\":":1212,"ransform":1213,"stem":1214,"led":1215,"Ġisinstance":1216,"Ġ*<":1217,"emp":1218,"ĠArgs":1219,"ctools":1220,"loss":1221,"string":1222,"ĠReturn":1223,"format":1224,"ernel":1225,"ponse":1226,"'t":1227,"CK":1228,"object":1229,"ĠSt":1230,"email":1231,"Ġsupport":1232,"ds":1233,"Ġcache":1234,"ĠCom":1235,"ĠDict":1236,"########":1237,"core":1238,"spec":1239,"shape":1240,"Ġrequire":1241,"indow":1242,"Ġnumpy":1243,"Ġresult":1244,"Par":1245,"Ġmodel":1246,"clu":1247,"compat":1248,"keys":1249,"ĠOpen":1250,"models":1251,"Ġpackage":1252,"De":1253,"ead":1254,"train":1255,"ĠK":1256,"Ġtest":1257,"ish":1258,"Ġreserved":1259,"Ġgener":1260,"Ġarg":1261,":`":1262,"tensor":1263,"ward":1264,"Ġpoint":1265,"Ġwhich":1266,"Ġid":1267,"MAGEN":1268,">)<":1269,"du":1270,"ask":1271,"python":1272,"andom":1273,"Ġfiles":1274,"av":1275,"ject":1276,"rite":1277,"types":1278,"sent":1279,"atform":1280,"img":1281,"Ġread":1282,"ach":1283,"Ġ-*":1284,"conv":1285,"ultip":1286,"ails":1287,"ilename":1288,"MAGENET":1289,"install":1290,"asses":1291,"ENT":1292,"vert":1293,"Ġrun":1294,"01":1295,"Com":1296,"aract":1297,"dered":1298,"Ġdet":1299,"line":1300,"Ġ\\":1301,"allable":1302,"=\"":1303,"The":1304,"This":1305,"build":1306,"ded":1307,"ice":1308,"ĠBase":1309,"UT":1310,"af":1311,"ox":1312,"Ġext":1313,"ribute":1314,"ĠIMAGENET":1315,"http":1316,"Ġurllib":1317,"arnings":1318,"[:":1319,"ias":1320,"oss":1321,"range":1322,"tt":1323,"Ġonly":1324,"10":1325,"ystem":1326,"ory":1327,"ilter":1328,"apping":1329,"ĠUnion":1330,"ĠApache":1331,"rot":1332,"Ġcopy":1333,"Ġresource":1334,"Ġhave":1335,"Ġfunctools":1336,"AD":1337,"co":1338,"Ġqu":1339,"Ġnames":1340,"Ġdirectory":1341,"html":1342,"ible":1343,"Ġsee":1344,"df":1345,"dat":1346,"Ġ4":1347,"Ġz":1348,"Ġatt":1349,"heel":1350,"Ġline":1351,"upport":1352,"ATED":1353,"OD":1354,"]:<":1355,"ices":1356,"ray":1357,"IO":1358,"ister":1359,"ody":1360,"ĠIf":1361,"ĠDist":1362,"ribution":1363,"comp":1364,"En":1365,"ec":1366,"sr":1367,"ition":1368,"Ġcreate":1369,"Ġiter":1370,"max":1371,"ooks":1372,"run":1373,"upt":1374,"uff":1375,"ong":1376,"det":1377,"arg":1378,"Ġreg":1379,"aml":1380,"ome":1381,"Ġconfig":1382,"OTATED":1383,"IL":1384,"check":1385,"cls":1386,"([":1387,"CT":1388,"bin":1389,"cv":1390,"urre":1391,"logger":1392,"ĠType":1393,"ĠĠĠĠĠĠĠĠĠĠĠĠĠĠĠĠĠĠĠĠĠĠĠĠ":1394,"bbox":1395,"vi":1396,"vide":1397,"Ġac":1398,"Ġorig":1399,"uptools":1400,"options":1401,"split":1402,"xiv":1403,"arxiv":1404,"pect":1405,"andl":1406,"An":1407,"gth":1408,"input":1409,"request":1410,"arch":1411,"Ġdiv":1412,"Ġitem":1413,"prec":1414,"rapper":1415,"ĠHTTP":1416,"YPE":1417,"au":1418,"Ġbut":1419,"Ġmessage":1420,"ific":1421,"ract":1422,"items":1423,"ĠReturns":1424,"EX":1425,"time":1426,"Ġfol":1427,"Ġmet":1428,"Ġparse":1429,"environ":1430,"64":1431,"Ġat":1432,"ines":1433,"Ġdoc":1434,"Ġwarnings":1435,"idth":1436,"command":1437,"script":1438,"Ġshould":1439,"pr":1440,"Ġup":1441,"index":1442,"ative":1443,"Ġpl":1444,"urllib":1445,"Ġrange":1446,"Ġdetails":1447,"urrent":1448,"urces":1449,"Ġsource":1450,"alueError":1451,"Ġparam":1452,"Ġrights":1453,"AS":1454,"nder":1455,"ility":1456,"idd":1457,"Ġlog":1458,"Ġloss":1459,"UR":1460,"].":1461,"net":1462,"Ġend":1463,"start":1464,"Ġdis":1465,"Ġuser":1466,"parser":1467,"cket":1468,"Ġmax":1469,"ld":1470,"encode":1471,"Ġinter":1472,"Ġmin":1473,"andid":1474,"ights":1475,"perty":1476,"Path":1477,"dim":1478,"feat":1479,"ia":1480,"vel":1481,"abc":1482,"ager":1483,"izer":1484,"arent":1485,"ified":1486,"present":1487,"ĠSee":1488,"Exception":1489,"DIR":1490,"PY":1491,"link":1492,"min":1493,"not":1494,"oid":1495,"round":1496,"Ġglob":1497,"Ġ...":1498,"Ġ[<":1499,"Conv":1500,"clude":1501,"50":1502,"ax":1503,"pend":1504,"ument":1505,"work":1506,"__)<":1507,"Ġinstall":1508,"ify":1509,"aw":1510,"mon":1511,"Ġfirst":1512,"ags":1513,"builtin":1514,"iterals":1515,"idden":1516,"\")":1517,"graph":1518,"open":1519,"ource":1520,"ĠĠĠĠĠĠ":1521,"default":1522,"Ġimage":1523,"press":1524,"ocal":1525,"PI":1526,"fun":1527,"mark":1528,"âĶ":1529,"Ġopt":1530,").__":1531,"ORS":1532,"(__":1533,"LS":1534,"no":1535,"user":1536,"--------<":1537,"Ġsize":1538,"ash":1539,"ride":1540,"igh":1541,"iven":1542,"color":1543,"MML":1544,"SR":1545,"date":1546,"hooks":1547,"the":1548,"style":1549,"Ġbasic":1550,"ĠCallable":1551,"Logger":1552,"Ġoutput":1553,"ĠOpenMML":1554,"ĠOpenMMLab":1555,"[\"":1556,"float":1557,"image":1558,"stat":1559,"ild":1560,"Ġwas":1561,"aclass":1562,"rid":1563,"andard":1564,"ightman":1565,"process":1566,"property":1567,"ignore":1568,"annels":1569,"12":1570,"root":1571,"Ġfind":1572,"otated":1573,"oken":1574,"Ġcls":1575,"md":1576,"Ġi":1577,"rol":1578,"arn":1579,"Ġcoding":1580,"Ġcolor":1581,"olution":1582,"modules":1583,"nection":1584,"ose":1585,"ost":1586,"vice":1587,"aging":1588,"ssl":1589,"Ġcontext":1590,"irect":1591,"Ġ2021":1592,"Ġ------------------------------------------------------------------------<":1593,"Ġpart":1594,"SION":1595,"CE":1596,"ical":1597,"ceptions":1598,"Ġload":1599,"Ġstyle":1600,"Ġyield":1601,"Ġcommand":1602,"Ġmake":1603,"Ġvalues":1604,"bytes":1605,"\"]<":1606,"map":1607,"Ġutf":1608,"ports":1609,"Ġdim":1610,"ĠPar":1611,"ĠPath":1612,"ĠRoss":1613,"Ġusing":1614,"pos":1615,"Ġstart":1616,"Ġroot":1617,"gram":1618,"Python":1619,"Ġimplementation":1620,"aracter":1621,"node":1622,"tuple":1623,"ĠJ":1624,"Ġpos":1625,"amed":1626,"Ġev":1627,"ĠWightman":1628,"packages":1629,"File":1630,"String":1631,"ey":1632,"literals":1633,"new":1634,"std":1635,"utable":1636,"Ġexist":1637,"package":1638,"quirement":1639,"LE":1640,"cs":1641,"Ġel":1642,"Ġind":1643,"Ġwin":1644,"raw":1645,"ĠSet":1646,"ized":1647,"Ġcompat":1648,"Ġnumber":1649,"ĠImage":1650,"ĠIterable":1651,"(*":1652,"Version":1653,"imum":1654,"Ġfeat":1655,"Ġfloat":1656,"ibility":1657,"ases":1658,"asicSR":1659,"Ġheader":1660,"struct":1661,"Ġformat":1662,"afe":1663,"cor":1664,"jit":1665,"pol":1666,"Ġone":1667,"Ġerror":1668,"Ġtoget":1669,"client":1670,"sources":1671,"points":1672,"Ġtogether":1673,"CHE":1674,"Return":1675,"Warning":1676,"dot":1677,"sl":1678,"sys":1679,"vision":1680,"order":1681,"imple":1682,"ĠText":1683,"plic":1684,"context":1685,"eger":1686,"Ġargs":1687,"atasets":1688,"andler":1689,"PR":1690,"ik":1691,"Ġtim":1692,"ene":1693,"ick":1694,"Ġser":1695,"umn":1696,"functional":1697,"'):<":1698,"kg":1699,"word":1700,"alled":1701,"other":1702,"())<":1703,"Ġ+=":1704,"Ġencoding":1705,"result":1706,"mean":1707,"Imple":1708,"AB":1709,"Un":1710,"Var":1711,"rdered":1712,"sig":1713,"etime":1714,"ĠĠĠĠĠĠĠĠĠĠĠĠĠĠĠĠĠĠĠ":1715,"acked":1716,"ĠNot":1717,"Ġsetuptools":1718,"builder":1719,">-":1720,"SD":1721,"Tensor":1722,"doc":1723,"fa":1724,"light":1725,"sh":1726,"ww":1727,"array":1728,"Ġremo":1729,"Ġinto":1730,"Ġindex":1731,"Ġbuil":1732,"ĠSo":1733,"Ġtorchbox":1734,"Ġstate":1735,"ĠEx":1736,"Ġprovide":1737,"ĠVersion":1738,"metadata":1739,"19":1740,"CH":1741,"fl":1742,"gt":1743,"Ġignore":1744,"seed":1745,"orted":1746,"imports":1747,"Ġsome":1748,"log":1749,"Ġmore":1750,"__()<":1751,"::<":1752,"Ch":1753,"Name":1754,"],<":1755,"copy":1756,"label":1757,"ner":1758,"op":1759,"obj":1760,"uch":1761,"vers":1762,"Ġheaders":1763,"------------":1764,"Ġtuple":1765,"Ġfield":1766,"Ġfound":1767,"Ġoptional":1768,"oder":1769,"abels":1770,"Ġvar":1771,"quence":1772,"prefix":1773,"Ġdoes":1774,"Head":1775,"])":1776,"fault":1777,"ĠY":1778,"Ġrepresent":1779,"Ġmay":1780,"Ġus":1781,"Ġbytes":1782,"Loader":1783,"Ġneed":1784,"ĠDistutils":1785,"Ġdivision":1786,"Ġbasicsr":1787,"Pool":1788,"TER":1789,"VER":1790,"gb":1791,"Ġtarget":1792,"ender":1793,"amb":1794,"etry":1795,"ries":1796,"ĠPro":1797,"andle":1798,"ixer":1799,"indows":1800,"func":1801,"HTTP":1802,"\\\\":1803,"Ġed":1804,"Ġio":1805,"Ġtrain":1806,"Ġfocal":1807,"urdf":1808,"Ġover":1809,"Ġmode":1810,"unt":1811,"ell":1812,"Ġgiven":1813,"ply":1814,"Ġ{<":1815,"000":1816,"Ġresponse":1817,"06":1818,"56":1819,"IME":1820,"TR":1821,"pool":1822,"sum":1823,"uments":1824,"ero":1825,"req":1826,"enc":1827,"its":1828,"Ġcv":1829,"Ġcall":1830,"ingle":1831,"Ġsy":1832,"ization":1833,"Ġitert":1834,"packaging":1835,"ĠConv":1836,"Ġmmcv":1837,"Ġitertools":1838,"Ġcurrent":1839,"Ġbet":1840,"channels":1841,"Ġtoken":1842,"ormatter":1843,"ĠBSD":1844,"fixer":1845,"Ġfunctions":1846,"Ġ>=":1847,"Not":1848,"Set":1849,"bers":1850,"cre":1851,"ie":1852,"names":1853,"wrap":1854,"yaml":1855,"repr":1856,"Ġtemp":1857,"Ġact":1858,"ings":1859,"ant":1860,"Ġlike":1861,"Ġ._":1862,"transform":1863,"getLogger":1864,"Ġ2022":1865,"ĠEn":1866,"Cont":1867,"ference":1868,"Ġparamet":1869,"Ġfocalpose":1870,"EP":1871,"Point":1872,"license":1873,"qa":1874,"Ġerrors":1875,"Ġemail":1876,"Ġ[\"":1877,"aper":1878,"Ġstream":1879,"output":1880,"compile":1881,"24":1882,"Dist":1883,"Hacked":1884,"II":1885,"ci":1886,"dis":1887,"ied":1888,"mb":1889,"rad":1890,"Ġtree":1891,"uto":1892,"iler":1893,"length":1894,"================":1895,"Ġfollow":1896,"\".":1897,"Pro":1898,"TML":1899,"oo":1900,"alk":1901,"Ġfl":1902,"Ġpool":1903,"Ġmath":1904,"Ġmust":1905,"Ġgraph":1906,"ĠOrdered":1907,"Ġimpl":1908,"Ġlibrary":1909,"Ġyour":1910,"Ġnoqa":1911,"Ġpoints":1912,"upported":1913,"iddenimports":1914,"((":1915,"11":1916,"55":1917,"IB":1918,"ding":1919,"sp":1920,"Ġent":1921,"Ġfilename":1922,"anchor":1923,"console":1924,"().":1925,"Ġparser":1926,"ffic":1927,"STD":1928,"CKING":1929,"CHECKING":1930,"17":1931,"Data":1932,"Text":1933,"lt":1934,"ĠZ":1935,"replace":1936,"stract":1937,"ank":1938,"amp":1939,"ents":1940,"paths":1941,"(),":1942,"2021":1943,"rypt":1944,"Ġhash":1945,"adding":1946,"CO":1947,"Token":1948,"like":1949,"tree":1950,"Ġ5":1951,"ating":1952,"state":1953,"decode":1954,"hed":1955,"Ġman":1956,"istry":1957,"exceptions":1958,"ĠFound":1959,"Ġ10":1960,"MEAN":1961,"STR":1962,"ultipart":1963,"[:,":1964,"-------------<":1965,"!=":1966,"Torch":1967,"ca":1968,"normal":1969,"ou":1970,"wa":1971,"Ġ!=":1972,"help":1973,"Ġssl":1974,"Ġoper":1975,"ĠTYPE":1976,"Ġrandom":1977,"Ġeach":1978,"Ġtypes":1979,"ĠValueError":1980,"HEAD":1981,"Ġelif":1982,"ACK":1983,"ID":1984,"NA":1985,"fp":1986,"go":1987,"group":1988,"Ġ--":1989,"resources":1990,"atio":1991,"Ġinst":1992,"Ġinit":1993,"Ġnormal":1994,"Ġmod":1995,"pygments":1996,"ĠAd":1997,"ĠFile":1998,"enerator":1999,"...,":2000,"Ġkernel":2001,"Ġvalid":2002,"layer":2003,"Ġ-*-":2004,"Ġ-*-<":2005,"âĶĢ":2006,"ambda":2007,"':<":2008,"ION":2009,"ak":2010,"bool":2011,"wo":2012,"write":2013,"Ġ7":2014,"Ġhead":2015,"Ġoptions":2016,"Ġdir":2017,"Ġme":2018,"exist":2019,"Ġgroup":2020,"pop":2021,"Ġsocket":2022,"Ġpython":2023,"builtins":2024,"Get":2025,"[-":2026,"aise":2027,"dm":2028,"han":2029,"pu":2030,"rans":2031,"reader":2032,"stream":2033,"Ġobj":2034,"unk":2035,"ĠROTATED":2036,"uboid":2037,"Ġstat":2038,"queue":2039,"Ġallow":2040,"Ġdatetime":2041,"################":2042,"Ġzip":2043,"FI":2044,"RL":2045,"crop":2046,"field":2047,"ery":2048,"Ġctypes":2049,"Ġper":2050,"ĠCol":2051,"ĠGA":2052,"ĠFor":2053,"ension":2054,"ATA":2055,"Ġjson":2056,"Parser":2057,"uffer":2058,"(_":2059,";<":2060,">]<":2061,"BO":2062,"db":2063,"flow":2064,"next":2065,"sign":2066,"Ġ6":2067,"require":2068,"Ġrel":2069,"Ġrender":2070,"etch":2071,"Ġbbox":2072,"ĠPEP":2073,"rag":2074,"Ġhere":2075,"poch":2076,"-----------------------------------------------------------------------------<":2077,"ayer":2078,"Ġprogram":2079,"lower":2080,"Ġencode":2081,"ĠConsole":2082,"backports":2083,"register":2084,"Ġmmdet":2085,"structor":2086,"Ġ\\<":2087,"Norm":2088,"TH":2089,"author":2090,"cord":2091,"egg":2092,"wh":2093,"Ġhttp":2094,"issing":2095,"Ġlink":2096,"mented":2097,"ĠString":2098,"values":2099,"IP":2100,"az":2101,"bone":2102,"kernel":2103,"qdm":2104,"wish":2105,"Ġtensor":2106,"roz":2107,"itle":2108,"Ġimportlib":2109,"uration":2110,"Ġoption":2111,"loc":2112,"loader":2113,"ĠTransform":2114,"Ġ('":2115,"ular":2116,"ector":2117,"ĠDefault":2118,"ched":2119,">`":2120,"face":2121,"lr":2122,"mp":2123,"parent":2124,"rame":2125,"ĠQ":2126,"ined":2127,"Ġpol":2128,"Ġwork":2129,"olver":2130,"oth":2131,"uler":2132,"Ġforward":2133,"Ġ\"__":2134,"Ġbeen":2135,"Ġpathlib":2136,"INE":2137,"Ġenv":2138,"ĠInvalid":2139,"moid":2140,"Ġbased":2141,"ĠIterator":2142,"Ġindices":2143,"ĠOrderedDict":2144,"02":2145,"Tuple":2146,"mod":2147,"oader":2148,"uct":2149,"vent":2150,"yn":2151,"Ġtransform":2152,"lements":2153,"Ġ'.":2154,"Ġ\"<":2155,"Ġoff":2156,"ĠIt":2157,"ulti":2158,"verse":2159,"ĠBasicSR":2160,"ugmentation":2161,"Ġprefix":2162,"Ġshutil":2163,"xyz":2164,"Ġrequests":2165,"layers":2166,"oxel":2167,"ĠSoftware":2168,"').":2169,"Col":2170,"Det":2171,"call":2172,"find":2173,"ud":2174,"width":2175,"imizer":2176,"header":2177,"Ġsp":2178,"Ġinstance":2179,"enter":2180,"rip":2181,"pth":2182,"classifier":2183,"ĠPyTorch":2184,"().__":2185,"Ġalso":2186,"Ġmodules":2187,"precated":2188,"Ġmetadata":2189,"ĠFoundation":2190,"block":2191,"down":2192,"fore":2193,"var":2194,"ĠX":2195,"hether":2196,"Ġsk":2197,"etwork":2198,"Ġdataset":2199,"empt":2200,"ateg":2201,"Ġconvert":2202,"Request":2203,"requests":2204,"Ġbuiltin":2205,"Distribution":2206,"Att":2207,"`<":2208,"div":2209,"json":2210,"Ġtra":2211,"ĠĠĠĠĠĠĠĠĠĠĠĠĠ":2212,"plete":2213,"Ġ{}<":2214,"ĠCont":2215,"backend":2216,"OCK":2217,"Ġcontains":2218,"view":2219,"ause":2220,"Ġtimm":2221,"Dataset":2222,"ECT":2223,"NI":2224,"apt":2225,"hiddenimports":2226,"lines":2227,"main":2228,"wd":2229,"Ġutil":2230,"Ġkeys":2231,"resource":2232,"Ġtqdm":2233,"hes":2234,"Ġfa":2235,"ampl":2236,"Ġinplace":2237,"Ġmatch":2238,"api":2239,"imeout":2240,"ERS":2241,"Requirement":2242,"ookie":2243,"registry":2244,"Ġeven":2245,"cii":2246,"fficient":2247,"'))<":2248,"))":2249,"04":2250,"List":2251,"NO":2252,"ROTATED":2253,"]]":2254,"body":2255,"copyright":2256,"datasets":2257,"eader":2258,"gine":2259,"ops":2260,"Ġ8":2261,"orld":2262,"Ġcor":2263,"Ġsingle":2264,"Ġbound":2265,"Ġdif":2266,"Ġwar":2267,"pyp":2268,"ĠAuthor":2269,"``.<":2270,"angu":2271,"RES":2272,"Ġhasattr":2273,"Ġbackend":2274,"Ġresults":2275,"Ġregister":2276,"andidate":2277,"**":2278,"Cache":2279,"cle":2280,"direct":2281,"target":2282,"wise":2283,"{}":2284,"ster":2285,"lect":2286,"Ġcase":2287,"isc":2288,"Ġredu":2289,"asure":2290,"Ġbin":2291,"ĠRotated":2292,"ributes":2293,"Ġhard":2294,"ious":2295,"Ġcharacter":2296,"MAX":2297,"~~~~~~~~~~~~~~~~":2298,"grad":2299,"datas":2300,"Ġplatform":2301,"Ġcontextlib":2302,"DATA":2303,"For":2304,"MENT":2305,"cur":2306,"filename":2307,"host":2308,"zip":2309,"urize":2310,"Ġinclude":2311,"classes":2312,"Ġ224":2313,"update":2314,"ackage":2315,"Ġexpect":2316,"anges":2317,"ĠURL":2318,"pecifier":2319,"Loss":2320,"Ġhelp":2321,"ogle":2322,"Ġapp":2323,"Ġoriginal":2324,"andidates":2325,"'.":2326,"=(":2327,"Cl":2328,"Class":2329,"Retry":2330,"cul":2331,"match":2332,"rp":2333,"Ġ}<":2334,"ress":2335,"Ġcre":2336,"Ġpkg":2337,"ely":2338,"idx":2339,"emo":2340,"Ġexception":2341,"token":2342,"Ġelement":2343,"Ġgetattr":2344,"ainer":2345,"Ġlogger":2346,"distutils":2347,"ustom":2348,"Ġscript":2349,"ĠRequest":2350,"ĠTypeVar":2351,"helpers":2352,"Handler":2353,"LO":2354,"dataset":2355,"ful":2356,"first":2357,"my":2358,"np":2359,"of":2360,"ins":2361,"Ġimports":2362,"Ġsix":2363,"``<":2364,"ayload":2365,"dirs":2366,"Ġproxy":2367,"patch":2368,"ĠInstall":2369,"Resource":2370,"ĠCommand":2371,"Ġargparse":2372,"\":<":2373,"''<":2374,"03":2375,"Formatter":2376,"Tree":2377,"TLS":2378,"bug":2379,"dig":2380,"fn":2381,"fetch":2382,"norm":2383,"swith":2384,"sens":2385,"ont":2386,"ret":2387,"lean":2388,"heme":2389,"arset":2390,"aries":2391,"__\",<":2392,"Ġsame":2393,"Ġob":2394,"Ġinfo":2395,"ention":2396,"Ġwrap":2397,"Ġwidth":2398,"unicode":2399,"older":2400,"exp":2401,"Ġlabels":2402,"Ġthread":2403,"Ġwithout":2404,"Ġloader":2405,"library":2406,"Ġstandard":2407,"Ġexec":2408,"Ġ<=":2409,"Ġmethods":2410,"ironment":2411,"submodules":2412,"Ġarguments":2413,"ighlight":2414,"Ġcompatibility":2415,"Ġfollowing":2416,"\"]":2417,">\"\"\"":2418,"SC":2419,"Se":2420,"ges":2421,"hash":2422,"over":2423,"off":2424,"temp":2425,"ytes":2426,"lex":2427,"itive":2428,"ĠPoint":2429,"assign":2430,"Ġreturns":2431,"extern":2432,"Ġstride":2433,"formatter":2434,"gging":2435,"top":2436,"scale":2437,"bboxes":2438,"uboids":2439,"99":2440,"FC":2441,"IG":2442,"KER":2443,"ake":2444,"fc":2445,"late":2446,"mat":2447,"random":2448,"rgb":2449,"tings":2450,"encoding":2451,"level":2452,"eta":2453,"Ġblock":2454,"Ġwrapper":2455,"Ġanchor":2456,"ĠAPI":2457,"Ġlook":2458,"ensions":2459,"Ġdepend":2460,"Ġits":2461,"Ġexp":2462,"ART":2463,"iant":2464,"ween":2465,"weight":2466,"ĠStyle":2467,"structures":2468,"Ġserver":2469,"versable":2470,"enderable":2471,"#<":2472,"Ad":2473,"bl":2474,"fter":2475,"ground":2476,"mode":2477,"ob":2478,"sup":2479,"Ġ\"\"":2480,"Ġfixer":2481,"ascii":2482,"Ġdig":2483,"Ġmat":2484,"ĠAtt":2485,"Ġthen":2486,"umber":2487,"ĠRest":2488,"ĠReg":2489,"platform":2490,"Ġdesc":2491,"tocol":2492,"ĠLicensed":2493,"master":2494,"Ġweight":2495,"Result":2496,"manager":2497,"Parse":2498,"Command":2499,"rotated":2500,"static":2501,"Ġpartial":2502,"fields":2503,"23":2504,"EL":2505,"SL":2506,"UN":2507,"[...,":2508,"`.<":2509,"blob":2510,"cu":2511,"clo":2512,"coder":2513,"directory":2514,"ped":2515,"rich":2516,"sy":2517,"},":2518,"Ġ)":2519,"onical":2520,"render":2521,"lease":2522,"Ġabo":2523,"uturize":2524,"__<":2525,"Ġsplit":2526,"Ġsystem":2527,"Ġnon":2528,"Ġwrite":2529,"old":2530,"odified":2531,"Ġ255":2532,"ither":2533,"codes":2534,"Ġclasses":2535,"Context":2536,"infos":2537,"ANT":2538,"OTOC":2539,"Ġspecified":2540,"Ġnamespace":2541,"precation":2542,"Implemented":2543,"sigmoid":2544,"ĠNotImplemented":2545,"OCKS":2546,"OTOCOL":2547,"'),<":2548,")))<":2549,"16":2550,">)":2551,"Man":2552,"Node":2553,"rc":2554,"ves":2555,"Ġtwo":2556,"device":2557,"Ġcfg":2558,"icy":2559,"amel":2560,"Ġbody":2561,"ription":2562,"ĠCh":2563,"Ġhook":2564,"Ġyaml":2565,"Ġwhere":2566,"project":2567,"Ġchild":2568,"move":2569,"rotate":2570,"binary":2571,"Ġentry":2572,")):<":2573,"=[":2574,"car":2575,"has":2576,"ique":2577,"nd":2578,"now":2579,"safe":2580,"uamel":2581,"Ġ]<":2582,"orig":2583,"ren":2584,"row":2585,"Ġfilter":2586,"ionary":2587,">##":2588,"iss":2589,"ics":2590,"Ġsuch":2591,"Ġthem":2592,"Ġmap":2593,"acy":2594,"Ġ(\"":2595,"oml":2596,"Ġgt":2597,"Ġconv":2598,"Ġloc":2599,"Ġcomp":2600,"ĠUse":2601,"distribut":2602,"here":2603,"Ġscale":2604,"ograph":2605,"Ġrequired":2606,"polation":2607,"Ġbetween":2608,"Ġoperator":2609,"08":2610,"Element":2611,"Found":2612,"Header":2613,"Key":2614,"PAT":2615,"element":2616,"mt":2617,"supported":2618,"ters":2619,"Ġens":2620,"inder":2621,"__.":2622,"Ġnext":2623,"Ġmask":2624,"Ġ'<":2625,"Ġthere":2626,"Ġvia":2627,"emory":2628,"play":2629,"Ġhandle":2630,"Ġruamel":2631,"Ġeither":2632,"Connection":2633,"ialize":2634,"stants":2635,"ugh":2636,"ĠSequence":2637,"Ġsubprocess":2638,"OLIB":2639,"avg":2640,"ODO":2641,"VERSION":2642,"ryptograph":2643,"ryptography":2644,">*":2645,"Code":2646,"PO":2647,"Raise":2648,"ValueError":2649,"cmd":2650,"filter":2651,"futurize":2652,"rack":2653,"ross":2654,"Ġparent":2655,"Ġsorted":2656,"esca":2657,"Ġthese":2658,"Ġds":2659,"olve":2660,"ĠPR":2661,"pytorch":2662,"ĠData":2663,"Ġ1000":2664,"ĠMapping":2665,"ĠModified":2666,"...":2667,"Read":2668,"Ġweights":2669,"Ġpackages":2670,"itional":2671,"ĠGAOLIB":2672,"cuda":2673,"escape":2674,"={":2675,"Lib":2676,"Rotated":2677,"ao":2678,"dum":2679,"fect":2680,"message":2681,"misc":2682,"nown":2683,"ran":2684,"system":2685,"tem":2686,"},<":2687,"Ġq":2688,"search":2689,"Ġtk":2690,"Ġfn":2691,"isual":2692,"ilters":2693,"Ġmy":2694,"Ġmultip":2695,"ĠCO":2696,"ote":2697,"Ġannot":2698,"ĠAl":2699,"ĠNumber":2700,"('.":2701,"Ġxml":2702,"Ġwhile":2703,"RED":2704,"ordin":2705,"AND":2706,"ferent":2707,"interpolation":2708,"calar":2709,"Ġattribute":2710,"ĠParse":2711,"www":2712,"Ġparameter":2713,"Ġinstead":2714,"Ġfactor":2715,"ampler":2716,"asurement":2717,">}<":2718,"Ext":2719,"No":2720,"PC":2721,"Timeout":2722,"mask":2723,"nect":2724,"rit":2725,"ze":2726,"lete":2727,"Ġpick":2728,"Ġwhether":2729,"ĠTODO":2730,"ĠĠĠĠĠĠĠĠĠĠ":2731,"raversable":2732,"ĠName":2733,"ormat":2734,"ĠPygments":2735,"Ġwithin":2736,"ĠMIME":2737,"qual":2738,"Ġimages":2739,"Ġexample":2740,"2020":2741,"ĠWe":2742,"Ġsetup":2743,"METH":2744,"Ġobjects":2745,"Ġcontent":2746,"Ġ2018":2747,"aracters":2748,"Any":2749,"openssl":2750,"Ġannotations":2751,"METHOD":2752,"15":2753,"=-":2754,"BU":2755,"Fix":2756,"Mix":2757,"UE":2758,"pass":2759,"six":2760,"Ġ&":2761,"allow":2762,"Ġclo":2763,"Ġpadding":2764,"ance":2765,"illow":2766,"logging":2767,"Ġver":2768,"__(<":2769,"Ġstruct":2770,"part":2771,"Ġbefore":2772,"Ġdeprecated":2773,"very":2774,"soft":2775,"ĠĠĠĠĠĠĠĠĠĠĠĠĠĠĠĠĠĠĠĠĠĠĠĠĠĠĠĠĠĠĠĠ":2776,"ĠWindows":2777,"aceback":2778,"Ġuseful":2779,"Reader":2780,"Ġrot":2781,"dapt":2782,"interval":2783,"startswith":2784,"NotFound":2785,"Ġtempfile":2786,"alker":2787,"cheduler":2788,"'{":2789,"13":2790,"18":2791,"100":2792,">'":2793,"BB":2794,"glob":2795,"iases":2796,"kdir":2797,"ratio":2798,"save":2799,"warn":2800,"inally":2801,"remove":2802,"imit":2803,"alcul":2804,"ities":2805,"ason":2806,"Ġinvalid":2807,"Ġnamed":2808,"Ġmain":2809,"ĠSOCKS":2810,"Ġ\"\\":2811,"ume":2812,"ssian":2813,"Ġcons":2814,"Ġconsole":2815,"keep":2816,"ired":2817,"Ġcanonical":2818,"meta":2819,"OCAL":2820,"Ġ2015":2821,"Ġcached":2822,"Defect":2823,"Ġdisable":2824,"posit":2825,"Ġremove":2826,"Ġremoved":2827,"ways":2828,"exists":2829,"Manager":2830,"84":2831,">``":2832,"AML":2833,"BA":2834,"ES":2835,"Enum":2836,"Graph":2837,"Model":2838,"Method":2839,"Message":2840,"TYPE":2841,"WOR":2842,"create":2843,"finit":2844,"grid":2845,"iew":2846,"pip":2847,"tar":2848,"uf":2849,"wer":2850,"wheel":2851,"Ġet":2852,"erved":2853,"enn":2854,"let":2855,"Ġfroz":2856,"ute":2857,"Ġcalled":2858,"Ġbias":2859,"Ġdot":2860,"Ġlines":2861,"Ġretry":2862,"ĠSc":2863,"ider":2864,"ormer":2865,"ĠDE":2866,"trans":2867,"Ġbeha":2868,"Int":2869,"pute":2870,"estamp":2871,"ĠHTML":2872,"Ġsepar":2873,"indices":2874,"iance":2875,"ĠReserved":2876,"ĠOpenSSL":2877,"trained":2878,"tensors":2879,"Ġconfiguration":2880,"ĠTypeError":2881,"Ġitems":2882,"Ġinterface":2883,"lta":2884,"HEADS":2885,"Ġrenderable":2886,"cording":2887,"Ġdifferent":2888,"ĠNotImplementedError":2889,"Raised":2890,"pository":2891,"09":2892,"401":2893,"HTML":2894,"Mapping":2895,"Paper":2896,"QA":2897,"To":2898,"_(":2899,"folder":2900,"generator":2901,"mmet":2902,"na":2903,"wrapper":2904,"xml":2905,"~<":2906,"Ġutils":2907,"err":2908,"only":2909,"Ġtar":2910,"Ġteam":2911,"strip":2912,"Ġafter":2913,"Ġdire":2914,"Ġmark":2915,"character":2916,"Ġlabel":2917,"Ġlong":2918,"ĠAN":2919,"ĠFix":2920,"tern":2921,"Ġclient":2922,"proj":2923,"Ġpygments":2924,"metaclass":2925,"ĠKey":2926,":`~":2927,"uffix":2928,"features":2929,"Ġfeatures":2930,"factor":2931,"factory":2932,"Ġprovides":2933,"Ġedge":2934,"COM":2935,"google":2936,"ategory":2937,"(-":2938,"05":2939,"88":2940,"Directory":2941,"EY":2942,"HAS":2943,"air":2944,"ble":2945,"iable":2946,"latform":2947,"ope":2948,"pct":2949,"Ġkeep":2950,"ats":2951,"Ġreader":2952,"Ġsave":2953,"Ġold":2954,"Ġdtype":2955,"Ġwindow":2956,"Ġwheel":2957,"Ġms":2958,"pts":2959,"assert":2960,"ĠSSL":2961,"ĠIO":2962,"ĠRights":2963,"emb":2964,"','":2965,"Ġtorchvision":2966,"formation":2967,"ctories":2968,"ĠEfficient":2969,"Ġ{}":2970,"Ġprocess":2971,"Ġproject":2972,"Console":2973,"scene":2974,"='',":2975,"ORT":2976,"ĠInc":2977,"Ġround":2978,"Ġstrings":2979,"params":2980,"Ġcoordin":2981,"maxsize":2982,"plicit":2983,"Ġdoesn":2984,"Ġparameters":2985,"Ġexpected":2986,"emoj":2987,"44":2988,"ASS":2989,"HO":2990,"KEY":2991,"PP":2992,"PT":2993,"Sub":2994,"Test":2995,"Wheel":2996,"augmentation":2997,"gor":2998,"lambda":2999,"ql":3000,"use":3001,"upy":3002,"Ġ9":3003,"ĠâĶ":3004,"inu":3005,"rel":3006,"Ġtr":3007,"align":3008,"ars":3009,"Ġreason":3010,"Ġshape":3011,"Ġins":3012,"Ġdown":3013,"Ġmissing":3014,"acl":3015,"exer":3016,"Ġdefined":3017,"ĠLoader":3018,"Ġgrad":3019,"ĠID":3020,"END":3021,"``,":3022,"parts":3023,"setup":3024,"getitem":3025,"Ġdecode":3026,"Ġdevice":3027,"Ġparsing":3028,"Ġcompl":3029,"Ġcommon":3030,"Ġnumbers":3031,"Ġlicensed":3032,"MAR":3033,"Ġadapt":3034,"control":3035,"container":3036,"Ġjust":3037,"Ġsupported":3038,"ĠKhan":3039,"coun":3040,"runner":3041,"ĠĠĠĠĠĠĠĠĠĠĠĠĠĠĠĠĠĠĠĠĠĠĠĠĠĠ":3042,"rawing":3043,"TERN":3044,"âĶĢâĶĢ":3045,"ragma":3046,"ĠTransformer":3047,"Detector":3048,"Ġbuiltins":3049,"Ġensure":3050,"upyter":3051,"\"):<":3052,"\"),<":3053,"Cre":3054,"NE":3055,"OQA":3056,"PRE":3057,"QU":3058,"_<":3059,"bit":3060,"pad":3061,"payload":3062,"sk":3063,"slo":3064,"Ġ//":3065,"atis":3066,"Ġauto":3067,"Ġpr":3068,"Ġpragma":3069,"Ġrepository":3070,"Ġsign":3071,"Ġthey":3072,"Ġdll":3073,"Ġway":3074,"ĠTX":3075,"Ġmeg":3076,"pywin":3077,"ĠNOQA":3078,"ssign":3079,"Ġorder":3080,"Ġstd":3081,"formatt":3082,"ared":3083,"pred":3084,"ĠUser":3085,"codeError":3086,"ĠET":3087,"Ġuses":3088,"Ġinteger":3089,"ĠVER":3090,"Reg":3091,"Ġenum":3092,"respon":3093,"distribution":3094,"Ġextra":3095,"ributeError":3096,"vii":3097,"Ġaccording":3098,"PYING":3099,"Ġglobal":3100,"Ġfeature":3101,"results":3102,"Ġrepresentation":3103,"Ġallowed":3104,"return":3105,"ĠCOPYING":3106,"BBox":3107,"Ġcompliance":3108,"MARKER":3109,"atisf":3110,"Ġmegvii":3111,"\"{":3112,"#-----------------------------------------------------------------------------<":3113,")]<":3114,"::":3115,"Generator":3116,"IST":3117,"Mark":3118,"Or":3119,"Open":3120,"PU":3121,"Qt":3122,"be":3123,"bot":3124,"buffer":3125,"eps":3126,"hin":3127,"pn":3128,"rb":3129,"rand":3130,"ui":3131,"vironment":3132,"wik":3133,"leases":3134,"Ġag":3135,"debug":3136,">#-----------------------------------------------------------------------------<":3137,"ically":3138,"Ġsim":3139,"ctypes":3140,"aces":3141,"ĠĠĠĠĠĠĠĠĠĠĠĠĠĠ":3142,"ĠPAT":3143,"ĠPackage":3144,"exec":3145,"ĠSE":3146,"ĠAUT":3147,"ĠNew":3148,"ĠNetwork":3149,"constants":3150,"common":3151,"Ġ2006":3152,"Ġrgb":3153,"Ġcomplete":3154,"Ġsess":3155,"inear":3156,"ERR":3157,"proxy":3158,"heads":3159,"ATION":3160,"INT":3161,"number":3162,"ĠConfig":3163,"ALL":3164,"content":3165,"Ġnodes":3166,"Ġcover":3167,"compatible":3168,"duce":3169,"ĠDistribution":3170,"src":3171,"ification":3172,"Ġfolder":3173,"status":3174,"Ġexists":3175,"plication":3176,"NAME":3177,"Ġdirs":3178,"ynam":3179,"Ġboundary":3180,"curs":3181,"enderableType":3182,"precationWarning":3183,"Ġcanonicalize":3184,"gorith":3185,"\").":3186,".*":3187,"256":3188,"75":3189,"?<":3190,"Hel":3191,"Hook":3192,"HORS":3193,"TF":3194,"TU":3195,"USE":3196,"bstract":3197,"epoch":3198,"long":3199,"ners":3200,"our":3201,"pri":3202,"tools":3203,"toml":3204,"zero":3205,"Ġkwargs":3206,"Ġ~~~~~~~~~~~~~~~~":3207,"oration":3208,"sen":3209,"ref":3210,"ites":3211,"Ġpix":3212,"esh":3213,"Ġnorm":3214,"lot":3215,"local":3216,"Ġword":3217,"rix":3218,"ĠPool":3219,"Ġlangu":3220,"cli":3221,"ĠNo":3222,"ĠGraph":3223,"derr":3224,"Ġstor":3225,"Ġdest":3226,"ifiers":3227,"bose":3228,"response":3229,"Ġlibfuturize":3230,"Ġdictionary":3231,"Ġcodecs":3232,"epcopy":3233,"Ġtimeout":3234,"Ġdataclass":3235,"Image":3236,"Ġfunc":3237,"Ġcontaining":3238,"Ġimplement":3239,"Ġapply":3240,"Ġmodels":3241,"Ġgenerated":3242,"Ġgenerator":3243,"Ġident":3244,"aussian":3245,"\");<":3246,"docs":3247,"ĠException":3248,"wait":3249,"ĠColumn":3250,"ĠDefaults":3251,"ĠAuthors":3252,"offset":3253,"Ġlocation":3254,"finity":3255,"Ġdirectories":3256,"Ġmsg":3257,"slots":3258,"Ġdlls":3259,"ĠAUTHORS":3260,"25":3261,"BasicSR":3262,"DO":3263,"IM":3264,"Options":3265,"Ser":3266,"Uns":3267,"batch":3268,"ear":3269,"eed":3270,"labels":3271,"multipart":3272,"option":3273,"pha":3274,"tual":3275,"tgraph":3276,"title":3277,"ually":3278,"vious":3279,"xin":3280,"rough":3281,"Ġcast":3282,"isible":3283,"ished":3284,"Ġpatter":3285,"Ġsa":3286,"Ġsimple":3287,"eters":3288,"Ġinv":3289,"Ġinformation":3290,"Ġdirect":3291,"Ġmapping":3292,"Ġ'_":3293,"Ġlambda":3294,"ĠST":3295,"ĠSpecifier":3296,"intypes":3297,"enset":3298,"classmethod":3299,"ĠDo":3300,"irtual":3301,"ubic":3302,"Ġ_,":3303,"Ġosp":3304,"cks":3305,"dirname":3306,"ntao":3307,"inds":3308,"scheme":3309,"Ġpaths":3310,"ĠVoxel":3311,"DET":3312,"numbers":3313,"Ġraised":3314,"Ġfunctional":3315,"Ġversions":3316,"Ġmmrotate":3317,"Ġlevel":3318,"Ġcount":3319,"Ġsupports":3320,"checkpoint":3321,"ĠParser":3322,"Ġstatus":3323,"Ġcorrespon":3324,"Ġreduction":3325,"Ġthreading":3326,"Ġdescription":3327,"calarString":3328,"errno":3329,"xinntao":3330,"/<":3331,"86":3332,"Back":3333,"Copyright":3334,"DA":3335,"OJ":3336,"Value":3337,"Wrapper":3338,"WSTR":3339,"ah":3340,"cat":3341,"ced":3342,"easurement":3343,"hen":3344,"sample":3345,"sec":3346,"Ġtrue":3347,"store":3348,"learn":3349,"Ġaut":3350,"icro":3351,"iling":3352,"Ġboth":3353,"Ġneg":3354,"Ġdon":3355,"Ġ'\\":3356,"Ġlr":3357,"ĠLe":3358,"idget":3359,"ĠNOT":3360,"ĠDrop":3361,"plug":3362,"term":3363,"Ġconnection":3364,"appen":3365,"Ġ12":3366,"Ġbec":3367,"ĠMutable":3368,"Invalid":3369,"Ġdistribution":3370,"200":3371,"Ġelements":3372,"ĠWAR":3373,"Ġalways":3374,"msg":3375,"valu":3376,"Ġchange":3377,"ffi":3378,"Ġabc":3379,"mooth":3380,"attribute":3381,"'])<":3382,"Ġbackward":3383,"Ġbackbone":3384,"optim":3385,"Ġformatter":3386,"Ġgenerate":3387,"UTF":3388,"argument":3389,"amedTuple":3390,"ĠNote":3391,"transforms":3392,"oolean":3393,"Ġhashlib":3394,"Ġmean":3395,"lru":3396,"variant":3397,"PATH":3398,"Library":3399,"Ġfrozenset":3400,"Ġcoordinates":3401,"aclasses":3402,"ĠVERSION":3403,"ERROR":3404,",)":3405,"14":3406,"Elements":3407,"FF":3408,"Filter":3409,"Fixer":3410,"LU":3411,"TO":3412,"Trans":3413,"WH":3414,"[[":3415,"dS":3416,"frame":3417,"mit":3418,"sv":3419,"ten":3420,"Ġattr":3421,"Ġhtml":3422,"ľâĶĢâĶĢ":3423,"insert":3424,"reset":3425,"roll":3426,"Ġfinal":3427,"Ġcert":3428,"Ġcustom":3429,"__,<":3430,"uri":3431,"Ġour":3432,"eter":3433,"etree":3434,"Ġtheir":3435,"ĠTo":3436,"ĠTLS":3437,"ĠToken":3438,"char":3439,"ĠCON":3440,"raction":3441,"Ġ\".":3442,"ĠAust":3443,"Ġ###":3444,"thou":3445,"ĠRFC":3446,"andas":3447,"ĠFree":3448,"post":3449,"Ġrank":3450,"ators":3451,"based":3452,"Ġcodes":3453,"ITY":3454,"Ġlength":3455,"Style":3456,"Ġbackground":3457,"Ġdataclasses":3458,"Ġtextwrap":3459,"SSLv":3460,"Ġrequirement":3461,"Ġcommands":3462,"stdout":3463,"Ġprovided":3464,"ĠProtocol":3465,"Ġedges":3466,"ĠEnthou":3467,"================================":3468,"ĠAdd":3469,"Ġgroups":3470,"requires":3471,"ĠStringIO":3472,"location":3473,"ĠQt":3474,"empty":3475,"ECTORS":3476,"pypi":3477,"sensitive":3478,"tempdir":3479,"ytesIO":3480,"suppress":3481,"ĠRestormer":3482,"Ġabout":3483,"ĠPROTOCOL":3484,"TimeoutError":3485,"Ġpickle":3486,"WORD":3487,"ĠâĶľâĶĢâĶĢ":3488,"hinx":3489,"DETECTORS":3490,"appengine":3491,"Ġbecause":3492,"ĠAustin":3493,"ĠEnthought":3494,"AM":3495,"Al":3496,"Assign":3497,"BACK":3498,"Field":3499,"Lexer":3500,"Sc":3501,"Sche":3502,"Track":3503,"auth":3504,"bar":3505,"case":3506,"eq":3507,"hi":3508,"ipe":3509,"just":3510,"lq":3511,"math":3512,"mkdir":3513,"oice":3514,"page":3515,"rank":3516,"satisf":3517,"}\")<":3518,"Ġjoin":3519,"Ġurdf":3520,"era":3521,"ina":3522,"research":3523,"Ġtrans":3524,"arge":3525,"utput":3526,"Ġrefer":3527,"etina":3528,"Ġbl":3529,"Ġdual":3530,"ĠĠĠĠĠĠĠĠĠ":3531,"chunk":3532,"ptimizer":3533,"Ġiss":3534,"ĠClass":3535,"ĠSy":3536,"strict":3537,"Ġthan":3538,"Ġgo":3539,"ĠNode":3540,"ĠFormatter":3541,"plib":3542,"cond":3543,"Ġunit":3544,"apply":3545,"ĠMessage":3546,"Info":3547,"ĠThese":3548,"ĠHand":3549,"ightning":3550,"resume":3551,"Ġcannot":3552,"atchNorm":3553,"ĠUnsupported":3554,"Example":3555,"~~~~~~~~~~~~":3556,"Ġprints":3557,"224":3558,"ĠResource":3559,"subprocess":3560,"Ġcontainer":3561,"ches":3562,"Comp":3563,"count":3564,"Ġdocument":3565,"Ġmaximum":3566,"feature":3567,"axis":3568,"nodes":3569,"ABC":3570,"lightning":3571,"Ġusage":3572,"HTTPError":3573,"encies":3574,"crement":3575,"Control":3576,"Points":3577,"stractmethod":3578,"Ġmany":3579,"Ġinstalled":3580,"BOX":3581,"ĠInstallRequirement":3582,"staticmethod":3583,"NotFoundError":3584,"formatters":3585,"Ġcorresponding":3586,"27":3587,"517":3588,"Act":3589,"AME":3590,"Block":3591,"Finder":3592,"IS":3593,"IMA":3594,"Ori":3595,"Ro":3596,"SU":3597,"Sh":3598,"SNI":3599,"Scheduler":3600,"]+":3601,"baz":3602,"current":3603,"eze":3604,"false":3605,"oke":3606,"ous":3607,"ric":3608,"ras":3609,"tk":3610,"tag":3611,"table":3612,"wxyz":3613,"rect":3614,"stack":3615,"roi":3616,"depend":3617,"Ġfree":3618,"itable":3619,"Ġpas":3620,"Ġref":3621,"__,":3622,"any":3623,"Ġsin":3624,"Ġspace":3625,"Ġbatch":3626,"Ġnetwork":3627,"entry":3628,"ĠTh":3629,"olved":3630,"ĠPillow":3631,"Ġlp":3632,"Ġlast":3633,"Ġretries":3634,"ĠLink":3635,"ĠLiteral":3636,"ĠLayer":3637,"Ġanother":3638,"ids":3639,"Ġgrid":3640,"ubl":3641,"ĠFOR":3642,"Ġhope":3643,"Ġdel":3644,"atern":3645,"queeze":3646,"Ġalgorith":3647,"Ġsection":3648,"Constructor":3649,"ialog":3650,"iou":3651,"backbone":3652,"ponent":3653,"ITE":3654,"Stream":3655,"Ġ...<":3656,"abspath":3657,"Ġunicodedata":3658,"Ġrequires":3659,"Ġ\\\\":3660,"Ġattempt":3661,"End":3662,"Ġiterable":3663,"Ġminimum":3664,"links":3665,"Ġexisting":3666,"Ġusers":3667,"Ġtraining":3668,"ency":3669,"Ġzipfile":3670,"signed":3671,"requirements":3672,"download":3673,"issues":3674,"distributed":3675,"Ġtkinter":3676,"BUG":3677,"allowed":3678,"ynamic":3679,"Tracking":3680,"ĠHandTracking":3681,"({":3682,"Adapt":3683,"BL":3684,"CN":3685,"Gener":3686,"LR":3687,"Meta":3688,"ODE":3689,"Pre":3690,"UM":3691,"_.":3692,"bn":3693,"cos":3694,"drop":3695,"eded":3696,"full":3697,"filters":3698,"lap":3699,"pers":3700,"pdf":3701,"pkg":3702,"rames":3703,"support":3704,"umentation":3705,"Ġ50":3706,"ones":3707,"reen":3708,"stderr":3709,"lear":3710,"lemb":3711,"delta":3712,"alues":3713,"aloader":3714,"Ġff":3715,"Ġfail":3716,"Ġframe":3717,"Ġca":3718,"Ġcryptography":3719,"Ġimported":3720,"Ġpd":3721,"Ġpubl":3722,"Ġreplace":3723,"anh":3724,"Ġsg":3725,"edge":3726,"amma":3727,"ily":3728,"Ġdone":3729,"Ġwould":3730,"Ġwant":3731,"defined":3732,"acc":3733,"child":3734,"Ġreturned":3735,"irs":3736,"Ġvoxel":3737,"Ġview":3738,"ĠFormat":3739,"Ġ16":3740,"libs":3741,"Ġdeepcopy":3742,"Ġexc":3743,"ntax":3744,"bound":3745,"Ġsequence":3746,"ush":3747,"Ġchar":3748,"stant":3749,"Ġpresent":3750,"Ġrow":3751,"ARS":3752,"Ġheight":3753,"Ġdefaultdict":3754,"anner":3755,"Ġleft":3756,"weights":3757,"ENTI":3758,"Ġquat":3759,"dataclass":3760,"Ġattributes":3761,"compiler":3762,"pression":3763,"Ġwinreg":3764,"corners":3765,"ĠExample":3766,"Ġfields":3767,"FIX":3768,"Color":3769,"Ġtrailing":3770,"Client":3771,"LOW":3772,"POSE":3773,"PCWSTR":3774,"password":3775,"alculate":3776,"ĠDEFAULT":3777,"mmetries":3778,"embed":3779,"inux":3780,"ĠPATTERN":3781,"OJECT":3782,"Ġpassed":3783,"lembic":3784,"*.":3785,"31":3786,"AC":3787,"Ar":3788,"Build":3789,"Iter":3790,"OUR":3791,"Retina":3792,"Transform":3793,"VE":3794,"]]<":3795,"buf":3796,"cp":3797,"cell":3798,"cpu":3799,"dar":3800,"fmt":3801,"li":3802,"last":3803,"mute":3804,"nr":3805,"pan":3806,"riter":3807,"sq":3808,"su":3809,"sses":3810,"swish":3811,"tim":3812,"tags":3813,"wintypes":3814,"Ġempty":3815,"inue":3816,"inplace":3817,"Ġtail":3818,"Ġtitle":3819,"imal":3820,"stage":3821,"stride":3822,"standard":3823,"ropy":3824,"lection":3825,"Ġfinally":3826,"Ġcmd":3827,"Ġcuboids":3828,"Ġpyp":3829,"Ġreq":3830,"ural":3831,"Ġow":3832,"Ġdb":3833,"ently":3834,"Ġforce":3835,"three":3836,"ĠRaise":3837,"plan":3838,"plate":3839,"Ġhighlight":3840,"complete":3841,"Ġunpack":3842,"Ġlower":3843,"socks":3844,"ĠĠĠĠĠĠĠĠĠĠĠĠĠĠĠĠĠĠĠĠĠĠĠĠĠĠĠ":3845,"presen":3846,">>>>":3847,"ĠHow":3848,"ĠEX":3849,"Ġsysconfig":3850,"Ġ{'":3851,"foo":3852,"Ġavoid":3853,"Ġenn":3854,"numpy":3855,"Ġarch":3856,"Ġcontinue":3857,"moves":3858,"Ġpretrained":3859,"ĠRequirement":3860,"'].":3861,"BaseFix":3862,"Start":3863,"Ġrequirements":3864,"Ġidna":3865,"ILITY":3866,"Ġintern":3867,"Ġindic":3868,"mbol":3869,"NAError":3870,"################################":3871,"which":3872,"Ġpolicy":3873,"ync":3874,"Ġoffset":3875,"clear":3876,"Ġlookup":3877,"Ġmultiple":3878,"Integer":3879,"emoji":3880,"Server":3881,"irtualenv":3882,"icrosoft":3883,"satisfies":3884,"Ġpublished":3885,"\"))<":3886,"'.<":3887,"35":3888,">..":3889,"As":3890,"Case":3891,"CON":3892,"Item":3893,"Link":3894,"More":3895,"Specifier":3896,"ScalarString":3897,"TEN":3898,"border":3899,"dtype":3900,"mm":3901,"pix":3902,"suffix":3903,"tf":3904,"uint":3905,"Ġhtt":3906,"ors":3907,"orary":3908,"ordered":3909,"Ġax":3910,"Ġaction":3911,"Ġauthor":3912,"dec":3913,"Ġcy":3914,"isit":3915,"Ġpad":3916,"Ġpow":3917,"Ġposs":3918,"Ġop":3919,"ilation":3920,"Ġinclu":3921,"Ġnats":3922,"Ġdum":3923,"Ġdrawing":3924,"Ġworld":3925,"Ġmulti":3926,"Ġ''<":3927,"ĠPre":3928,"exit":3929,"ĠCall":3930,"ĠCache":3931,"ĠLPCWSTR":3932,"integer":3933,"idual":3934,"Ġthrough":3935,"ĠGet":3936,"ĠInt":3937,"ĠFinal":3938,"parsing":3939,"setuptools":3940,"poser":3941,"ĠOS":3942,"ĠModel":3943,"ĠMeasurement":3944,"ĠBy":3945,"Ġexplicit":3946,"ĠĠĠĠĠĠĠĠĠĠĠĠĠĠĠĠĠĠ":3947,"plet":3948,"Ġequal":3949,"ested":3950,"Ġparsed":3951,"Config":3952,"Convert":3953,"ĠValues":3954,"make":3955,"RECT":3956,"egacy":3957,"MEIP":3958,"Ġcontrol":3959,"distribute":3960,"herit":3961,"single":3962,"Ġpytorch":3963,"Ġpytest":3964,"Stage":3965,"ormalized":3966,"available":3967,"Ġrunning":3968,"scripts":3969,"Ġdisplay":3970,"Ġcompatible":3971,"Ġvariable":3972,"ĠYou":3973,"Ġrepresenting":3974,"ĠProxy":3975,"Ġactual":3976,"Ġflags":3977,"Ġnormalize":3978,"Ġperform":3979,"ragment":3980,"Ġpolys":3981,"Ġdigit":3982,"Unsupported":3983,"plugin":3984,"OURCE":3985,"darwin":3986,"presenter":3987,"TENSION":3988,"MEIPASS":3989,"26":3990,"Ap":3991,"ACE":3992,"Buil":3993,"CA":3994,"Co":3995,"Call":3996,"Core":3997,"HAN":3998,"MOD":3999,"OP":4000,"RANT":4001,"SY":4002,"action":4003,"cy":4004,"cnn":4005,"candidates":4006,"ection":4007,"hard":4008,"mul":4009,"mup":4010,"neg":4011,"sim":4012,"til":4013,"tot":4014,"uid":4015,"warning":4016,"ination":4017,"Ġpast":4018,"Ġredirect":4019,"Ġredistribute":4020,"Ġsu":4021,"Ġsample":4022,"ilar":4023,"Ġbuffer":4024,"Ġdate":4025,"ĠTraversable":4026,"Ġmight":4027,"Ġmultipart":4028,"Ġ'__":4029,"ĠPUR":4030,"ĠPART":4031,"Ġlay":4032,"Ġtouch":4033,"Ġdefinit":4034,"ullet":4035,"aged":4036,"thread":4037,"Ġthose":4038,"~~~<":4039,"ĠFIT":4040,"server":4041,"convert":4042,"getattr":4043,"Ġbest":4044,"Ġbeing":4045,"ĠMER":4046,"ĠMax":4047,"Ġdecor":4048,"Ġeps":4049,"Ġepoch":4050,"ively":4051,"ĠWIT":4052,"ICUL":4053,"ĠHard":4054,"Ġalong":4055,"Ġyaw":4056,"0001":4057,"score":4058,"NUM":4059,"Ġchannels":4060,"Ġchanges":4061,"reshape":4062,"resnet":4063,"ords":4064,"Ġmak":4065,"Resolution":4066,"Resolver":4067,"contrib":4068,"SSLContext":4069,"alet":4070,"Ġlex":4071,"ĠResolver":4072,"specific":4073,"ĠĠĠĠĠĠĠĠĠĠĠĠĠĠĠĠĠĠĠĠĠĠĠĠĠ":4074,"Ġdocumentation":4075,"feats":4076,"Ġoptparse":4077,"ighb":4078,"PROC":4079,"ikas":4080,"ABILITY":4081,"CHANT":4082,"CHARS":4083,"ĠConvolution":4084,"namespace":4085,"dispose":4086,"Ġimplied":4087,"Ġmodify":4088,"ĠFileNotFoundError":4089,"popup":4090,"rozen":4091,"ĠContact":4092,"Ġwarran":4093,"IGH":4094,"ritten":4095,"Ġconsider":4096,"Ġetc":4097,"ĠANY":4098,"HOUT":4099,"NESS":4100,"ĠWARRANT":4101,"moothing":4102,"Transport":4103,"ightningModule":4104,"MODUL":4105,"ĠPURPOSE":4106,"ĠPARTICUL":4107,"ĠFITNESS":4108,"ĠMERCHANT":4109,"ĠWITHOUT":4110,"Ġwarranty":4111,"ĠWARRANTY":4112,"ĠPARTICULAR":4113,"ĠMERCHANTABILITY":4114,"(?":4115,"/*":4116,"34":4117,"Create":4118,"Callable":4119,"Coder":4120,"From":4121,"GD":4122,"GR":4123,"LL":4124,"LP":4125,"Ne":4126,"QQ":4127,"SN":4128,"VI":4129,"WS":4130,"XX":4131,"][":4132,"cel":4133,"dll":4134,"gn":4135,"iT":4136,"jor":4137,"known":4138,"limit":4139,"mish":4140,"none":4141,"padding":4142,"sort":4143,"sparse":4144,"site":4145,"swin":4146,"tal":4147,"typ":4148,"used":4149,"window":4150,"zer":4151,"Ġport":4152,"------":4153,"erate":4154,"inary":4155,"inner":4156,"red":4157,"real":4158,"releases":4159,"rog":4160,"les":4161,"desc":4162,"altgraph":4163,"height":4164,"Ġpose":4165,"Ġsig":4166,"asy":4167,"Ġbgr":4168,"Ġnull":4169,"ĠTO":4170,"Ġmost":4171,"unpack":4172,"olib":4173,"ĠPIC":4174,"ĠPlatform":4175,"omat":4176,"abstractmethod":4177,"Ġtok":4178,"ĠLo":4179,"ĠLOCAL":4180,"ĠSHAN":4181,"clus":4182,"Ġ\"\\\\":4183,"ĠASC":4184,"ident":4185,"serve":4186,"Ġhooks":4187,"Ġord":4188,"Ġunique":4189,"Ġlocal":4190,"ixed":4191,"ĠMA":4192,"ĠMark":4193,"ĠBack":4194,"())":4195,"Ġratio":4196,"ĠWIN":4197,"Ġaliases":4198,"ĠDeprecationWarning":4199,"Ġxy":4200,"Ġseed":4201,"Ġclip":4202,"Ġ{\"":4203,"../":4204,"Ġsuppress":4205,"Ġcharacters":4206,"Ġcollection":4207,"ĠAnchor":4208,"Ġurlparse":4209,"ResNet":4210,"column":4211,"Ġhex":4212,"Based":4213,"Ġcoun":4214,"DIRECT":4215,"Ġ2013":4216,"DecodeError":4217,"Ġquery":4218,"Ġaccept":4219,"Ġaccess":4220,"Anchor":4221,"environment":4222,"Ġcolors":4223,"Ġposition":4224,"LEG":4225,"Implements":4226,"anchors":4227,"ĠZip":4228,"groups":4229,"ĠGAO":4230,"Ġskimage":4231,"Ġwarmup":4232,"ression":4233,"Ġcreated":4234,"ĠAttention":4235,"OrMore":4236,"TURES":4237,"Ġpattern":4238,"Assigner":4239,"Ġffi":4240,"Ġchardet":4241,"Ġhttplib":4242,"alette":4243,"IGHT":4244,"ĠPICTURES":4245,"ĠASCII":4246,")),":4247,"80":4248,"BBOX":4249,"Can":4250,"CII":4251,"Ed":4252,"FIL":4253,"GE":4254,"Grid":4255,"Jit":4256,"Le":4257,"OFF":4258,"PN":4259,"Str":4260,"Sampler":4261,"Tag":4262,"Walker":4263,"auto":4264,"aolib":4265,"bic":4266,"bias":4267,"cert":4268,"cwd":4269,"cookie":4270,"category":4271,"darray":4272,"gment":4273,"ially":4274,"mary":4275,"non":4276,"ources":4277,"sorted":4278,"viz":4279,"rec":4280,"rest":4281,"resize":4282,"stra":4283,"delete":4284,"Ġclear":4285,"Ġrest":4286,"Ġresources":4287,"Ġsafe":4288,"etadata":4289,"Ġindent":4290,"Ġbox":4291,"Ġndarray":4292,"Ġwell":4293,"rie":4294,"Ġ(_":4295,"Ġ(...,":4296,"ĠĠĠĠĠĠĠĠĠĠĠĠ":4297,"Ġ'&":4298,"chat":4299,"ĠCan":4300,"abase":4301,"Ġtotal":4302,"raps":4303,"igInteger":4304,"ĠSimple":4305,"Ġ\"_":4306,"ather":4307,"ĠAlembic":4308,"plied":4309,"Ġhandl":4310,"Ġconnect":4311,"ects":4312,"ĠOn":4313,"Ġstack":4314,"ĠBytesIO":4315,"(),<":4316,"psnr":4317,"tok":4318,"ived":4319,"ivations":4320,"ĠHel":4321,"ĠHigh":4322,"Ġ32":4323,"Ġalias":4324,"Ġcomment":4325,"ains":4326,"lice":4327,"ializer":4328,"ReLU":4329,"READ":4330,"REDIRECT":4331,"pattern":4332,"nums":4333,"iterdir":4334,"Ġcontents":4335,"Load":4336,"attn":4337,"ugment":4338,"Ġshow":4339,"Ġscene":4340,"Ġscheme":4341,"Ġabsx":4342,"Resources":4343,"regex":4344,"PEC":4345,"Ġadditional":4346,"geom":4347,"opts":4348,"ĠStream":4349,"ĠCompat":4350,"Environment":4351,"Ġorigin":4352,"ĠHTTPS":4353,"EXTR":4354,"Ġmeters":4355,"Ġdocstring":4356,"ASCII":4357,"509":4358,"username":4359,"styles":4360,"ĠParam":4361,"flags":4362,"Child":4363,"Ġbeta":4364,"Proxy":4365,"HEADERS":4366,"Ġencoded":4367,"ĠRequests":4368,"TLSv":4369,"digest":4370,"Ġdigest":4371,"ĠAttributeError":4372,"Mixin":4373,">'''<":4374,"BASE":4375,"SubElement":4376,"png":4377,"Ġagain":4378,"Hello":4379,"ĠDropPath":4380,"Ġissue":4381,"cremental":4382,"Ġsince":4383,"Ġalgorithm":4384,"Builder":4385,"zeros":4386,"Ġnullable":4387,"bicubic":4388,"#!":4389,"(\\":4390,".\"<":4391,"90":4392,"COD":4393,"GET":4394,"Option":4395,"Vikas":4396,"YAML":4397,"]))<":4398,"_,":4399,"aired":4400,"can":4401,"dri":4402,"dConv":4403,"native":4404,"pg":4405,"sa":4406,"si":4407,"sur":4408,"same":4409,"tanh":4410,"ving":4411,"Ġes":4412,"Ġtag":4413,"ature":4414,"step":4415,"less":4416,"alias":4417,"Ġfix":4418,"Ġfast":4419,"Ġpaper":4420,"Ġpandas":4421,"Ġsrc":4422,"Ġdw":4423,"Ġdrop":4424,"Ġmo":4425,"Ġ()":4426,"Ġ'/":4427,"oment":4428,"ĠCheck":4429,"ĠSupport":4430,"clar":4431,"clip":4432,"ĠAbstract":4433,"ĠNamedTuple":4434,"umper":4435,"Ġvendor":4436,"ĠFl":4437,"ĠFeat":4438,"Ġhow":4439,"Ġhidden":4440,"Ġhandler":4441,"conds":4442,"settings":4443,"true":4444,"ĠOther":4445,"ĠMy":4446,"ĠMing":4447,"('--":4448,"Input":4449,"Ġdec":4450,"ĠBe":4451,"()``":4452,"Ġexceptions":4453,"preter":4454,"Ġevery":4455,"ĠWheel":4456,"ession":4457,"(\"\\":4458,"Ġalpha":4459,"book":4460,"Ġcompute":4461,"Ġproper":4462,"dential":4463,"ocation":4464,"mak":4465,"egment":4466,"START":4467,"fixes":4468,"atten":4469,"Ġprevious":4470,"parameters":4471,"posed":4472,"contents":4473,"Ġsubclass":4474,"Ġspecific":4475,"Import":4476,"Ġadds":4477,"ogn":4478,"ilenames":4479,"ĠResNet":4480,"ĠResponse":4481,"Ġapplication":4482,"Ġargument":4483,"aving":4484,"Ġreading":4485,"Ġextract":4486,"ĠĠĠĠĠĠĠĠĠĠĠĠĠĠĠĠĠĠĠĠĠĠĠĠĠĠĠĠ":4487,"vior":4488,"commands":4489,"Ġplug":4490,"URL":4491,"minist":4492,"graphviz":4493,"contextmanager":4494,"Implementation":4495,"Ġbuilt":4496,"Ġneeds":4497,"sphinx":4498,"fpn":4499,"Ġinitial":4500,"Ġrelated":4501,"ĠConsoleOptions":4502,"Ġreduce":4503,"super":4504,"Ġ\"\"<":4505,"ĠRestoration":4506,"dump":4507,"Ġdisabled":4508,"Ġbehavior":4509,"Ġmarkup":4510,"PTION":4511,"Ġinspect":4512,"Ġenumerate":4513,"executable":4514,"ĠNetworks":4515,"Ġpixels":4516,"roller":4517,"RoI":4518,"StageDetector":4519,"Ġconsidered":4520,"MODULE":4521,"SNR":4522,"\"\\":4523,")[":4524,")),<":4525,");<":4526,"07":4527,"40":4528,"78":4529,"875":4530,"BIT":4531,"Cookie":4532,"HA":4533,"IF":4534,"LIST":4535,"OS":4536,"SP":4537,"Source":4538,"SPEC":4539,"Traversable":4540,"Up":4541,"ai":4542,"bb":4543,"bc":4544,"bdist":4545,"center":4546,"hat":4547,"handle":4548,"mapping":4549,"multi":4550,"null":4551,"ping":4552,"rt":4553,"space":4554,"tmp":4555,"uess":4556,"vid":4557,"vtk":4558,"})":4559,"Ġ):<":4560,"Ġra":4561,"inv":4562,"redirect":4563,"Ġtrun":4564,"alche":4565,"hex":4566,"Ġcell":4567,"Ġcandidates":4568,"Ġpatch":4569,"uring":4570,"Ġswish":4571,"edi":4572,"edia":4573,"edges":4574,"amera":4575,"ilu":4576,"ashes":4577,"Ġboolean":4578,"Ġnow":4579,"Ġmemory":4580,"ĠPIL":4581,"pyproject":4582,"peat":4583,"iled":4584,"ueue":4585,"otation":4586,"ĠSU":4587,"ĠSh":4588,"thing":4589,"ĠRender":4590,"vector":4591,"extra":4592,"ĠFunction":4593,"ENUM":4594,"connection":4595,"apsed":4596,"Ġ100":4597,"Infinity":4598,"Ġdebug":4599,"Ġdelete":4600,"verage":4601,"ĠBody":4602,"ĠBinary":4603,"Ġimgs":4604,"Ġexclude":4605,"ĠĠĠĠĠĠĠĠĠĠĠĠĠĠĠĠĠĠĠĠĠĠĠ":4606,"SET":4607,"prefetch":4608,"ivation":4609,"ĠWa":4610,"ĠWhether":4611,"Ġcomput":4612,"Ġproble":4613,"Ġwho":4614,"Ġwhat":4615,"prog":4616,"sched":4617,"ĠVisual":4618,"Ġavg":4619,"stances":4620,"egers":4621,"Ġsettings":4622,"fixed":4623,"Ġscore":4624,"cached":4625,"cessing":4626,"Ġotherwise":4627,"Ġbackport":4628,"methods":4629,"annel":4630,"subtype":4631,"optimizer":4632,"Ġ2012":4633,"Default":4634,"Ġtests":4635,"tensorflow":4636,"Ġruntime":4637,"coords":4638,"datetime":4639,"Ġacc":4640,"archive":4641,"Ġdocuments":4642,"functools":4643,"Ġstyles":4644,"Ġevict":4645,"dota":4646,"PROTOCOL":4647,"Ġtimestamp":4648,"ABLE":4649,"Characters":4650,"Ġvarious":4651,"ĠYAML":4652,"eroOrMore":4653,"Ġsyms":4654,"Ġcurrently":4655,"Content":4656,"ĠTransformers":4657,"Ġenvironment":4658,"Ġsklearn":4659,"expand":4660,"ighlighter":4661,"assigner":4662,"close":4663,"Ġabove":4664,"ConnectionPool":4665,"qlalche":4666,"BBoxHead":4667,"OpenSSL":4668,"Ġsession":4669,"Ġlanguage":4670,"ĠNOTE":4671,"ĠCONTR":4672,"Compiler":4673,"LRScheduler":4674,"completeRead":4675,"Ġarchive":4676,"ormalizedName":4677,"Ġlayers":4678,"Ġdecorator":4679,"straint":4680,"saved":4681,"ĠMyClass":4682,"Ġtrunc":4683,"qlalchemy":4684,"!<":4685,")'":4686,".)<":4687,"30":4688,"97":4689,"=_":4690,">:":4691,"CCE":4692,"Hsu":4693,"LOCAL":4694,"Package":4695,"SON":4696,"System":4697,"Single":4698,"Widget":4699,"]*":4700,"aut":4701,"candidate":4702,"dw":4703,"handler":4704,"hbaz":4705,"lur":4706,"llo":4707,"large":4708,"palette":4709,"qas":4710,"tz":4711,"ting":4712,"vg":4713,"vels":4714,"where":4715,"}\"<":4716,"Ġ--------------------------------":4717,"ĠError":4718,"inst":4719,"sep":4720,"separ":4721,"retin":4722,"ences":4723,"ended":4724,"alman":4725,"heels":4726,"arry":4727,"Ġcalculate":4728,"Ġpayload":4729,"Ġrece":4730,"Ġsite":4731,"amir":4732,"Ġboke":4733,"Ġnet":4734,"Ġmac":4735,"Ġmess":4736,"unaw":4737,"unique":4738,"Ġ'''<":4739,"chr":4740,"charset":4741,"Ġlive":4742,"Ġtop":4743,"oted":4744,"ĠSha":4745,"ĠSalman":4746,"Ġ\"%":4747,"Ġ\",":4748,"ĠAs":4749,"ĠAror":4750,"ĠRE":4751,"ĠRenderableType":4752,"ĠDis":4753,"veled":4754,"ircle":4755,"~~<":4756,"ĠPyPI":4757,"ĠFah":4758,"ĠFrozen":4759,"ipedia":4760,"Ġhiddenimports":4761,"Ġstrict":4762,"Ġbelow":4763,"ĠOptimizer":4764,"ĠModule":4765,"ĠMunaw":4766,"ĠBO":4767,"().<":4768,"Ġimp":4769,"ĠĠĠĠĠĠĠĠĠĠĠĠĠĠĠĠĠĠĠĠĠĠ":4770,"ives":4771,"ĠWars":4772,"ayat":4773,"ĠHayat":4774,"board":4775,"Ġcolumn":4776,"Ġsent":4777,"Ġsearch":4778,"codecs":4779,"ĠVision":4780,"Ġchr":4781,"Ġcharset":4782,"ONG":4783,"ideo":4784,"Ġprevent":4785,"Ġadjust":4786,"actual":4787,"2111":4788,"itya":4789,"PEP":4790,"Ġdatas":4791,"annot":4792,"byte":4793,"Ġneeded":4794,"force":4795,"Ġimplements":4796,"formats":4797,"Ġidx":4798,"Ġquatern":4799,"compare":4800,"argv":4801,"vides":4802,"pected":4803,"network":4804,"Ġusername":4805,"awn":4806,"Files":4807,"FileCopyright":4808,"ĠTextIO":4809,"PROJECT":4810,"ĠYang":4811,"summary":4812,"transformer":4813,"Ġfollows":4814,"Ġpooling":4815,"ĠZamir":4816,"ĠAditya":4817,"FIER":4818,"ĠColor":4819,"Ġbboxes":4820,">`_":4821,"Ġskip":4822,"Ġcorrect":4823,"digits":4824,"Ġinfos":4825,"Ġwrapped":4826,"Ġexecutable":4827,"Ġdependencies":4828,"Ġchildren":4829,"Ġfnmatch":4830,"Extension":4831,"0988":4832,"ĠKeyError":4833,"QUI":4834,"USER":4835,"Ġlru":4836,"dSame":4837,"ĠSyed":4838,"ĠUnsupportedWheel":4839,"Orig":4840,"ENTIFIER":4841,"Transformer":4842,"Ġpypro":4843,"Ġpossible":4844,"Edge":4845,"ĠCompatibility":4846,"omentum":4847,"ĠWaqas":4848,"Hsuan":4849,"Ġbokeh":4850,"ĠShahbaz":4851,"ĠArora":4852,"ĠFahad":4853,"ĠMunawar":4854,"ĠWarsaw":4855,"FileCopyrightText":4856,"09881":4857,"'\\":4858,"'):":4859,")).":4860,"36":4861,"57":4862,":%":4863,"=<":4864,"BR":4865,"CL":4866,"Check":4867,"CRED":4868,"Event":4869,"Fn":4870,"Final":4871,"Jar":4872,"LA":4873,"MAT":4874,"Max":4875,"Missing":4876,"Qu":4877,"So":4878,"Size":4879,"TA":4880,"Target":4881,"Windows":4882,"ait":4883,"bz":4884,"ever":4885,"fast":4886,"font":4887,"gree":4888,"gument":4889,"ier":4890,"ius":4891,"jar":4892,"lu":4893,"ness":4894,"nms":4895,"named":4896,"oun":4897,"paper":4898,"raries":4899,"rics":4900,"sampler":4901,"ted":4902,"tain":4903,"vas":4904,"virtualenv":4905,"world":4906,"}.":4907,"Ġ><":4908,"Ġqueue":4909,"Ġerrno":4910,"orn":4911,"see":4912,"replic":4913,"reak":4914,"images":4915,"rocessing":4916,"Ġfp":4917,"Ġcrop":4918,"icular":4919,"Ġpage":4920,"Ġplease":4921,"Ġpaired":4922,"Ġrec":4923,"Ġrecord":4924,"Ġsum":4925,"Ġsha":4926,"Ġsqlalchemy":4927,"ilinear":4928,"Ġinert":4929,"Ġinherit":4930,"Ġborder":4931,"Ġbreak":4932,"Ġdatasets":4933,"Ġdilation":4934,"ĠTimeout":4935,"Ġmon":4936,"Ġmim":4937,"Ġmish":4938,"aco":4939,"untime":4940,"ading":4941,"adapt":4942,"Ġisn":4943,"odies":4944,"Ġtool":4945,"ĠLR":4946,"ĠLib":4947,"ĠLIGHT":4948,"Ġant":4949,"ĠSub":4950,"ĠSpec":4951,"clamp":4952,"Ġassign":4953,"ationError":4954,"ĠGaussian":4955,"ĠRich":4956,"izing":4957,"ĠDet":4958,"ĠDWORD":4959,"extension":4960,"ĠFrom":4961,"Ġfilepath":4962,"ENCE":4963,"enshi":4964,"ireq":4965,"ires":4966,"ĠBM":4967,"ĠBarry":4968,"quent":4969,"quote":4970,"versions":4971,"ĠĠĠĠĠĠĠĠĠĠĠĠĠĠĠĠĠĠĠĠĠ":4972,"Ġrich":4973,"ĠWrite":4974,"angle":4975,"Ġparts":4976,"permute":4977,"Ġselect":4978,"Ġsecond":4979,"ĠExt":4980,"ĠEach":4981,"Ġintegers":4982,"0000":4983,"ATORS":4984,"Ġsupplied":4985,"ĠGeneric":4986,"usb":4987,"usr":4988,"REQUI":4989,"Ġchain":4990,"Ġchunk":4991,"DEBUG":4992,"resolve":4993,"Ġcontribut":4994,"Ġmade":4995,"Ġadded":4996,"TypeVar":4997,"Response":4998,"cessary":4999,"ready":5000,"tection":5001,"Ġspecifier":5002,"Ġspecial":5003,"Ġkeyword":5004,"ĠApp":5005,"Ġnever":5006,"Ġappro":5007,"objects":5008,"UTORS":5009,"Ġextension":5010,"Ġextensions":5011,"ĠHTTPError":5012,"Ġparams":5013,"Ġpositive":5014,"(**":5015,"ĠSocket":5016,"flake":5017,"Ġcalls":5018,"IBUTORS":5019,"Ġvalidate":5020,"BOSE":5021,"Ġtensors":5022,"Column":5023,"calls":5024,"udio":5025,"Attention":5026,"ĠContent":5027,"RESOURCE":5028,"Ġbinaries":5029,"matrix":5030,"Ġanchors":5031,"Adam":5032,"Ġentrypoint":5033,"nowflake":5034,"distributions":5035,"partial":5036,"Ġrotated":5037,"Ġtraceback":5038,"upyterMixin":5039,"QUENCE":5040,"wiki":5041,"wikipedia":5042,"cursive":5043,"Ġautomat":5044,"BACKOFF":5045,"ĠLayerNorm":5046,"laps":5047,"boundary":5048,"strides":5049,"isited":5050,"total":5051,"Ġtokens":5052,"geometry":5053,"ĠRenderResult":5054,"ĠBinaryIO":5055,"scheduler":5056,"ĠCONTRIBUTORS":5057,"ĠCompatibilityFiles":5058,"BRACK":5059,"gumentParser":5060,"replicas":5061,"\"],":5062,"'}<":5063,")\"":5064,"-\\":5065,"/><":5066,"49":5067,"=',":5068,">'<":5069,">~~~~~~~~~~~~":5070,"Auto":5071,"Bytes":5072,"BatchNorm":5073,"Candidate":5074,"Cross":5075,"Datasets":5076,"FOR":5077,"HH":5078,"HW":5079,"LINE":5080,"MO":5081,"PORT":5082,"RenderableType":5083,"Using":5084,"UDA":5085,"YPY":5086,"actory":5087,"cook":5088,"dense":5089,"dynamic":5090,"fe":5091,"frames":5092,"gd":5093,"gpu":5094,"mes":5095,"mall":5096,"meth":5097,"npy":5098,"paces":5099,"ring":5100,"ram":5101,"sha":5102,"silu":5103,"ton":5104,"vc":5105,"warnings":5106,"zone":5107,"}:":5108,"})<":5109,"}\".":5110,"Ġide":5111,"include":5112,"reduce":5113,"Ġtable":5114,"Ġtask":5115,"Ġtags":5116,"Ġawait":5117,"alid":5118,"Ġfilters":5119,"Ġfilenames":5120,"itch":5121,"Ġcases":5122,"Ġcuboid":5123,"Ġcandidate":5124,"Ġcategory":5125,"icial":5126,"Ġreset":5127,"urt":5128,"Ġsort":5129,"Ġol":5130,"edirs":5131,"Ġbn":5132,"Ġbise":5133,"Ġbund":5134,"Ġnative":5135,"losses":5136,"ĠThere":5137,"access":5138,"Ġ((":5139,"Ġ(``":5140,"olded":5141,"Ġ',":5142,"expected":5143,"ometh":5144,"ott":5145,"otent":5146,"agent":5147,"ĠLP":5148,"ĠLegacy":5149,"Ġgamma":5150,"ĠGo":5151,"ĠGroup":5152,"ĠIP":5153,"uman":5154,"ĠRo":5155,"andbox":5156,"ipul":5157,"Ġhaving":5158,"Ġordered":5159,"Ġconstructor":5160,"ĠOver":5161,"ĠMIT":5162,"ĠMulti":5163,"ĠMicrosoft":5164,"ĠMYPY":5165,"Ġstrip":5166,"Ġdes":5167,"Ġdecoding":5168,"socket":5169,"Ġ2001":5170,"ĠBuild":5171,"Ġdistributions":5172,"Ġitself":5173,"2006":5174,"Ġep":5175,"Ġegg":5176,"ĠWorld":5177,"Ġalign":5178,"Ġcompose":5179,"Ġprodu":5180,"Ġproduce":5181,"Ġterm":5182,"INTER":5183,"Ġresolve":5184,"Ġresolved":5185,"ONE":5186,"itertools":5187,"ĠAnsi":5188,"Ġarray":5189,"Ġ`-":5190,"Ġpreserve":5191,"Ġshort":5192,"OCATION":5193,"Ġknow":5194,"Ġ|<":5195,"Standard":5196,"weep":5197,"Ġ2014":5198,"ĠComposer":5199,"Ġtesting":5200,"linear":5201,"ĠBaseDistribution":5202,"detector":5203,"Ġregular":5204,"EXPR":5205,"Ġupload":5206,"Ġinstallation":5207,"colors":5208,"mdb":5209,"arned":5210,"posix":5211,"stdlib":5212,"Ġformats":5213,"Ġtuples":5214,"reqs":5215,"Ġsyntax":5216,"ĠZeroOrMore":5217,"Ġmanipul":5218,"normalizer":5219,"normalized":5220,"ĠAdam":5221,"Ġrelative":5222,"azy":5223,"Ġofficial":5224,"divisible":5225,"MAXIMA":5226,"Ġobb":5227,"lexer":5228,"ĠRegex":5229,"Ġdescrib":5230,"ParseError":5231,"renderable":5232,"Ġcompiler":5233,"template":5234,"NoReturn":5235,"Ġverbose":5236,"Ġconsist":5237,"EnumResource":5238,"Ġtarfile":5239,"Ġinside":5240,"Ġadapter":5241,"Ġprim":5242,"ALLOCATION":5243,"Ġstored":5244,"Ġfunctionality":5245,"valuation":5246,"ĠRaises":5247,"mmcv":5248,"Ġpower":5249,"Ġmaking":5250,"gnu":5251,"typing":5252,"description":5253,"ĠTOML":5254,"Ġxyz":5255,"LEGAL":5256,"#!/":5257,"makedirs":5258,"Ġplugins":5259,"Ġreceived":5260,"Ġpyproject":5261,"Ġbisect":5262,"omething":5263,"MAXIMAL":5264,"'re":5265,"'],":5266,"384":5267,"45":5268,":\\":5269,"?)":5270,"API":5271,"Bn":5272,"BigInteger":5273,"Ent":5274,"FO":5275,"Future":5276,"Format":5277,"GI":5278,"Is":5279,"Match":5280,"Mish":5281,"Multipart":5282,"NS":5283,"Null":5284,"New":5285,"Output":5286,"Platform":5287,"RO":5288,"RY":5289,"Random":5290,"Sec":5291,"TE":5292,"User":5293,"aug":5294,"cf":5295,"cast":5296,"dif":5297,"dition":5298,"eck":5299,"fam":5300,"guild":5301,"hull":5302,"iag":5303,"mail":5304,"memory":5305,"rong":5306,"rfc":5307,"squeeze":5308,"vo":5309,"will":5310,"walk":5311,"ython":5312,"ĠEr":5313,"ores":5314,"orage":5315,"ories":5316,"sess":5317,"Ġtre":5318,"Ġtri":5319,"Ġtxt":5320,"ength":5321,"leg":5322,"del":5323,"deprecated":5324,"hema":5325,"hello":5326,"arson":5327,"Ġck":5328,"Ġrem":5329,"Ġreference":5330,"lfeat":5331,"Ġball":5332,"Ġduring":5333,"entic":5334,"Ġwalk":5335,"Ġ'('":5336,"iform":5337,"ĠPer":5338,"ĠPrint":5339,"choice":5340,"Ġlayer":5341,"ĠLocation":5342,"ĠLarson":5343,"ĠSNI":5344,"ĠSegment":5345,"Ġ\"[":5346,"into":5347,"upload":5348,"ĠAct":5349,"ĠAdapt":5350,"ibly":5351,"Ġ.-":5352,"Ġasso":5353,"Ġvert":5354,"ems":5355,"``:":5356,"getter":5357,"getcwd":5358,"Ġstep":5359,"Ġeff":5360,"ĠgetLogger":5361,"Ġonce":5362,"ĠWord":5363,"Ġ::":5364,"ĠHook":5365,"Ġalready":5366,"perator":5367,"Ġseman":5368,"indent":5369,"ansi":5370,"raises":5371,"Ġresolution":5372,"ookup":5373,"resh":5374,"MAN":5375,"iterator":5376,"ĠIndex":5377,"basemap":5378,"Ġhashes":5379,"Ġrobot":5380,"ĠUnicode":5381,"ARD":5382,"Exc":5383,"ĠRef":5384,"ĠReference":5385,"Ġknown":5386,"Step":5387,"validate":5388,"Ġspecify":5389,"Imports":5390,"sonSche":5391,"Ġleast":5392,"GENER":5393,"neighb":5394,"Ġcontained":5395,"Ġformatt":5396,"calcul":5397,"empDirectory":5398,"specifiers":5399,"Decoder":5400,"convnext":5401,"installation":5402,"Ġregression":5403,"EXTENSION":5404,"Ġupdate":5405,"Ġoptimizer":5406,"contextlib":5407,"Unicode":5408,"Ġrepresents":5409,"ĠDistutilsOption":5410,"Ġtemporary":5411,"licenses":5412,"disable":5413,"fficial":5414,"rypto":5415,">`_<":5416,"pypa":5417,"Ġbinary":5418,"rpc":5419,"rpn":5420,"inside":5421,"Ġobs":5422,"Ġexecut":5423,"lexers":5424,"Ġmatrix":5425,"Ġmatches":5426,"ĠRegular":5427,"Results":5428,"symmetries":5429,"ndarray":5430,"Ġconvolution":5431,"HeaderDict":5432,"Ġclosed":5433,"Ġstructure":5434,"Ġrotation":5435,"ĠScanner":5436,"PPORT":5437,"relu":5438,"ĠIDNAError":5439,"country":5440,"PREFIX":5441,"HookCall":5442,"ĠPoolManager":5443,"ĠDoes":5444,"secure":5445,"ĠMutableMapping":5446,"Ġ###<":5447,"BLACK":5448,"children":5449,"ArgumentParser":5450,"RetinaHead":5451,"Ġdbm":5452,"Ġinternal":5453,"Ġnatsorted":5454,"ĠOSError":5455,"Ġexplicitly":5456,"OPEN":5457,"ĠTraversableResources":5458,"Ġlexer":5459,"Ġcounts":5460,"JitAuto":5461,"Struct":5462,"YAMLError":5463,"surrog":5464,"clarative":5465,"Ġmessages":5466,"ĠFrozenSet":5467,"Ġinertia":5468,"quential":5469,"Ġolder":5470,"BnAct":5471,"hullar":5472,"lfeats":5473,"ĠPrints":5474,"Ġassoci":5475,"Ġsemant":5476,"sonSchema":5477,"ĠDistutilsOptionError":5478,"HookCaller":5479,"JitAutoFn":5480,"(['":5481,"(.*":5482,"+<":5483,"->":5484,"./":5485,"255":5486,"37":5487,"82":5488,"Ac":5489,"Basic":5490,"BAS":5491,"Custom":5492,"DOC":5493,"Dialog":5494,"Fore":5495,"GB":5496,"Length":5497,"Map":5498,"NT":5499,"PAR":5500,"RA":5501,"Render":5502,"Renderable":5503,"Sig":5504,"Simple":5505,"Swish":5506,"Session":5507,"Tri":5508,"TIME":5509,"US":5510,"VAL":5511,"Valid":5512,"Win":5513,"]:":5514,"`_":5515,"ba":5516,"bab":5517,"beta":5518,"cryptography":5519,"do":5520,"got":5521,"hub":5522,"iet":5523,"ipy":5524,"jupyter":5525,"lmdb":5526,"mix":5527,"multip":5528,"mesh":5529,"plot":5530,"sers":5531,"tty":5532,"vio":5533,"year":5534,"Ġjo":5535,"Ġescape":5536,"ining":5537,"Ġtf":5538,"Ġtmp":5539,"imgs":5540,"leep":5541,"dedent":5542,"Ġfall":5543,"itions":5544,"Ġcookie":5545,"iclass":5546,"Ġreport":5547,"Ġrepr":5548,"__.__":5549,"ane":5550,"Ġsl":5551,"Ġsparse":5552,"Ġsuffix":5553,"Ġsmoothing":5554,"Ġslice":5555,"Ġoc":5556,"editable":5557,"Ġtheme":5558,"Ġinstances":5559,"Ġdash":5560,"look":5561,"Ġwindows":5562,"ĠTag":5563,"ĠTest":5564,"Ġmid":5565,"Ġmem":5566,"aced":5567,"Ġ()<":5568,"under":5569,"Ġ'\\\\":5570,"ĠPep":5571,"ĠPSNR":5572,"ersist":5573,"peed":5574,"ĠCl":5575,"ĠCase":5576,"raveled":5577,"ĠLightningModule":5578,"ĠSafe":5579,"ĠScheduler":5580,"Ġ\"'":5581,"uplic":5582,"Ġgaolib":5583,"ĠNe":5584,"ĠIS":5585,"extend":5586,"extensions":5587,"extras":5588,"irc":5589,"andir":5590,"ssim":5591,"constructor":5592,"ulticlass":5593,"Ġconstruct":5594,"setitem":5595,"trace":5596,"traceback":5597,"poss":5598,"ĠMish":5599,"Index":5600,"Insensitive":5601,"Ġstill":5602,"Ġdeb":5603,"Ġdesigned":5604,"quat":5605,"ĠĠĠĠĠĠĠĠĠĠĠĠĠĠĠĠĠ":5606,"ĠĠĠĠĠĠĠĠĠĠĠĠĠĠĠĠĠĠĠĠ":5607,"SER":5608,"Ġbyte":5609,"Ġyet":5610,").\"\"\"<":5611,"ERT":5612,"Ġ{:":5613,"Ġ``.":5614,"usage":5615,"patial":5616,"Ġcho":5617,"Ġchat":5618,"Ġenable":5619,"ĠInit":5620,"ĠInfinity":5621,"Ġmajor":5622,"ANG":5623,"Ġscipy":5624,"address":5625,"ponents":5626,"metrics":5627,"manual":5628,"ĠSelect":5629,"Exec":5630,"configuration":5631,"Ġpassword":5632,"leneck":5633,"Ġtimedelta":5634,"Ġnewer":5635,"Ġcop":5636,"Ġneck":5637,"Ġnecessary":5638,"')]<":5639,"ĠComp":5640,"ĠDictConfig":5641,"Param":5642,"Ġtested":5643,"Ġruns":5644,"builders":5645,"Ġconfigparser":5646,"ifications":5647,"dims":5648,"minimum":5649,"Ġoptim":5650,"Ġoutputs":5651,"ĠJSON":5652,"Unknown":5653,"should":5654,"Ġedit":5655,"Ġoverride":5656,"Ġsyn":5657,"Container":5658,"mbed":5659,"Ġ517":5660,"Ġlinks":5661,"parents":5662,"Collection":5663,"ategories":5664,"Attributes":5665,"AttributeError":5666,"backends":5667,"anguages":5668,"Ġexpects":5669,"Ġblocks":5670,"Adds":5671,"UNCT":5672,"Codepoint":5673,"ĠAlign":5674,"Ġverify":5675,"Ġnamedtuple":5676,"Ġseparate":5677,"Ġtruth":5678,"alignment":5679,"Ġdownload":5680,"BBoxCoder":5681,"Ġlanguages":5682,"Ġdirectly":5683,"ĠVoxelGrid":5684,"caten":5685,"Ġbackwards":5686,"svn":5687,"Ġcertific":5688,"ĠQtCore":5689,"Scheme":5690,"Ġjoinpath":5691,"Adapter":5692,"CNN":5693,"Ġown":5694,"planes":5695,"Ġaxis":5696,"decay":5697,"Ġvariables":5698,"-------<":5699,"ĠLoad":5700,"AnchorGenerator":5701,"Ġesc":5702,"CookieJar":5703,"CCESS":5704,"vgPool":5705,"ĠmacOS":5706,"Ġantial":5707,"HWC":5708,"urtle":5709,"oldedCase":5710,"ottleneck":5711,"Entropy":5712,"cfgs":5713,"ĠEric":5714,"EXTENSIONS":5715,"OPENSSL":5716,"Ġsemantics":5717,"BASIC":5718,"viour":5719,"ĠCaseInsensitive":5720,"ĠCaseInsensitiveDict":5721,"''":5722,"++":5723,"29":5724,"403":5725,">):<":5726,">================================":5727,"?')<":5728,"AP":5729,"Ann":5730,"All":5731,"Dot":5732,"Free":5733,"Id":5734,"If":5735,"It":5736,"Khullar":5737,"Layer":5738,"Linear":5739,"Mutable":5740,"Metadata":5741,"Ordered":5742,"Pol":5743,"PTR":5744,"RC":5745,"SK":5746,"Swin":5747,"Th":5748,"Time":5749,"Too":5750,"Two":5751,"UMENT":5752,"Warned":5753,"Xiv":5754,"[\\":5755,"]):":5756,"_)<":5757,"bs":5758,"bilinear":5759,"cuboids":5760,"eval":5761,"event":5762,"fd":5763,"gener":5764,"hook":5765,"jlist":5766,"lation":5767,"mut":5768,"mas":5769,"miss":5770,"pw":5771,"pil":5772,"past":5773,"rl":5774,"ron":5775,"ta":5776,"tl":5777,"udent":5778,"wt":5779,"windows":5780,"xx":5781,"Ġ~":5782,"ĠERROR":5783,"inert":5784,"section":5785,"onic":5786,"rev":5787,"requirement":5788,"revision":5789,"reverse":5790,"Ġtoml":5791,"imp":5792,"imits":5793,"lem":5794,"left":5795,"Ġauth":5796,"Ġaround":5797,"aliases":5798,"Ġfname":5799,"Ġfmt":5800,"ionError":5801,"Ġcr":5802,"Ġcal":5803,"Ġcopyright":5804,"Ġcenter":5805,"frombytes":5806,"Ġpur":5807,"Ġpts":5808,"anet":5809,"Ġsomething":5810,"aming":5811,"amodule":5812,"etypes":5813,"Ġbpy":5814,"Ġbdist":5815,"Ġbrack":5816,"Ġdd":5817,"Ġdri":5818,"lopen":5819,"Ġwarning":5820,"Ġwere":5821,"ĠTrain":5822,"Ġmk":5823,"Ġmesh":5824,"istory":5825,"adjlist":5826,"Ġ')'":5827,"ĠPair":5828,"exc":5829,"exe":5830,"export":5831,"example":5832,"exclus":5833,"peg":5834,"ĠCreate":5835,"Ġdefine":5836,"otonic":5837,"ĠLONG":5838,"ĠSJ":5839,"ĠSp":5840,"ĠSer":5841,"allery":5842,"Ġgray":5843,"ĠNon":5844,"uble":5845,"ĠFull":5846,"ĠFilter":5847,"plus":5848,"player":5849,"const":5850,"compress":5851,"Ġuntil":5852,"Ġunless":5853,"Ġ[(":5854,"Ġloop":5855,"ixpath":5856,"ĠOP":5857,"IncompleteRead":5858,"filepath":5859,"Ġdelta":5860,"ĠBatchNorm":5861,"ĠBullet":5862,"quare":5863,"quiv":5864,"Ġosc":5865,"Ġimfrombytes":5866,"SES":5867,"Ġrad":5868,"pretrained":5869,"Ġeasy":5870,"Ġones":5871,"ĠHR":5872,"ĠHeader":5873,"ĠDepend":5874,"Ġyear":5875,"Ġcomponent":5876,"perim":5877,"ainfo":5878,"ĠUR":5879,"Ġseen":5880,"InstallRequirement":5881,"screen":5882,"questions":5883,"focal":5884,"Rep":5885,"Require":5886,"usl":5887,"REMENT":5888,"ĠInput":5889,"parseTensor":5890,"distance":5891,"moj":5892,"most":5893,"herence":5894,"attributes":5895,"Ġweb":5896,"Ġpyopenssl":5897,"addEdge":5898,"Ġouts":5899,"ĠRead":5900,"'],<":5901,"ALLOW":5902,"controller":5903,"absolute":5904,"strings":5905,"compatibility":5906,"training":5907,"Ġgeneral":5908,"Ġida":5909,"Compute":5910,"Ġquote":5911,"Ġzero":5912,"Enter":5913,"running":5914,"([^":5915,"binaries":5916,"ĠĠĠĠĠĠĠĠĠĠĠĠĠĠĠĠĠĠĠĠĠĠĠĠĠĠĠĠĠĠĠĠĠĠĠ":5917,"And":5918,"archs":5919,"Ġmeta":5920,"PYOPENSSL":5921,"Ġcontextmanager":5922,"Ġparticular":5923,"Ġloads":5924,"Ġposixpath":5925,"Ġevent":5926,"poly":5927,"policy":5928,"share":5929,"Chunk":5930,"VERBOSE":5931,"5678":5932,"Ġcallback":5933,"ĠConvBnAct":5934,"wrappers":5935,"Ġactivations":5936,"ĠEngine":5937,"ĠEnvironment":5938,"IIII":5939,"Provides":5940,"Ġoperations":5941,"akes":5942,"Ġmeasurement":5943,"Ġworking":5944,"Ġtransformation":5945,"callback":5946,"Ġconverting":5947,"RequestField":5948,"curity":5949,"hostname":5950,"Ġscripts":5951,"Ġexpires":5952,"obile":5953,"symbol":5954,"original":5955,"Extra":5956,"nectTimeoutError":5957,"METHODS":5958,"UEUE":5959,"MessageDefect":5960,"leted":5961,"ĠScale":5962,"itespace":5963,"ĠNoReturn":5964,"DOWS":5965,"ĠVoxelization":5966,"Ġnegative":5967,"ĠLeaf":5968,"Ġmeaning":5969,"ĠProtocolError":5970,"ĠAdditional":5971,"Scene":5972,"ipeline":5973,"fully":5974,"sqrt":5975,"Ġincluding":5976,"ĠProxyScheme":5977,"Ġsigma":5978,"Ġhandling":5979,"EXTRAS":5980,"ognition":5981,"BITS":5982,"HANUM":5983,"Update":5984,"ediainfo":5985,"ENUMRES":5986,"Ġwhole":5987,"Ġ------------------------------------------------":5988,"installed":5989,"retinanet":5990,"Original":5991,"REQUIREMENT":5992,"Ġappropri":5993,"BRACKET":5994,"CrossEntropy":5995,"ĠLegacyVersion":5996,"ĠGoogle":5997,"Ġ.-.":5998,"Ġassociated":5999,"Ġbracket":6000,"ALLOWED":6001,"\".<":6002,"\"),":6003,"\"}<":6004,"'),":6005,")\"<":6006,")])<":6007,"*)":6008,".\")<":6009,".\",<":6010,"/')<":6011,"33":6012,">(":6013,">~~~~~~~~~~~~~~~~":6014,"Action":6015,"BC":6016,"DER":6017,"Equal":6018,"Fl":6019,"Filename":6020,"Highlighter":6021,"IX":6022,"KEN":6023,"Me":6024,"MIME":6025,"Names":6026,"NERS":6027,"On":6028,"Print":6029,"Range":6030,"RFC":6031,"RPC":6032,"VG":6033,"ViT":6034,"We":6035,"You":6036,"ZE":6037,"[^":6038,"\\\"":6039,"]\"<":6040,"bine":6041,"cing":6042,"card":6043,"camera":6044,"dated":6045,"drawing":6046,"ev":6047,"fx":6048,"final":6049,"ho":6050,"hang":6051,"hModule":6052,"iro":6053,"ja":6054,"lper":6055,"lision":6056,"mk":6057,"mac":6058,"oU":6059,"ough":6060,"ral":6061,"ration":6062,"rate":6063,"sampl":6064,"tx":6065,"ture":6066,"tility":6067,"uation":6068,"visible":6069,"xs":6070,"yte":6071,"yaw":6072,"Ġ).":6073,"Ġ64":6074,"Ġraw":6075,"Ġlfeats":6076,"ored":6077,"iny":6078,"inject":6079,"inery":6080,"segment":6081,"ond":6082,"----------<":6083,"rep":6084,"imin":6085,"importlib":6086,"Ġaugment":6087,"Ġaverage":6088,"alpha":6089,"Ġfill":6090,"Ġfails":6091,"itz":6092,"itect":6093,"Ġcar":6094,"Ġclean":6095,"Ġcircle":6096,"isor":6097,"Ġreal":6098,"Ġrelease":6099,"__}":6100,"__:<":6101,"anel":6102,"urlopen":6103,"Ġside":6104,"ctx":6105,"Ġinsert":6106,"Ġinverse":6107,"Ġbind":6108,"ented":6109,"Ġwd":6110,"Ġwrong":6111,"ĠTable":6112,"ĠTree":6113,"ĠTempDirectory":6114,"Ġ'*.":6115,"ĠPO":6116,"expression":6117,"Ġissub":6118,"ĠCast":6119,"ĠCuboids":6120,"Ġtoo":6121,"ĠLog":6122,"ĠLocal":6123,"ĠStr":6124,"ĠStop":6125,"ĠScalar":6126,"Ġ28":6127,"idna":6128,"that":6129,"Ġguess":6130,"Ġgenshi":6131,"Ġ.._":6132,"izes":6133,"ĠDataset":6134,"Ġvisual":6135,"Ġvisited":6136,"ĠFoldedCase":6137,"Ġhad":6138,"Ġhand":6139,"ĠhModule":6140,"tered":6141,"conf":6142,"conn":6143,"endswith":6144,"comment":6145,"combin":6146,"Ġconsum":6147,"Ġconstants":6148,"apes":6149,"apers":6150,"trust":6151,"ĠObject":6152,"('\\":6153,"Init":6154,"Inter":6155,"Ġ200":6156,"Ġimm":6157,"area":6158,"ifies":6159,"ĠWhen":6160,"ango":6161,"anged":6162,"Ġcombin":6163,"ĠUN":6164,"ĠElement":6165,"Construct":6166,"002":6167,"Ġ``<":6168,"ĠVer":6169,"Representer":6170,"usion":6171,"users":6172,"REEN":6173,"REAM":6174,"apped":6175,"appname":6176,"Ġrespon":6177,"Ġenc":6178,"Ġlists":6179,"ĠConvert":6180,"Ġ**_":6181,"parsed":6182,"background":6183,"Ġmaint":6184,"dicts":6185,"Ġpyparsing":6186,"Ġlibraries":6187,"measure":6188,"Ġclassification":6189,"Ġpackaging":6190,"Ġnoise":6191,"Ġkind":6192,"sertionError":6193,"Stack":6194,"State":6195,"2231":6196,"contain":6197,"Ġdatabase":6198,"SIZE":6199,"Ġlearning":6200,"Ġleading":6201,"neck":6202,"ĠComma":6203,"special":6204,"DeprecationWarning":6205,"ĠKernel":6206,"achinery":6207,"ENTRY":6208,"Comment":6209,"after":6210,"rotation":6211,"rotli":6212,"Ġnamespaces":6213,"dataloader":6214,"Entry":6215,"ILINE":6216,"requested":6217,"Ġdivide":6218,"Ġlogic":6219,"Ġinterpreter":6220,"Ġminor":6221,"Ġ...]:<":6222,"Ġinstalling":6223,"1234":6224,"CEPTION":6225,"ĠJupyterMixin":6226,"polate":6227,"implementation":6228,"icker":6229,"Unit":6230,"show":6231,"flict":6232,"Pooling":6233,"Ġtargets":6234,"TRA":6235,"Ġsymmetries":6236,"Note":6237,"cred":6238,"Ġactually":6239,"Ġgraphs":6240,"DataLoader":6241,"ryptod":6242,"STRING":6243,"IDENTIFIER":6244,"going":6245,"ĠFileClient":6246,"Ġallows":6247,"dbm":6248,"Ġpoly":6249,"Ġworks":6250,"Ġtrailer":6251,"Ġmatching":6252,"anguage":6253,"Forward":6254,"Clause":6255,"TreeWalker":6256,"sensit":6257,"overflow":6258,"latest":6259,"ĠStyleType":6260,"UND":6261,"ndgrid":6262,"origin":6263,"ElementTree":6264,"aoLib":6265,"ANDLE":6266,"ĠNameError":6267,"global":6268,"transpose":6269,"HTMLElements":6270,"mmetric":6271,"COMMA":6272,"HASH":6273,"emojis":6274,"Ġsimilar":6275,"Ġsaved":6276,"Backend":6277,"samples":6278,"Align":6279,"Scale":6280,"Ġunittest":6281,"IMAGE":6282,"SUPPORT":6283,"Iteration":6284,"riterion":6285,"timestamp":6286,"Ġincluded":6287,"ĠCallback":6288,"Count":6289,"Ġdefinition":6290,"Ġdefinitions":6291,"threading":6292,"ĠConvolutional":6293,"Ġagainst":6294,"pgen":6295,"ĠFeature":6296,"ministr":6297,"ĠSUCCESS":6298,"Ġproblem":6299,"ĠBOOL":6300,"Ġquaternions":6301,"cookies":6302,"Ġdescribed":6303,"clarativeBase":6304,"Sigmoid":6305,"bably":6306,"Ġcopied":6307,"Ġantialias":6308,"TwoStageDetector":6309,"ĠCasting":6310,"\"].":6311,"'ll":6312,"+)":6313,"/',":6314,"77":6315,"95":6316,":]<":6317,"={}":6318,"AF":6319,"Abstract":6320,"Blur":6321,"CV":6322,"DS":6323,"Do":6324,"Dirs":6325,"FS":6326,"Float":6327,"FFIX":6328,"Given":6329,"Gui":6330,"Handle":6331,"Mode":6332,"Mod":6333,"MULT":6334,"NN":6335,"NamedTuple":6336,"Over":6337,"OID":6338,"Optimizer":6339,"Please":6340,"Raw":6341,"SOR":6342,"Span":6343,"Types":6344,"URE":6345,"View":6346,"VOID":6347,"When":6348,"`,":6349,"ae":6350,"aken":6351,"bio":6352,"basic":6353,"bwd":6354,"brand":6355,"bullet":6356,"cision":6357,"cognition":6358,"dic":6359,"done":6360,"ech":6361,"efficient":6362,"fwd":6363,"gra":6364,"gzip":6365,"gamma":6366,"hr":6367,"ker":6368,"ling":6369,"ming":6370,"more":6371,"mind":6372,"olean":6373,"rst":6374,"rass":6375,"raceback":6376,"snowflake":6377,"tri":6378,"tol":6379,"tail":6380,"ties":6381,"two":6382,"vgg":6383,"venv":6384,"|<":6385,"}/":6386,"Ġ),<":6387,"inc":6388,"inen":6389,"seq":6390,"onal":6391,"onMultipart":6392,"repeat":6393,"Ġtex":6394,"Ġtied":6395,"Ġtaken":6396,"atin":6397,"atched":6398,"storage":6399,"student":6400,"porter":6401,"lections":6402,"dest":6403,"alar":6404,"Ġfont":6405,"Ġframes":6406,"Ġcp":6407,"Ġcos":6408,"Ġcould":6409,"Ġctx":6410,">###":6411,"isinstance":6412,"Ġpop":6413,"Ġpair":6414,"__``":6415,"__':<":6416,"urb":6417,"Ġshe":6418,"Ġsweep":6419,"edPath":6420,"esian":6421,"Ġdom":6422,"Ġdynamic":6423,"Ġwritten":6424,"ĠTk":6425,"ĠTCO":6426,"Ġmu":6427,"acon":6428,"unc":6429,"unit":6430,"unch":6431,"ifest":6432,"ĠPack":6433,"ĠPip":6434,"ĠPose":6435,"chs":6436,"chan":6437,"Ġliterals":6438,"pypy":6439,"pep":6440,"ĠCre":6441,"igure":6442,"ĠSa":6443,"ĠSystem":6444,"clination":6445,"Ġ\"{":6446,"idi":6447,"Ġgot":6448,"Ġground":6449,"Ġassum":6450,"ĠNull":6451,"ĠGuild":6452,"ĠRow":6453,"ĠRetry":6454,"ĠRemo":6455,"ĠDat":6456,"ĠDumper":6457,"extract":6458,"emon":6459,"ipes":6460,"Ġhacked":6461,"ENG":6462,"ENonMultipart":6463,"come":6464,"coming":6465,"Ġcondition":6466,"``)<":6467,"Ġuv":6468,"Ġlow":6469,"sets":6470,"setter":6471,"setParse":6472,"ĠOutput":6473,"libException":6474,"ĠMo":6475,"ĠMin":6476,"ĠMethod":6477,"ĠMust":6478,"ĠMake":6479,"ĠMobile":6480,"Invariant":6481,"Ġstore":6482,"Ġstop":6483,"Ġdeter":6484,"Ġdepth":6485,"Ġdeterm":6486,"Ġ2005":6487,"ĠBL":6488,"ĠBN":6489,"ĠBlock":6490,"()`":6491,"()]<":6492,"ckpts":6493,"formdata":6494,"Ġexpose":6495,"aterial":6496,"Ġrand":6497,"Ġrfeats":6498,"2022":6499,"ĠWith":6500,"Ġ+<":6501,"(\"_":6502,"ĠHMODULE":6503,"Ġ384":6504,"ĠDeform":6505,"boolean":6506,"msvc":6507,"ĠUTF":6508,"Ġsen":6509,"Ġseconds":6510,"Ġprobably":6511,"prop":6512,"001":6513,"schema":6514,"Ġ``__":6515,"ĠGenerator":6516,"INCEPTION":6517,"typeconv":6518,"using":6519,"REPL":6520,"artesian":6521,"egative":6522,"DEV":6523,"resol":6524,"resolver":6525,"iterable":6526,"ĠConstructor":6527,"ĠImple":6528,"Ġable":6529,"Lock":6530,"ides":6531,"Ġprefetch":6532,"Ġprecision":6533,"Resize":6534,"managed":6535,"ĠSelf":6536,"ĠSection":6537,"ĠReResNet":6538,"collections":6539,"ITEL":6540,"BaseDetector":6541,"Ġtimezone":6542,"instancecheck":6543,"ĠArch":6544,"Ġdataloader":6545,"absx":6546,"printable":6547,"PyTorch":6548,"DIA":6549,"Ġjit":6550,"Ġ2019":6551,"forcel":6552,"ĠStart":6553,"specifier":6554,"ĠKe":6555,"Ġgenerating":6556,"Ġids":6557,"Ġreaders":6558,"achine":6559,"ultiplex":6560,"Ġextras":6561,"[:-":6562,"Ġattn":6563,"Encoder":6564,"Ġiterdir":6565,"Ġregex":6566,"ILLEGAL":6567,"([\"":6568,"Ġupper":6569,"URSOR":6570,"encoded":6571,"noise":6572,"Ġfinding":6573,"csv":6574,"Ġelapsed":6575,"Returns":6576,"dotenv":6577,"Ġserialize":6578,"1904":6579,"CHOR":6580,"flip":6581,"Ġvars":6582,"Ġvariant":6583,"ĠDistutilsError":6584,"PoolError":6585,"Ġoverlay":6586,"Ġsymbol":6587,"Ġtempdir":6588,"antize":6589,"Protocol":6590,"spired":6591,"spinner":6592,"IDNAError":6593,"Ġnormalized":6594,"Ġstats":6595,"BOOL":6596,"ĠQueue":6597,"modern":6598,"Ġ'.'<":6599,"RequestHandler":6600,"Ġutilities":6601,"Ġbinascii":6602,"zipfile":6603,"RetryError":6604,"rphan":6605,"Ġcreating":6606,"ĠRequestField":6607,"normpath":6608,"sensor":6609,"Ġobtain":6610,"IGNERS":6611,"rgba":6612,"Ġdependency":6613,"Add":6614,"obb":6615,"closed":6616,"cloud":6617,"rcnn":6618,"Ġmaps":6619,"Ġcompare":6620,"ĠDataLoader":6621,"ranch":6622,"Ġmultiprocessing":6623,"Ġxmlrpc":6624,"BUIL":6625,"Methods":6626,"ĠDEBUG":6627,"Ġbehaviour":6628,"Ġkeepdim":6629,"assertTrue":6630,"Ġ{}\".":6631,"ASSIGNERS":6632,"PPING":6633,"augmentations":6634,"Ġdecoded":6635,"counts":6636,"Creates":6637,"Marker":6638,"Ġdestination":6639,"IMENonMultipart":6640,"ĠSTREAM":6641,"ĠSpecifierSet":6642,"ValueException":6643,"ĠLearning":6644,"LibraryEx":6645,"TOKEN":6646,"WHITEL":6647,"chunks":6648,"Ġgood":6649,"SUFFIX":6650,"dependencies":6651,"Ġvoxelization":6652,"pixels":6653,"Ġaxes":6654,"Ġcycle":6655,"Ġdummy":6656,"VIDIA":6657,"ĠWINDOWS":6658,"Ġseeds":6659,"Ġconnecting":6660,"ĠOnly":6661,"toklist":6662,"ĠParameters":6663,"ĠParameter":6664,"crementalDecoder":6665,"CODERS":6666,"Ġvendored":6667,"RoIHead":6668,"IFY":6669,"invites":6670,"Ġevicted":6671,"separated":6672,">`_.<":6673,"jaraco":6674,"luon":6675,"papertype":6676,"untimeError":6677,"FORMAT":6678,"MOVE":6679,"Ġbundle":6680,"Ġterminal":6681,"Ġprimary":6682,"session":6683,"Ġ::=":6684,"BLACKLIST":6685,"sonSchemaValueException":6686,"lookup":6687,"ĠClient":6688,"ĠSelective":6689,"Ġcertificate":6690,"SKIP":6691,"SwinTransformer":6692,"inertial":6693,"Ġpurpose":6694,"Ġradius":6695,"RepPoints":6696,"ĠProxySchemeUnsupported":6697,"Ġappropriate":6698,"itecture":6699,"sensitively":6700,"setParseAction":6701,"forcelist":6702,"ultiplexedPath":6703,"WHITELIST":6704,"!\")<":6705,")/":6706,")\")<":6707,".'":6708,".')<":6709,"28":6710,"46":6711,"52":6712,"65":6713,"68":6714,"=%":6715,"=['":6716,">.":6717,">\"<":6718,">|<":6719,"Author":6720,"ACT":6721,"After":6722,"BN":6723,"CRE":6724,"CAL":6725,"COL":6726,"CPU":6727,"Down":6728,"DPN":6729,"Dumper":6730,"Epoch":6731,"Embed":6732,"FE":6733,"Full":6734,"GBA":6735,"HMODULE":6736,"JIT":6737,"Literal":6738,"Local":6739,"LightningModule":6740,"MS":6741,"MY":6742,"MODE":6743,"NOT":6744,"NormalizedName":6745,"Operator":6746,"SV":6747,"SENT":6748,"SSES":6749,"WN":6750,"With":6751,"XY":6752,"Xt":6753,"\\<":6754,"]\\":6755,"].<":6756,"]):<":6757,"]]:<":6758,"_',<":6759,"br":6760,"cr":6761,"cross":6762,"dx":6763,"dy":6764,"dom":6765,"dialog":6766,"eff":6767,"finder":6768,"iate":6769,"jip":6770,"kv":6771,"linux":6772,"mime":6773,"machinery":6774,"optional":6775,"pp":6776,"pure":6777,"rf":6778,"race":6779,"ranges":6780,"sw":6781,"sin":6782,"tra":6783,"vial":6784,"void":6785,"vider":6786,"Ġ$":6787,"Ġem":6788,"Ġembed":6789,"Ġ-------<":6790,"Ġ----------<":6791,"erge":6792,"inay":6793,"reference":6794,"representer":6795,"stages":6796,"road":6797,"roff":6798,"rogram":6799,"robot":6800,"levels":6801,"dev":6802,"detection":6803,"als":6804,"alent":6805,"alive":6806,"Ġfeed":6807,"Ġfragment":6808,"utc":6809,"iters":6810,"Ġcap":6811,"Ġcare":6812,"ison":6813,"ising":6814,"isdir":6815,"Ġpert":6816,"Ġpdb":6817,"Ġplot":6818,"Ġpitch":6819,"Ġpotent":6820,"Ġred":6821,"Ġrecursive":6822,"anal":6823,"ancy":6824,"Ġsus":6825,"Ġsdist":6826,"Ġod":6827,"edu":6828,"edYAMLError":6829,"ili":6830,"ilroad":6831,"asarray":6832,"Ġden":6833,"Ġdst":6834,"Ġwarn":6835,"Ġwrit":6836,"Ġwalker":6837,"Ġwraps":6838,"Ġwheels":6839,"ĠTF":6840,"Ġmkdir":6841,"Ġmusl":6842,"Ġ(-":6843,"adene":6844,"ĠPart":6845,"ĠPadding":6846,"exclude":6847,"change":6848,"Ġlimits":6849,"pyopenssl":6850,"ĠCSI":6851,"ĠCCompiler":6852,"ĠCoun":6853,"oders":6854,"elif":6855,"Ġdefining":6856,"igr":6857,"Ġang":6858,"Ġforeg":6859,"clone":6860,"Ġ\"$":6861,"Ġ\"-":6862,"Ġ\"/":6863,"ĠAda":6864,"ĠABC":6865,"Ġascii":6866,"Ġassigned":6867,"ĠNAME":6868,"ĠNormalizedName":6869,"ĠGiven":6870,"ĠGaoLib":6871,"ĠRep":6872,"ĠRuntimeError":6873,"ĠDO":6874,"ĠFore":6875,"ĠFIL":6876,"ateescape":6877,"__('":6878,"ENCOD":6879,"cons":6880,"compose":6881,"``).<":6882,"Ġunsafe":6883,"Ġ[],":6884,"Ġlosses":6885,"application":6886,"parison":6887,"ected":6888,"libvtk":6889,"ĠMix":6890,"ĠMAR":6891,"ĠMlp":6892,"('_":6893,"Ġstx":6894,"Ġdeleted":6895,"verts":6896,"verbose":6897,"query":6898,"ĠTheme":6899,"Ġrd":6900,"Ġrbbox":6901,"prep":6902,"oked":6903,"ĠWin":6904,"(\"-":6905,"(\"/":6906,"ĠHead":6907,"ĠHashes":6908,"ntuple":6909,"Ġ30":6910,"Ġaltgraph":6911,"ĠDeep":6912,"ĠDepth":6913,"ifierHead":6914,"ĠUINT":6915,"Ġsep":6916,"Ġsegment":6917,"ĠEd":6918,"ĠEnum":6919,"':'":6920,"Ġprop":6921,"texture":6922,"figure":6923,"...<":6924,"Ġ``'":6925,"ĠVS":6926,"ĠValue":6927,"ĠVinay":6928,"REST":6929,"Ġchose":6930,"Ġresume":6931,"olutions":6932,"boxes":6933,"ORY":6934,"Ġencoun":6935,"residual":6936,"Ġlisted":6937,"iteritems":6938,"basename":6939,"backward":6940,"attrib":6941,"Ġpywin":6942,"Ġpyrogram":6943,"Ġhasn":6944,"Ġscores":6945,"Ġscandir":6946,"addr":6947,"ĠTensorflow":6948,"ĠstringEnd":6949,"ĠstringStart":6950,"ResNe":6951,"ĠUnix":6952,"ĠUnpack":6953,"ARY":6954,"readthe":6955,"Ġhelper":6956,"ITH":6957,"attrs":6958,"Ġbasename":6959,"Ġbasestring":6960,"Ġbuilding":6961,"ereleases":6962,"ormalize":6963,"SIG":6964,"Ġnewlist":6965,"ImportError":6966,"Ġadding":6967,"Ġadditions":6968,"sonHandler":6969,"owner":6970,"Ġchecking":6971,"Ġrequested":6972,"tests":6973,"Ġ2017":6974,"forward":6975,"ĠCombine":6976,"Ġfilesystem":6977,"aves":6978,"installer":6979,"Ġ\\\"":6980,"ĠBaseResolver":6981,"covery":6982,"Ġzlib":6983,"Encoding":6984,"Engine":6985,"maximum":6986,"runtime":6987,"video":6988,"uptoolsDeprecationWarning":6989,"AndS":6990,"inputs":6991,"Ġdivisor":6992,"EXPORT":6993,"Ġplan":6994,"Ġplain":6995,"URI":6996,"URM":6997,"netloc":6998,"mins":6999,"notrace":7000,"Ġ...]<":7001,"theme":7002,"128":7003,"Ġdimensions":7004,"position":7005,"StringAndS":7006,"sysconfig":7007,"Ġtimes":7008,"TensorCollection":7009,"short":7010,"CHW":7011,"flatten":7012,"ĠDistutilsExec":7013,"VERIFY":7014,"Ġcalling":7015,"Ġbetter":7016,"Distutils":7017,"Ġflag":7018,"TextFor":7019,"CODE":7020,"statement":7021,"cairo":7022,"normalize":7023,"Ġoperation":7024,"ĠQUEUE":7025,"INEL":7026,"ĠInvalidHeader":7027,"Ġspan":7028,"Ġspawn":7029,"blocks":7030,"ĠXXX":7031,"jsonschema":7032,"NODE":7033,"Ġdifference":7034,"Ġwarp":7035,"MENTS":7036,"ĠoriginalTextFor":7037,"rpm":7038,"LOSSES":7039,"ĠInstallationError":7040,"SCON":7041,"Sequence":7042,"Sequential":7043,"FCBBoxHead":7044,"blue":7045,"obs":7046,"platformdirs":7047,"renderer":7048,"ĠCharset":7049,"hashes":7050,"PATTERN":7051,"Ġqy":7052,"ĠAlso":7053,"ANDARD":7054,"ĠParseException":7055,"159":7056,"transport":7057,"Ġlonger":7058,"440":7059,"skip":7060,"skimage":7061,"Ġstdlib":7062,"returns":7063,"randint":7064,"Ġsimply":7065,"ĠPackageFinder":7066,"ĠSEQUENCE":7067,"ĠNewType":7068,"INTRESOURCE":7069,"ĠConfiguration":7070,"prior":7071,"Ġpixel":7072,"Ġpatterns":7073,"terminal":7074,"2007":7075,"WHITE":7076,"mitter":7077,"Ġattrs":7078,"StyleType":7079,"ĠQtGui":7080,"lqs":7081,"Ġtranslate":7082,"ĠClassifierHead":7083,"ĠThread":7084,"Prefetch":7085,"Ġ508":7086,"ĠHowever":7087,"ĠEXTENSION":7088,"Ġindicate":7089,"Ġindicating":7090,"Ġnatsort":7091,"ĠPrefetch":7092,"Ġperformance":7093,"ACEMENTS":7094,"CASE":7095,"SYSCON":7096,"similar":7097,"FromStringAndS":7098,"unpacked":7099,"ĠMAX":7100,"ĠMarker":7101,"autograd":7102,"ĠHelpers":7103,"drive":7104,"drivers":7105,"ĠSupports":7106,"ĠOtherwise":7107,"SPACE":7108,"extractor":7109,"bzr":7110,"Ġmimetypes":7111,"ĠLibrary":7112,"Ġidea":7113,"ĠIPv":7114,"ĠBuildEnvironment":7115,"Ġremote":7116,"Ġeffect":7117,"MANY":7118,"GENERATORS":7119,"Accept":7120,"ĠInfinityType":7121,"MutableMapping":7122,"OrderedDict":7123,"Policy":7124,"Thread":7125,"quivalent":7126,"moji":7127,"reppoints":7128,"ĠStopIteration":7129,"Initialize":7130,"Ġimmutable":7131,"ryptodome":7132,"Modifications":7133,"grade":7134,"ĠSajip":7135,"ĠMobileNet":7136,"Ġdetermine":7137,"REPLACEMENTS":7138,"egativeInfinity":7139,"SUFFIXES":7140,"SENTINEL":7141,"Ġperturb":7142,"Ġforeground":7143,"ENCODING":7144,"ĠMARKER":7145,"Ġencountered":7146,"readthedocs":7147,"ĠDistutilsExecError":7148,"FromStringAndSize":7149,"\"])<":7150,"'\")<":7151,"'\"<":7152,")``":7153,")(\"":7154,"-'":7155,".)":7156,"39":7157,"47":7158,"66":7159,"79":7160,"93":7161,":\",":7162,";',<":7163,">----------------":7164,">...":7165,"@@":7166,"Augmentation":7167,"BLE":7168,"BytesIO":7169,"CR":7170,"CS":7171,"Candidates":7172,"CCompiler":7173,"CERT":7174,"DB":7175,"Dat":7176,"Dense":7177,"EM":7178,"Esc":7179,"Form":7180,"Function":7181,"FOL":7182,"Frame":7183,"Factory":7184,"GS":7185,"GCN":7186,"Htt":7187,"IENT":7188,"Legacy":7189,"Lookup":7190,"LANG":7191,"NING":7192,"OPTION":7193,"Pl":7194,"Pose":7195,"Queue":7196,"Run":7197,"RIP":7198,"SO":7199,"Spec":7200,"Side":7201,"Support":7202,"Some":7203,"SOCKS":7204,"Used":7205,"Util":7206,"WIN":7207,"XML":7208,"Your":7209,"]')<":7210,"_=":7211,"_):<":7212,"`.":7213,"aim":7214,"aded":7215,"aai":7216,"bf":7217,"bet":7218,"bright":7219,"bones":7220,"bodies":7221,"cb":7222,"ccess":7223,"ccompiler":7224,"dc":7225,"ders":7226,"everse":7227,"evaluation":7228,"elem":7229,"fraction":7230,"fba":7231,"gin":7232,"gon":7233,"gist":7234,"hf":7235,"jpeg":7236,"kip":7237,"kind":7238,"larg":7239,"missing":7240,"mediainfo":7241,"nan":7242,"nam":7243,"nel":7244,"ndim":7245,"ph":7246,"phan":7247,"pair":7248,"ront":7249,"rera":7250,"sav":7251,"such":7252,"team":7253,"tts":7254,"uv":7255,"visual":7256,"vaai":7257,"xies":7258,"zoo":7259,"}'":7260,"}\\":7261,"}')<":7262,"Ġign":7263,"-----<":7264,"ori":7265,"oriz":7266,"erm":7267,"insensitively":7268,"onath":7269,"onkey":7270,"----------":7271,"report":7272,"reward":7273,"represent":7274,"reassign":7275,"Ġturn":7276,"Ġtakes":7277,"ately":7278,"imread":7279,"imestamp":7280,"ename":7281,"Ġactions":7282,"Ġaugmentation":7283,"\"\",":7284,"dep":7285,"deprecation":7286,"ality":7287,"hemes":7288,"Ġfew":7289,"Ġfinder":7290,"Ġfigure":7291,"arange":7292,"Ġcallable":7293,"Ġcoder":7294,"Ġcpu":7295,"Ġcmp":7296,"Ġcause":7297,"Ġcwd":7298,"Ġcubic":7299,"Ġcategories":7300,">#################################":7301,"isfile":7302,"Ġpb":7303,"Ġpublic":7304,"Ġpush":7305,"Ġrepl":7306,"Ġrecom":7307,"Ġresize":7308,"Ġrevision":7309,"ana":7310,"urard":7311,"urity":7312,"Ġsw":7313,"Ġsure":7314,"Ġsquare":7315,"Ġoct":7316,"ama":7317,"ilk":7318,"asing":7319,"async":7320,"ctuation":7321,"Ġintr":7322,"Ġinject":7323,"Ġinstant":7324,"Ġbit":7325,"Ġbub":7326,"Ġnat":7327,"Ġndigits":7328,"Ġdf":7329,"Ġdraw":7330,"ental":7331,"Ġwait":7332,"ĠTested":7333,"Ġmix":7334,"Ġmulticlass":7335,"unsafe":7336,"unnel":7337,"unctuation":7338,"adam":7339,"Ġ''":7340,"Ġ'--":7341,"channel":7342,"Ġlik":7343,"Ġlxml":7344,"Ġlazy":7345,"pygram":7346,"pyparsing":7347,"ĠCandidate":7348,"ĠCUDA":7349,"ĠCartesian":7350,"odm":7351,"elapsed":7352,"elta":7353,"ability":7354,"Ġdefines":7355,"ravel":7356,"otes":7357,"ulabel":7358,"ceil":7359,"agic":7360,"ĠSim":7361,"ĠSame":7362,"ĠSome":7363,"ĠSqueeze":7364,"ĠSparseTensor":7365,"clib":7366,"Ġ256":7367,"ĠAvgPool":7368,"Ġ#<":7369,"thr":7370,"Ġgpu":7371,"ĠGPU":7372,"ĠIN":7373,"ĠRED":7374,"ĠRGB":7375,"ureTransport":7376,"ĠDot":7377,"ĠDOC":7378,"ĠDown":7379,"external":7380,"andmark":7381,"Ġvirtualenv":7382,"ĠPyQt":7383,"ĠFast":7384,"ĠFIX":7385,"Ġhapp":7386,"Ġhost":7387,"Ġhuman":7388,"ENAME":7389,"connect":7390,"ends":7391,"endar":7392,"Ġunmap":7393,"Ġ[]":7394,"Ġ11":7395,"Ġ150":7396,"ĠOri":7397,"ĠMatch":7398,"ĠMODE":7399,"('/":7400,"Inv":7401,"filepost":7402,"quently":7403,"()[":7404,"Ġexport":7405,"Ġexit":7406,"Ġexact":7407,"Ġexpress":7408,"urls":7409,"Ġsoft":7410,"ĠThey":7411,"://...":7412,"estero":7413,"Ġgets":7414,"ised":7415,"ICODE":7416,"Ġcomments":7417,"Ġcompress":7418,"Ġxrange":7419,"indll":7420,"Installation":7421,"Ġproj":7422,"Ġproperty":7423,"Ġprotocol":7424,"futures":7425,"prove":7426,"produ":7427,"provid":7428,"005":7429,"ATE":7430,"ĠVideo":7431,"reement":7432,"Represent":7433,"REMOVE":7434,"RECASE":7435,"=''):<":7436,"Ġchannel":7437,"Ġsetattr":7438,"Ġsetting":7439,"ĠInst":7440,"ĠInclude":7441,"basenames":7442,"Ġabstract":7443,"parsedate":7444,"herical":7445,"ustify":7446,"vendored":7447,"Ġpred":7448,"Ġhashed":7449,"Ġshared":7450,"Ġroi":7451,"2103":7452,"Ġscalar":7453,"iented":7454,"ĠUnsafe":7455,"Ġoutfile":7456,"ETE":7457,"Exit":7458,"ĠReitz":7459,"']:<":7460,"tiny":7461,"Ġdefaults":7462,"Ġbackoff":7463,"inalg":7464,"HEEL":7465,"Ġsubse":7466,"Ġsubfolder":7467,"Ġ['../":7468,"SIM":7469,"SIBLE":7470,"cessed":7471,"Ġaddition":7472,"iants":7473,"SSLError":7474,"Ġlevels":7475,"Ġcheckpoint":7476,"ĠResolution":7477,"Network":7478,"DIST":7479,"Ġneighb":7480,"Ġdoing":7481,"interpreter":7482,"Dictionary":7483,"cheme":7484,"nsure":7485,"ĠStandard":7486,"ĠComment":7487,"ĠDictCache":7488,"Ġgenerates":7489,":`.":7490,"Ġreads":7491,"ENTER":7492,"vertices":7493,"Compat":7494,"Ġdetect":7495,"tters":7496,"Ġiterator":7497,"Ġregard":7498,"checkable":7499,"ĠĠĠĠĠĠĠĠĠĠĠĠĠĠĠĠĠĠĠĠĠĠĠĠĠĠĠĠĠĠ":7500,"Ġacross":7501,"andlers":7502,"ĠHTTPException":7503,"ĠHTTPHeaderDict":7504,"EXT":7505,"timeout":7506,"Ġdocutils":7507,"scriptable":7508,"iao":7509,"velib":7510,"PYTH":7511,"minor":7512,"Convex":7513,"workers":7514,"monos":7515,"markup":7516,"ĠCallableT":7517,"Ġcolored":7518,"Ġloaders":7519,"Ġdims":7520,"Ġdimension":7521,"posals":7522,"ĠJonath":7523,"ĠSettings":7524,"ĠSetuptoolsDeprecationWarning":7525,"afeLoader":7526,"polys":7527,"dots":7528,"ĠTexture":7529,"ĠTextType":7530,"ikit":7531,"sigma":7532,"Ġvariants":7533,"TERM":7534,"ĠProject":7535,"560":7536,"EPS":7537,"outputs":7538,"display":7539,"Ġtreebuilder":7540,"Ġflush":7541,"Ġflatten":7542,"spawn":7543,"Ġenter":7544,"Ġentries":7545,"decoded":7546,"Ġmanager":7547,"HEADER":7548,"Ġinitialize":7549,"Ġmodern":7550,"Ġmodified":7551,"Ġvalidation":7552,"Ġdirname":7553,"hance":7554,"FIG":7555,"signal":7556,"ĠInvalidSpecifier":7557,"ĠInvalidCodepoint":7558,"Detection":7559,"udnn":7560,"Ġspaces":7561,"enterPoint":7562,"Attn":7563,"Ġtraversable":7564,"ĠControl":7565,"NIST":7566,"NORECASE":7567,"pypirc":7568,"directed":7569,"{}\\\"":7570,"ĠRotatedSingle":7571,"Ġincludes":7572,"ĠRequestError":7573,"LOB":7574,"digit":7575,"Ġwrapping":7576,"SCRIP":7577,"override":7578,"assigners":7579,"encodings":7580,"Ġexpand":7581,"blind":7582,"clovaai":7583,"ĠnamespaceHTMLElements":7584,"rendered":7585,"Ġconvnext":7586,"Ġhandles":7587,"Codec":7588,"Ġparents":7589,"ĠPROJECT":7590,"dumps":7591,"Ġqz":7592,"Ġmypy":7593,"('.')<":7594,"ĠParseResults":7595,"Ġclose":7596,"partition":7597,"softmax":7598,"enneth":7599,"Ġfrozen":7600,"ĠHTMLParser":7601,"Ġseparator":7602,"ĠANSI":7603,"blesort":7604,"ĠSSLTransport":7605,"ĠEfficientNet":7606,"Tests":7607,"Ġadapted":7608,"Credential":7609,"bitrary":7610,"Ġsignature":7611,"Ġstdout":7612,"Registry":7613,"Ġagreement":7614,"longest":7615,"ĠPoolError":7616,"ĠGraphError":7617,"Ġmsgpack":7618,"Ġinvoked":7619,"ĠSTANDARD":7620,"TOML":7621,"WHA":7622,"ĠClassNotFound":7623,"ĠSyntax":7624,"ĠResourceReader":7625,"Ġrefine":7626,"encyWarning":7627,"Adapted":7628,"Generic":7629,"cosp":7630,"Ġreplacement":7631,"ENTIAL":7632,"RetinaNet":7633,"ĠEXTRA":7634,"########################################":7635,"Async":7636,"ĠCacheControl":7637,"ĠInteger":7638,"CACHE":7639,"hardsigmoid":7640,"hardswish":7641,"Ġsamples":7642,"ĠMaximum":7643,"ĠMaxRetryError":7644,"GDLoss":7645,"VISIBLE":7646,"ĠBackend":7647,"ĠZipPath":7648,"FILENAME":7649,"Ġhandlers":7650,"ĠHelper":7651,"README":7652,"LoadLibraryEx":7653,"Ġdigests":7654,"crementalEncoder":7655,"canonical":7656,"Ġmoving":7657,"ĠFeatures":7658,"ĠBeurard":7659,"Widgets":7660,"ĠDisplay":7661,"ĠColorTri":7662,"Ġcorrectly":7663,"CLIENT":7664,"MaxPool":7665,"ĠDetection":7666,"Ġcontributor":7667,"ĠAppEngine":7668,"ĠSocketError":7669,"Ġautomatic":7670,"Ġautomatically":7671,"LINES":7672,"Security":7673,"difference":7674,"iagram":7675,"delitem":7676,"Ġckpt":7677,"entication":7678,"ĠLocationParseError":7679,"ĠActivation":7680,"Ġrobots":7681,"neighbor":7682,"calculate":7683,"surrogateescape":7684,"Ġoccurs":7685,"ĠNeural":7686,"possible":7687,"ĠInitial":7688,"Ġsync":7689,"catenate":7690,"Anne":7691,"LayerNorm":7692,"RCCommand":7693,"mission":7694,"ĠSJTU":7695,"Ġoscrypto":7696,"perimental":7697,"ĠReadTimeoutError":7698,"ChunkLength":7699,"UpdateResource":7700,"ĠTreeWalker":7701,"Ġhandled":7702,"ĠElementTree":7703,"Ġresponses":7704,"MULTILINE":7705,"keras":7706,"tolist":7707,"Ġdomain":7708,"DEVIC":7709,"resolvelib":7710,"ĠArchitecture":7711,"rphanPath":7712,"Ġpotentially":7713,"Ġ\\\"{}\\\"":7714,"Ġplanes":7715,"SYSCONFIG":7716,"everseen":7717,"ttsx":7718,"Ġignored":7719,"orizont":7720,">#########################################################################":7721,"Ġrecomm":7722,"Ġintranges":7723,"Ġhappens":7724,"ĠMODELS":7725,"://...``)<":7726,"esterov":7727,"PYTHON":7728,"SCRIPT":7729,"ĠColorTriplet":7730,"SecurityWarning":7731,"Ġ\\\"{}\\\"'.":7732,"\"):":7733,"(%":7734,")\\":7735,")\"),<":7736,"-%":7737,"48":7738,"500":7739,"512":7740,"69":7741,"98":7742,":,":7743,":]":7744,"=\",":7745,"?:":7746,"AX":7747,"APL":7748,"Ans":7749,"APP":7750,"Be":7751,"BIN":7752,"Buffer":7753,"Boolean":7754,"Ctypes":7755,"CUDA":7756,"DP":7757,"Dis":7758,"Doc":7759,"DLL":7760,"Find":7761,"Feat":7762,"Fragment":7763,"FUNCT":7764,"GT":7765,"Group":7766,"GPU":7767,"Hard":7768,"History":7769,"KL":7770,"Like":7771,"MB":7772,"Mask":7773,"MNIST":7774,"Non":7775,"Num":7776,"NAT":7777,"Of":7778,"Object":7779,"Optional":7780,"OUT":7781,"Pack":7782,"Page":7783,"PUT":7784,"Rot":7785,"RITE":7786,"RCNN":7787,"RGBA":7788,"SF":7789,"SLS":7790,"SAM":7791,"Tar":7792,"Temp":7793,"Utility":7794,"Wh":7795,"WAR":7796,"Write":7797,"YLE":7798,"Zip":7799,"[<":7800,"\\'":7801,"ape":7802,"ailed":7803,"cc":7804,"css":7805,"dl":7806,"eil":7807,"each":7808,"eurize":7809,"fine":7810,"gz":7811,"git":7812,"gwin":7813,"ghost":7814,"gress":7815,"gmail":7816,"hg":7817,"hw":7818,"hing":7819,"ham":7820,"hip":7821,"hyp":7822,"how":7823,"hidden":7824,"handlers":7825,"iy":7826,"iers":7827,"js":7828,"lated":7829,"languages":7830,"linalg":7831,"mar":7832,"mss":7833,"mult":7834,"meg":7835,"mixed":7836,"merge":7837,"milk":7838,"oin":7839,"oct":7840,"overse":7841,"oising":7842,"px":7843,"pare":7844,"ru":7845,"rw":7846,"she":7847,"sure":7848,"ssed":7849,"sax":7850,"simple":7851,"td":7852,"tw":7853,"tool":7854,"ttype":7855,"ugging":7856,"vit":7857,"vis":7858,"vcs":7859,"wb":7860,"way":7861,"walker":7862,"wchar":7863,"wraps":7864,"wheels":7865,"xv":7866,"xz":7867,"ycor":7868,"zy":7869,"Ġ~~~~~~~~~~~~":7870,"Ġvector":7871,"Ġireq":7872,"inverse":7873,"semb":7874,"redu":7875,"Ġtake":7876,"imation":7877,"imuth":7878,"stit":7879,"stab":7880,"stmt":7881,"rout":7882,"roken":7883,"rodu":7884,"rouse":7885,"lel":7886,"letters":7887,"Ġam":7888,"Ġamp":7889,"deep":7890,"Ġ='":7891,"always":7892,"allel":7893,"Ġfur":7894,"Ġfam":7895,"Ġfraction":7896,"Ġfront":7897,"arrange":7898,"rompt":7899,"ution":7900,"Ġcart":7901,"Ġcatch":7902,"Ġcau":7903,"Ġcalcul":7904,"Ġcffi":7905,"Ġceil":7906,"Ġimporting":7907,"Ġps":7908,"Ġpin":7909,"Ġput":7910,"Ġpost":7911,"Ġpipeline":7912,"Ġrepeat":7913,"Ġrearrange":7914,"__))<":7915,"Ġsaf":7916,"Ġsold":7917,"Ġsmall":7918,"Ġsleep":7919,"Ġomeg":7920,"ets":7921,"etags":7922,"etric":7923,"Ġinspired":7924,"Ġbad":7925,"Ġbodies":7926,"Ġbrotli":7927,"Ġnested":7928,"Ġdh":7929,"Ġdry":7930,"Ġduplic":7931,"loop":7932,"entropy":7933,"Ġwindll":7934,"Ġmar":7935,"Ġmomentum":7936,"acer":7937,"Ġ({":7938,"uninstall":7939,"istic":7940,"oll":7941,"ĠPlease":7942,"ĠPSF":7943,"cha":7944,"chdir":7945,"chain":7946,"Ġlam":7947,"Ġlandmark":7948,"pytest":7949,"pyproj":7950,"pyttsx":7951,"peech":7952,"ĠCode":7953,"ĠCParser":7954,"ĠCross":7955,"ĠCRED":7956,"ĠCred":7957,"elu":7958,"Ġdefects":7959,"rast":7960,"raft":7961,"ĠLabel":7962,"ĠLexer":7963,"ĠLinux":7964,"Ġans":7965,"ĠSwish":7966,"ĠScalarString":7967,"ĠSpan":7968,"Ġ\"--":7969,"Ġ\"{}":7970,"Ġ24":7971,"strate":7972,"this":7973,"Ġthree":7974,"Ġthus":7975,"Ġthings":7976,"Ġgen":7977,"Ġguild":7978,"ibl":7979,"Ġask":7980,"ĠGV":7981,"ĠIPython":7982,"umns":7983,"ĠRun":7984,"ĠRTF":7985,"ĠRPoints":7986,"ĠRLock":7987,"ĠDon":7988,"ĠDes":7989,"ĠDATA":7990,"ĠDLL":7991,"ĠPySide":7992,"ĠFace":7993,"ĠField":7994,"ĠFolder":7995,"ĠFactory":7996,"ema":7997,"emplate":7998,"ributed":7999,"ips":8000,"ipublic":8001,"Ġhbboxes":8002,"Ġdistance":8003,"ENV":8004,"constant":8005,"ending":8006,"components":8007,"gspace":8008,"Ġconf":8009,"Ġconversion":8010,"Ġuntrust":8011,"Ġlost":8012,"apex":8013,"parable":8014,"parsers":8015,"ysql":8016,"ĠOR":8017,"ĠOb":8018,"ĠOr":8019,"ĠOption":8020,"ĠOne":8021,"ypass":8022,"Ġnote":8023,"initial":8024,"ĠMac":8025,"ĠMap":8026,"ĠMixed":8027,"ĠMetadata":8028,"('<":8029,"('''<":8030,"Ġdeque":8031,"Ġdedent":8032,"Ġdegree":8033,"Ġdetection":8034,"verify":8035,"Ġ2002":8036,"ĠBasic":8037,"quatern":8038,"quences":8039,"quantize":8040,"()}<":8041,"()``<":8042,"ĠĠĠĠĠĠĠĠĠĠĠĠĠĠĠĠĠĠĠĠĠĠĠĠĠĠĠĠĠĠĠ":8043,"ĠĠĠĠĠĠĠĠĠĠĠĠĠĠĠĠĠĠĠĠĠĠĠĠĠĠĠĠĠĠĠĠĠĠĠĠĠĠĠĠĠĠĠĠ":8044,"SEQUENCE":8045,"Ġrc":8046,"Ġrather":8047,"2019":8048,"2002":8049,"ached":8050,"preload":8051,"pressed":8052,"Ġei":8053,"Ġequivalent":8054,"argspec":8055,"oreset":8056,"ĠWOR":8057,"ĠWork":8058,"ĠWritten":8059,"ĠHAS":8060,"ĠHash":8061,"Ġ302":8062,"Ġaltern":8063,"ĠDeclarativeBase":8064,"imeo":8065,"Ġcollision":8066,"ĠUsing":8067,"Ġsens":8068,"Ġsequences":8069,"ĠEvery":8070,"Ġintens":8071,"lying":8072,"ĠVis":8073,"ceptron":8074,"INAL":8075,"INFO":8076,"typedef":8077,"Reference":8078,"Reporter":8079,"major":8080,"haz":8081,"Ġ<-":8082,"Ġ<<":8083,"kws":8084,"egin":8085,"osx":8086,"osine":8087,"Ġsets":8088,"resses":8089,"ĠConnection":8090,"ĠInter":8091,"ĠInsecure":8092,"ĠImport":8093,"ielib":8094,"STYLE":8095,"loads":8096,"uster":8097,"Ġmaster":8098,"SSION":8099,"Ġpybullet":8100,"Ġprefer":8101,"Ġpretty":8102,"ichr":8103,"atchEmbed":8104,"Ġrois":8105,"2101":8106,"2104":8107,"ANCHOR":8108,"Ġsched":8109,"Ġschemes":8110,"cachecontrol":8111,"inks":8112,"lists":8113,"solete":8114,"ĠSearch":8115,"ETIME":8116,"ĠReal":8117,"ĠRequire":8118,"ĠRecognition":8119,"StdConv":8120,"Ġ%(":8121,"Ġsubstit":8122,"Ġless":8123,"ĠResult":8124,"ĠApr":8125,"web":8126,"Ġimplemented":8127,"calc":8128,"specs":8129,"cluding":8130,"Ġgeneric":8131,"Ġgeneration":8132,"Ġdetector":8133,"Theme":8134,"ĠBaseConstructor":8135,"Ġexternal":8136,"coherence":8137,"Ġquality":8138,"Ġattention":8139,"ecause":8140,"arguments":8141,"CTRL":8142,"ĠĠĠĠĠĠĠĠĠĠĠĠĠĠĠĠĠĠĠĠĠĠĠĠĠĠĠĠĠ":8143,"precision":8144,"ĠHTTPResponse":8145,"Ġbutton":8146,"Ġmetaclass":8147,"Ġupdated":8148,"urrently":8149,"Ġlogits":8150,"Ġinterpolate":8151,"Ġ...]":8152,"month":8153,"markers":8154,"userid":8155,"processing":8156,"Ġloading":8157,"ĠJsonHandler":8158,"FileError":8159,"StringIO":8160,"Ġfeatmap":8161,"slash":8162,"eneous":8163,"ickle":8164,"ickers":8165,"Ġencodings":8166,"shared":8167,"Ġbuilder":8168,"1911":8169,"seeds":8170,"Charset":8171,"--------------<":8172,"ĠConvModule":8173,"ĠEntry":8174,"Contains":8175,"240":8176,"ĠOrderedSet":8177,"DataFrame":8178,"Ġmanage":8179,"Ġheads":8180,"Ġmechan":8181,"BOM":8182,"Ġrelations":8183,"Ġrenderer":8184,"THREAD":8185,"authorization":8186,"white":8187,"ĠDefaultDict":8188,"facebook":8189,"ĠQu":8190,"Ġenviron":8191,"Ġtransforms":8192,"ĠItems":8193,"Ġsph":8194,"ĠXML":8195,"ategy":8196,"Requests":8197,"division":8198,"viewport":8199,"maining":8200,"Ġutility":8201,"Ġappdirs":8202,"Ġcreates":8203,"Ġcredential":8204,"Ġpkgutil":8205,"ĠCommandError":8206,"TreeBuilder":8207,"Ġexecfile":8208,"See":8209,"Ġstrides":8210,"IGNORECASE":8211,"matches":8212,"weighted":8213,"Nodes":8214,"rows":8215,"Ġconvex":8216,"HeaderDefect":8217,"KeyEx":8218,"ConnectionError":8219,"POINT":8220,"Ġqx":8221,"('./":8222,"ĠWeight":8223,"Ġclosure":8224,"ĠĠĠĠĠĠĠĠĠĠĠĠĠĠĠĠĠĠĠĠĠĠĠĠĠĠĠĠĠĠĠĠĠĠ":8225,"ĠĠĠĠĠĠĠĠĠĠĠĠĠĠĠĠĠĠĠĠĠĠĠĠĠĠĠĠĠĠĠĠĠĠĠĠ":8226,"Ġetree":8227,"Ġbehaves":8228,"Ġseparated":8229,"assertEqual":8230,"ĠIOError":8231,"Ġprocessing":8232,"TestCase":8233,"relative":8234,"Created":8235,"sklearn":8236,"Ġsignal":8237,"OpenKeyEx":8238,"Ġsimpl":8239,"ĠNewline":8240,"Helper":8241,"priors":8242,"Ġ~~~~~~~~~~~~~~~~~~~~~~~~":8243,"Ġsimplejson":8244,"Ġinvoke":8245,"idgets":8246,"14159":8247,"Ġfinalize":8248,"Ġcertain":8249,"Ġissues":8250,"ABCMeta":8251,"stackoverflow":8252,"ĠspaceCharacters":8253,"Ġattempts":8254,"EndEvent":8255,"Generate":8256,"Ġcarouse":8257,"Ġvoxelize":8258,"ACP":8259,"ACY":8260,"cells":8261,"lier":8262,"Ġlowercase":8263,"AssertionError":8264,"Links":8265,"mmrotate":8266,"Ġauthority":8267,"decimal":8268,"pletion":8269,"Ġdisplayed":8270,"simul":8271,"Ġmakes":8272,"Ġlexers":8273,"GRAD":8274,"realpath":8275,"ĠPlatformDirs":8276,"clusion":8277,"Ġlocals":8278,"ĠWINAPI":8279,"Ġaccepts":8280,"Ġaccepted":8281,"ĠZipFile":8282,"Ġindentation":8283,"Ġboxes":8284,"ĠCanvas":8285,"ĠStreamType":8286,"ĠFlags":8287,"Ġproperly":8288,"Ġproperties":8289,"RoIExtra":8290,"connectionpool":8291,"Ġcomputing":8292,"SystemDirectory":8293,"ĠPyPIRCCommand":8294,"annotations":8295,"USERS":8296,"WindowsDirectory":8297,"fastjsonschema":8298,"Ġselected":8299,"Ġchunks":8300,"resolveCtypes":8301,">~~~~~~~~~~~~~~<":8302,"ĠLPVOID":8303,"ĠRoI":8304,"StandardRoIHead":8305,"Ġconsistent":8306,"Outputs":8307,"PlatformError":8308,"voNorm":8309,"Ġvertical":8310,"indentation":8311,"Excite":8312,"Ġformatting":8313,"->\")<":8314,"goto":8315,"multiple":8316,"plotlib":8317,"Ġmidpoint":8318,"Ġchoose":8319,"Parameter":8320,"tls":8321,"Ġcalendar":8322,"exportable":8323,"ĠBatchNormAct":8324,"ĠBulletClient":8325,"Ġwebencodings":8326,"symbols":8327,"hood":8328,"sampling":8329,"iminator":8330,"Ġreleased":8331,"Ġissubclass":8332,"Ġmaintain":8333,"ministrators":8334,"aconf":8335,"ĠSystemExit":8336,"emonstrate":8337,"COLOR":8338,"CPUS":8339,"criminator":8340,"Ġemit":8341,"ĠCounter":8342,"SIGNAT":8343,"EXPORTABLE":8344,"ĠMobileNetV":8345,"Escape":8346,"fbaipublic":8347,"Ġbubblesort":8348,"ĠFIXME":8349,"Ġexpressions":8350,"ĠInstead":8351,"DEVICES":8352,"Ansi":8353,"Temporary":8354,"mssql":8355,"reduction":8356,"stabl":8357,"router":8358,"roduced":8359,"Ġfurther":8360,"Ġsafely":8361,"Ġsoldiers":8362,"Ġomegaconf":8363,"Ġuntrusted":8364,"Ġmechanis":8365,"THREADS":8366,"facebookresearch":8367,"ĠItemsView":8368,"Ġcarousel":8369,"RoIExtractor":8370,"resolveCtypesImports":8371,"SIGNATURE":8372,"fbaipublicfiles":8373,"\"'<":8374,"%%":8375,"'%":8376,"'[":8377,"(\"\"\"<":8378,"(())<":8379,")-":8380,")',":8381,"*\\":8382,",'":8383,",)<":8384,",))<":8385,".],<":8386,"/>`_<":8387,"388":8388,"41":8389,"53":8390,"58":8391,"60":8392,"61":8393,"70":8394,":-":8395,":\")<":8396,"</":8397,"=\\":8398,">\\":8399,"Aware":8400,"ARE":8401,"Aman":8402,"AFF":8403,"Bright":8404,"Bound":8405,"BOT":8406,"Bottleneck":8407,"CI":8408,"CUL":8409,"DF":8410,"Date":8411,"EV":8412,"Efficient":8413,"FN":8414,"Fetch":8415,"GL":8416,"Guild":8417,"GREEN":8418,"HR":8419,"Hon":8420,"HINE":8421,"HKEY":8422,"HANDLE":8423,"IR":8424,"IMAGENET":8425,"IoU":8426,"Jaz":8427,"KNO":8428,"LF":8429,"LIB":8430,"Languages":8431,"LBRACKET":8432,"MIC":8433,"MIT":8434,"Memory":8435,"Measurement":8436,"MultiplexedPath":8437,"Now":8438,"NON":8439,"NAB":8440,"Number":8441,"NVIDIA":8442,"OK":8443,"Official":8444,"OrphanPath":8445,"PER":8446,"PAL":8447,"PSNR":8448,"PUNCT":8449,"PHANUM":8450,"QL":8451,"RAN":8452,"RUN":8453,"Runtime":8454,"Scal":8455,"TW":8456,"Tool":8457,"Try":8458,"Train":8459,"TENT":8460,"TCO":8461,"Us":8462,"UATION":8463,"Wel":8464,"WITH":8465,"YM":8466,"YTE":8467,"]'<":8468,"]],":8469,"_:":8470,"_()":8471,"bw":8472,"bind":8473,"brid":8474,"bca":8475,"cdef":8476,"cffi":8477,"circle":8478,"cannot":8479,"dr":8480,"draw":8481,"dtemp":8482,"ee":8483,"ef":8484,"elf":8485,"eof":8486,"fin":8487,"gam":8488,"gaolib":8489,"gallery":8490,"hu":8491,"highlight":8492,"hbboxes":8493,"ior":8494,"iol":8495,"iang":8496,"ience":8497,"jac":8498,"la":8499,"lab":8500,"lint":8501,"lid":8502,"live":8503,"lify":8504,"lins":8505,"latin":8506,"mid":8507,"momentum":8508,"material":8509,"migr":8510,"mysql":8511,"nist":8512,"oUL":8513,"pillow":8514,"paced":8515,"qt":8516,"qkv":8517,"rpy":8518,"sdist":8519,"sandbox":8520,"sleep":8521,"speed":8522,"sizes":8523,"tqdm":8524,"tected":8525,"uc":8526,"ued":8527,"uide":8528,"uous":8529,"uuid":8530,"vl":8531,"vices":8532,"war":8533,"writ":8534,"xc":8535,"xrange":8536,"xcor":8537,"yes":8538,"ybrid":8539,"zA":8540,"{:":8541,"|\\":8542,"}'<":8543,"}').":8544,"Ġ),":8545,"Ġemoji":8546,"Ġurlopen":8547,"ĶâĶĢâĶĢ":8548,"orrow":8549,"iniv":8550,"insensitive":8551,"including":8552,"seconds":8553,"security":8554,"repl":8555,"record":8556,"Ġtd":8557,"Ġtw":8558,"Ġtunnel":8559,"enum":8560,"enoising":8561,"enience":8562,"sta":8563,"stand":8564,"lec":8565,"ley":8566,"Ġaio":8567,"deepcopy":8568,"alabel":8569,"Ġft":8570,"Ġface":8571,"Ġfalse":8572,"Ġfour":8573,"armap":8574,"arrow":8575,"arpn":8576,"arily":8577,"araco":8578,"arXiv":8579,"uts":8580,"itation":8581,"Ġcent":8582,"Ġcid":8583,"Ġcsv":8584,">#:":8585,"isy":8586,"icle":8587,"Ġpat":8588,"Ġpil":8589,"Ġpri":8590,"Ġreally":8591,"__)":8592,"___":8593,"__).":8594,"Ġsolution":8595,"Ġslight":8596,"Ġsatisf":8597,"Ġsites":8598,"Ġsandbox":8599,"Ġspatial":8600,"Ġogrid":8601,"ilers":8602,"ilities":8603,"ctype":8604,"Ġincoming":8605,"Ġbug":8606,"Ġbuf":8607,"Ġnoc":8608,"Ġda":8609,"Ġder":8610,"Ġdense":8611,"losed":8612,"entries":8613,"Ġwb":8614,"Ġwild":8615,"Ġwintypes":8616,"ĠTrans":8617,"ĠTrie":8618,"ĠTraceback":8619,"Ġmc":8620,"Ġmp":8621,"Ġmixed":8622,"Ġmagic":8623,"unused":8624,"unsorted":8625,"unraveled":8626,"adow":8627,"Ġ'%":8628,"Ġ'*":8629,"ift":8630,"ifted":8631,"ĠPI":8632,"ĠPandas":8633,"ĠPanel":8634,"expr":8635,"cho":8636,"htype":8637,"Ġliteral":8638,"Ġlimit":8639,"urnal":8640,"omas":8641,"pyc":8642,"pywintypes":8643,"pyarrow":8644,"ĠCopy":8645,"ĠCustom":8646,"ĠCalcul":8647,"ĠCGI":8648,"ĠCython":8649,"ĠCURSOR":8650,"ĠCosine":8651,"ĠCHINE":8652,"Ġretrie":8653,"rays":8654,"ragg":8655,"ceeded":8656,"ĠLive":8657,"ĠLookup":8658,"ĠSize":8659,"ĠSingle":8660,"ĠSupported":8661,"ĠSession":8662,"ĠSVG":8663,"ĠSkip":8664,"Ġ\":":8665,"Ġ22":8666,"intranges":8667,"strs":8668,"upper":8669,"ĠAug":8670,"ĠAssign":8671,"ĠALP":8672,"ĠAverage":8673,"Ġ#--":8674,"idom":8675,"idence":8676,"Ġgallery":8677,"ibration":8678,"Ġasync":8679,"ĠNF":8680,"ĠNamed":8681,"ĠNegativeInfinity":8682,"ĠGET":8683,"ĠRet":8684,"ĠRound":8685,"ĠRotation":8686,"ĠDan":8687,"ĠDirect":8688,"ĠDNS":8689,"ubyte":8690,"Ġvery":8691,"Ġvirtual":8692,"Ġvideo":8693,"ĠPyPy":8694,"ĠPyOpenSSL":8695,"ĠForm":8696,"ĠFlow":8697,"ĠFirst":8698,"embers":8699,"plain":8700,"serialize":8701,"serializer":8702,"Ġhal":8703,"ĠfromNode":8704,"ssue":8705,"Ġorn":8706,"Ġ*=":8707,"Ġ*,<":8708,"commit":8709,"component":8710,"Ġconstr":8711,"``.":8712,"``:<":8713,"Ġunwrap":8714,"Ġunsupported":8715,"Ġuniform":8716,"Ġ[{":8717,"Ġui":8718,"Ġuid":8719,"Ġ14":8720,"Ġ15":8721,"Ġ18":8722,"Ġ199":8723,"trunc":8724,"getenv":8725,"getRaw":8726,"getTreeBuilder":8727,"ĠOpt":8728,"ĠOptions":8729,"ensure":8730,"libc":8731,"ĠMIMENonMultipart":8732,"('#":8733,"('../":8734,"Intern":8735,"Ġstates":8736,"Ġstderr":8737,"filetype":8738,"Ġdecl":8739,"veral":8740,"Ġ2008":8741,"ĠBen":8742,"ĠBACK":8743,"ĠBytes":8744,"ĠBBOX":8745,"ĠBigInteger":8746,"()))<":8747,"()``,":8748,"Ġimplicit":8749,"Ġexha":8750,"Ġexpression":8751,"SEPAR":8752,"Ġranges":8753,"2017":8754,"PLERS":8755,"pleft":8756,"prev":8757,"predict":8758,"previous":8759,"pretty":8760,"Ġeval":8761,"Ġevalu":8762,"Ġevaluation":8763,"raphtype":8764,"iving":8765,"ividual":8766,"ĠWrap":8767,"ĠWill":8768,"ĠWinter":8769,"(\"'":8770,"(\",":8771,"(\".":8772,"ĠHart":8773,"ĠHandle":8774,"Ġ320":8775,"Ġalen":8776,"ĠDecodeError":8777,"Ġpardir":8778,"Ġparses":8779,"Ġcomponents":8780,"aining":8781,"Ġxs":8782,"ĠUp":8783,"ĠUDP":8784,"undfile":8785,"Ġseq":8786,"Ġsend":8787,"Ġseems":8788,"Ġclaim":8789,"ĠEvoNorm":8790,"ĠELF":8791,"Ġprovid":8792,"Ġproxies":8793,"prob":8794,"proc":8795,"prod":8796,"Constraint":8797,"ConnectTimeoutError":8798,"Conflict":8799,"Ġunderlying":8800,"Ġintended":8801,"Ġintroduced":8802,"question":8803,"ATOR":8804,"ĠVar":8805,"ĠVert":8806,"ignKey":8807,"ansion":8808,"outfiles":8809,"REG":8810,"article":8811,"packed":8812,"Ġchoice":8813,"Ġchanged":8814,"Ġ/=":8815,"Ġrespect":8816,"egral":8817,"MAP":8818,"MAPPING":8819,"ĠCondConv":8820,"ĠConnectTimeoutError":8821,"ĠConverts":8822,"Ġraises":8823,"ĠIncompleteRead":8824,"ĠImages":8825,"Ġabstractmethod":8826,"ĠarXiv":8827,"Ġarbitrary":8828,"STAT":8829,"fixup":8830,"Ġdataroot":8831,"SSIM":8832,"idecode":8833,"Ġpywintypes":8834,"Ġpreload":8835,"Ġpreprint":8836,"MLP":8837,"Ġrole":8838,"Ġrout":8839,"Ġroaming":8840,"active":8841,"Ġnprint":8842,"Ġlibname":8843,"Ġscen":8844,"Ġdicts":8845,"Ġabspath":8846,"astype":8847,"ĠUndefined":8848,"AREN":8849,"many":8850,"Ġoutgoing":8851,"xyxy":8852,"ĠReader":8853,"collect":8854,"ITER":8855,"Ġpassing":8856,"Ġ|=":8857,"Ġ||":8858,"Stat":8859,"enceHandler":8860,"ALPHANUM":8861,"joinpath":8862,"lender":8863,"winreg":8864,"contains":8865,"PEER":8866,"PELINES":8867,"Ġsubtype":8868,"ferences":8869,"sedVersion":8870,"Ġanything":8871,"Ġleg":8872,"Ġlet":8873,"Ġcost":8874,"Ġchecks":8875,"PyBytes":8876,"ĠResolve":8877,"Ġopened":8878,"OLON":8879,"Ġjaraco":8880,"')))<":8881,"Ġappend":8882,"objectness":8883,"ĠStudio":8884,"ParsedVersion":8885,"Deep":8886,"trainer":8887,"ĠKenneth":8888,"duo":8889,"Comparison":8890,"These":8891,"ĠBased":8892,"ĠBaseModule":8893,"ĠBaseNew":8894,"ĠBaseSSLError":8895,"oxels":8896,"[:]":8897,"Ġcopyreg":8898,"Ġquoted":8899,"datamodule":8900,"Ġ427":8901,"Ġattached":8902,"ĠDistlibException":8903,"EncodeError":8904,"Enhance":8905,"runTests":8906,"argoverse":8907,"([-":8908,"urred":8909,"Ġoriginally":8910,"YPEPROC":8911,"Ġatexit":8912,"Ġupon":8913,"Ġplace":8914,"ASK":8915,"iddle":8916,"Ġends":8917,"Ġdispose":8918,"Ġmaxsize":8919,"Ġinterpre":8920,"note":8921,"Ġglobally":8922,"LScheme":8923,"127":8924,"Ġstarting":8925,"newobject":8926,"Ġelen":8927,"Ġindividual":8928,"ĠImageNet":8929,"VersionTypeVar":8930,"Ġfeats":8931,"corded":8932,"Ġseries":8933,"Ġservers":8934,"Unpack":8935,"Undefined":8936,"Unparsed":8937,"sigmas":8938,"TensorStruct":8939,"1997":8940,"gtk":8941,"prefixed":8942,"Ġusb":8943,"Ġusually":8944,"Ġneedles":8945,"ĠDistutilsFileError":8946,"ĠDistutilsPlatformError":8947,"TERS":8948,"HTTPWarning":8949,"HTTPConnectionPool":8950,"HTTPHeaderDict":8951,"HTTPRequestHandler":8952,"Ġtrainer":8953,"Ġoverlaps":8954,"encoders":8955,"ĠConvNet":8956,"crets":8957,"Ġactivation":8958,"antic":8959,"Contrast":8960,"Process":8961,"Provider":8962,"Ġentire":8963,"ltk":8964,"ltas":8965,"replacements":8966,"Ġmanual":8967,"good":8968,"Ġinitfile":8969,"Ġ75":8970,"GetACP":8971,"GetSystemDirectory":8972,"GetWindowsDirectory":8973,"Ġstatic":8974,"Ġpermute":8975,"ĠCollect":8976,"flowMethod":8977,"Ġrelu":8978,"Ġprogramming":8979,"while":8980,">`.<":8981,"mpotent":8982,"ĠInvalidRequirement":8983,"ĠInvalidWheel":8984,"Ġ'.'":8985,"Ġ'.'.":8986,"Details":8987,"headerlen":8988,"ĠXY":8989,"ĠXception":8990,"Ġconverted":8991,"RequestHistory":8992,"DatasetWrapper":8993,"apture":8994,"))))<":8995,"]]]":8996,"Ġdiff":8997,"ĠRotatedTwoStageDetector":8998,"grading":8999,"Ġplatforms":9000,"Ġhelpers":9001,"ClassVar":9002,"ĠInstallation":9003,"TreeItem":9004,"retries":9005,"Select":9006,"overload":9007,"overwrite":9008,"assignment":9009,"topdown":9010,"Ġdepends":9011,"Ġdepending":9012,"blah":9013,"Ġweighted":9014,"SLURM":9015,"sym":9016,"symmetric":9017,"Ġfilterfalse":9018,"dummy":9019,"ĠCOM":9020,"ĠParseFloat":9021,"Ġcloud":9022,"EnumKey":9023,"EnumValue":9024,"TYPES":9025,"ufft":9026,"translation":9027,":`~.":9028,"COMMENT":9029,"Ġoldstr":9030,"ĠSSLError":9031,"ĠSSLContext":9032,"ConsoleOptions":9033,"ĠâĶĶâĶĢâĶĢ":9034,"inuit":9035,"ĠIDENTIFIER":9036,"Cred":9037,"PRETER":9038,"Ġprd":9039,"Ġprereleases":9040,"Ġsigned":9041,"MarkedYAMLError":9042,"debugx":9043,"NAMES":9044,"NAMEPROC":9045,"ynamically":9046,"epochs":9047,"Ġ~~~~~~~~~~~~~~~~~~~~":9048,"refine":9049,"Ġnormally":9050,"Ġstoring":9051,"Ġstorage":9052,"Ġidentifiers":9053,"offsets":9054,"Ġinvolved":9055,"Ġ128":9056,"ĠWARNING":9057,"ĠCONDA":9058,"BACKEND":9059,"Ġblue":9060,"ĠUnsupportedExtension":9061,"Shared":9062,"Sharpn":9063,"ĠThat":9064,"ĠThomas":9065,"ĠlpType":9066,"ĠlpName":9067,"Ġalgorithms":9068,"Ġ\\\\<":9069,"Ġattempted":9070,"supports":9071,"Ġcaption":9072,"ĠFormatControl":9073,"celling":9074,"panel":9075,"times":9076,"Ġpypa":9077,"Ġowner":9078,"plane":9079,"Ġhighlighting":9080,"Ġunpacked":9081,"ĠRequirementSet":9082,"StartToken":9083,"CONDA":9084,"Ġdumps":9085,"Ġparsedate":9086,"Apply":9087,"SYNON":9088,"totensor":9089,"Ġsuit":9090,"ĠHardSwish":9091,"ĠHardSigmoid":9092,"CallableT":9093,"FromPage":9094,"LPAREN":9095,"QQQQ":9096,"Ġported":9097,"identity":9098,"ĠMarkup":9099,"ĠBackbone":9100,"Ġcountry":9101,"LEGACY":9102,"Cancel":9103,"Cancelling":9104,"GridData":9105,"Level":9106,"restormer":9107,"restoration":9108,"EnvironmentName":9109,"ĠHTTPSConnectionPool":9110,"Ġfaster":9111,"Ġfastapi":9112,"Ġ'/'<":9113,"ĠAbstractDistribution":9114,"ĠFlask":9115,"Ġdecimal":9116,"Ġeverything":9117,"ministic":9118,"TraversableResources":9119,"spaceCharacters":9120,"})\"<":9121,"Ġrailroad":9122,"Ġmemoryview":9123,"ENUMREST":9124,"Ġproblems":9125,"separator":9126,"Ġnetloc":9127,"ĠBOM":9128,"Ġquaternion":9129,"ĠTextIOWrapper":9130,"CREDENTIAL":9131,"Query":9132,"seek":9133,"adapters":9134,"adaptive":9135,"ĠRichRenderable":9136,"ĠSocketTimeout":9137,"AdamP":9138,"HHH":9139,"feather":9140,"meshes":9141,"Ġdesired":9142,"Ġproduct":9143,"INTERPRETER":9144,"Ġ`-'":9145,"ĠAdamW":9146,"ĠTOMLDecodeError":9147,"GIoUL":9148,"augments":9149,"Ġckpts":9150,"ĠAdaptive":9151,"reshold":9152,"ĠIndexed":9153,"Excitation":9154,"neighbors":9155,"ĠRegularGridData":9156,"ĠTraversableResourcesLoader":9157,"DOCUMENT":9158,"PAREN":9159,"multiprocessing":9160,"Ġjob":9161,"Ġjournal":9162,"Ġslash":9163,"ersistenceHandler":9164,"ĠSafeConstructor":9165,"Ġdebugging":9166,"Ġoverrides":9167,"FreeLibrary":9168,"pasteurize":9169,"ĠTrainer":9170,"Ġmkpath":9171,"exclusive":9172,"ĠSphinx":9173,"ĠDependencyWarning":9174,"ĠURI":9175,"focalpose":9176,"ĠVoxelizationType":9177,"ENUMRESLANG":9178,"ENUMRESNAMEPROC":9179,"events":9180,"ĠPOST":9181,"ĠStruct":9182,"Ġ2822":9183,"combining":9184,"ĠVerbose":9185,"EntryPoints":9186,"ĠCallbackQuery":9187,"Ġantialiasing":9188,"={},":9189,"efficientnet":9190,"onald":9191,"ĠTkinter":9192,"idiError":9193,"Ġgots":9194,"ENGINE":9195,"InvariantPooling":9196,"ĠWithout":9197,"printables":9198,"modernize":9199,"Ġpurposes":9200,"CALCUL":9201,"XYWHA":9202,"Ġembedding":9203,"Ġsuspend":9204,"ĠRepr":9205,"ĠHeaders":9206,"Ġchosen":9207,"CODES":9208,"FOLDER":9209,"gons":9210,"Ġinstantiate":9211,"Ġ''')<":9212,"eltaXYWHA":9213,"ĠSimon":9214,"ĠDOCUMENT":9215,"Ġexactly":9216,"producing":9217,"providers":9218,"ustifyMethod":9219,"ĠUnsafeLoader":9220,"Ġsubsequently":9221,"Networks":9222,"Ġneighbor":9223,"Ġregardless":9224,"monospaced":9225,"ĠJonathan":9226,"ĠCacheControlAdapter":9227,"ĠAppEngineManager":9228,">##########################################################################<":9229,"Ġrecommended":9230,"APPENGINE":9231,"Before":9232,"Features":9233,"RGBAugmentation":9234,"SAMPLERS":9235,"ghostnet":9236,"ruits":9237,"rwightman":9238,"xvy":9239,"deepmind":9240,"Ġanswer":9241,"iblings":9242,"ĠObtain":9243,"Ġsensor":9244,"hazmat":9245,"ĠConnectionError":9246,"Ġschedule":9247,"calcsize":9248,"Ġdetectors":9249,"simulator":9250,"TemporaryFile":9251,"AFFINE":9252,"Brightness":9253,"Honda":9254,"Jazz":9255,"KNOWN":9256,"MICOLON":9257,"NABidiError":9258,"PUNCTUATION":9259,"RUNTIME":9260,"Welcome":9261,"bwang":9262,"eofs":9263,"jacent":9264,"liding":9265,"linspace":9266,"orrowed":9267,"inivas":9268,"Ġslightly":9269,"Ġnocover":9270,"ĠPandasTensorCollection":9271,"ĠCHINESE":9272,"ragged":9273,"ĠALPHANUM":9274,"ĠNamedTemporaryFile":9275,"getRawIdent":9276,"Ġexhaust":9277,"SEPARATOR":9278,"ĠHartley":9279,"Ġproviding":9280,"LSchemeUnknown":9281,"UnparsedVersion":9282,"Sharpness":9283,"SYNONYM":9284,"ENUMRESTYPEPROC":9285,"GIoULoss":9286,"ENUMRESLANGPROC":9287,"CALCULATORS":9288,"!!":9289,"\"%":9290,"\"'":9291,"\">":9292,"\"],<":9293,"$\"":9294,"'}":9295,"'ve":9296,"'''<":9297,"(\"\",":9298,")*":9299,")}<":9300,")**":9301,"*=\\":9302,".{":9303,".'<":9304,".)),<":9305,"/.":9306,"/_":9307,"/~":9308,"/__":9309,"/'<":9310,"/\")<":9311,"/'))<":9312,"150":9313,"119":9314,"54":9315,"501":9316,"74":9317,"89":9318,"800":9319,";',":9320,">!":9321,">\"":9322,">``.<":9323,"?$":9324,"?\\":9325,"AY":9326,"Aug":9327,"Auth":9328,"Augment":9329,"AvgPool":9330,"BIC":9331,"Bbox":9332,"Blob":9333,"Bias":9334,"Body":9335,"BSD":9336,"BYTE":9337,"CParser":9338,"CLU":9339,"Cadene":9340,"Cryptodome":9341,"CENTER":9342,"DD":9343,"Direct":9344,"DRepPoints":9345,"EAD":9346,"Emoji":9347,"FD":9348,"Folder":9349,"Gaussian":9350,"GLOB":9351,"How":9352,"IA":9353,"JupyterMixin":9354,"JsonSchemaValueException":9355,"Lab":9356,"Low":9357,"Last":9358,"Label":9359,"LEX":9360,"LLEGAL":9361,"Language":9362,"MI":9363,"Mat":9364,"OB":9365,"Pip":9366,"Part":9367,"Pos":9368,"Pillow":9369,"Rout":9370,"Rotation":9371,"RAdam":9372,"SH":9373,"SIT":9374,"Smoothing":9375,"SGD":9376,"Segment":9377,"SQL":9378,"Typ":9379,"Tick":9380,"There":9381,"Ur":9382,"UST":9383,"UTP":9384,"Url":9385,"VEL":9386,"Vimeo":9387,"XNet":9388,"YAN":9389,"YSTRING":9390,"]\")<":9391,"`:":9392,"aT":9393,"ahead":9394,"bu":9395,"but":9396,"ball":9397,"best":9398,"bold":9399,"branch":9400,"cid":9401,"cap":9402,"custom":9403,"criterion":9404,"dt":9405,"day":9406,"dia":9407,"dStdConv":9408,"eom":9409,"feed":9410,"fragment":9411,"frozen":9412,"fruits":9413,"gen":9414,"gst":9415,"gun":9416,"gif":9417,"gid":9418,"gaussian":9419,"guess":9420,"hot":9421,"hand":9422,"hbb":9423,"highlighter":9424,"human":9425,"hdr":9426,"jie":9427,"jpg":9428,"kl":9429,"ks":9430,"kit":9431,"kld":9432,"lc":9433,"literal":9434,"lights":9435,"lazy":9436,"language":9437,"linen":9438,"mpt":9439,"mess":9440,"mtree":9441,"microsoft":9442,"multiclass":9443,"mAP":9444,"nf":9445,"ni":9446,"nl":9447,"nacl":9448,"oper":9449,"oUR":9450,"pc":9451,"plo":9452,"pus":9453,"public":9454,"pipeline":9455,"qw":9456,"rs":9457,"rbboxes":9458,"sun":9459,"sweep":9460,"tif":9461,"tup":9462,"tract":9463,"tColor":9464,"uk":9465,"uic":9466,"uan":9467,"ufuture":9468,"ven":9469,"vate":9470,"vant":9471,"voice":9472,"visited":9473,"xl":9474,"xff":9475,"xception":9476,"ym":9477,"yse":9478,"your":9479,"zhang":9480,"}]":9481,"Ġ^":9482,"Ġ}":9483,"Ġkw":9484,"Ġ],<":9485,"Ġerr":9486,"oriented":9487,"erg":9488,"inf":9489,"ini":9490,"inel":9491,"inja":9492,"inclination":9493,"sequence":9494,"second":9495,"rename":9496,"recorded":9497,"Ġtt":9498,"Ġtz":9499,"Ġttype":9500,"Ġtau":9501,"imes":9502,"stable":9503,"stud":9504,"roid":9505,"ropo":9506,"rops":9507,"rocal":9508,"Ġaff":9509,"Ġalembic":9510,"Ġaudio":9511,"deg":9512,"development":9513,"algorith":9514,"hessian":9515,"Ġfin":9516,"Ġfra":9517,"Ġfine":9518,"aring":9519,"utes":9520,"utive":9521,"Ġcle":9522,"Ġcurl":9523,"Ġcha":9524,"Ġcriterion":9525,">#%%":9526,"icon":9527,"Ġph":9528,"Ġpure":9529,"Ġpjoin":9530,"Ġppu":9531,"Ġren":9532,"Ġrename":9533,"Ġrepo":9534,"Ġreward":9535,"Ġreverse":9536,"Ġrestrict":9537,"Ġrenamed":9538,"uristic":9539,"Ġsr":9540,"Ġsil":9541,"Ġslow":9542,"Ġsns":9543,"Ġspeed":9544,"edit":9545,"asi":9546,"asinter":9547,"asily":9548,"assets":9549,"assemb":9550,"Ġincor":9551,"Ġinner":9552,"Ġinfinit":9553,"Ġinclination":9554,"Ġbo":9555,"Ġbs":9556,"Ġbu":9557,"Ġbright":9558,"Ġbrow":9559,"Ġbunch":9560,"Ġbranch":9561,"Ġnone":9562,"Ġdi":9563,"Ġdy":9564,"Ġdid":9565,"Ġdynamically":9566,"entation":9567,"ĠTime":9568,"ĠTarget":9569,"ĠTask":9570,"ĠTimestamp":9571,"Ġmd":9572,"Ġmass":9573,"Ġmias":9574,"Ġmapped":9575,"Ġmachine":9576,"accept":9577,"rier":9578,"Ġ(/":9579,"Ġ(:":9580,"Ġ(?:":9581,"union":9582,"istent":9583,"istics":9584,"ollow":9585,"aders":9586,"added":9587,"Ġ'-":9588,"Ġ'../":9589,"iful":9590,"ĠPl":9591,"ĠPin":9592,"ĠPol":9593,"ĠPos":9594,"ĠPop":9595,"ĠPret":9596,"ĠPatchEmbed":9597,"chast":9598,"chmark":9599,"ptcha":9600,"Ġlate":9601,"pear":9602,"ĠCS":9603,"ĠCo":9604,"ĠCar":9605,"ĠCSS":9606,"ĠCrop":9607,"ĠCandidates":9608,"ĠCryptography":9609,"ĠCPU":9610,"ĠClear":9611,"ĠCalculate":9612,"ĠCamera":9613,"ĠCNN":9614,"ĠCenterPoint":9615,"ĠCurrently":9616,"ileError":9617,"abb":9618,"abstract":9619,"otgun":9620,"iglob":9621,"again":9622,"agram":9623,"ĠLightning":9624,"ĠSap":9625,"ĠSign":9626,"ĠSplit":9627,"ĠSource":9628,"Ġ299":9629,"ints":9630,"ĠAT":9631,"ĠAV":9632,"ĠAuth":9633,"ĠAuto":9634,"ĠAgree":9635,"allback":9636,"thers":9637,"through":9638,"Ġthough":9639,"Ġgive":9640,"Ġgdown":9641,"Ġgaussian":9642,"Ġgrass":9643,"Ġglibc":9644,"Ġgraphtype":9645,"Ġgym":9646,"Ġ.__":9647,"Ġaspect":9648,"ĠNum":9649,"ĠNorm":9650,"ĠNormal":9651,"ĠNAF":9652,"ĠGEN":9653,"ĠGhost":9654,"ĠGluon":9655,"ĠILLEGAL":9656,"umask":9657,"ĠRt":9658,"ĠRMS":9659,"ĠDate":9660,"ĠDoc":9661,"ĠDemonstrate":9662,"extraction":9663,"irm":9664,"Ġvoxels":9665,"Ġvxvy":9666,"ĠPyOpen":9667,"ĠFoo":9668,"ĠFeed":9669,"ĠFLOW":9670,"ributor":9671,"iprocal":9672,"__(**":9673,"pathsep":9674,"Ġhack":9675,"Ġdists":9676,"ENO":9677,"contin":9678,"Ġ*,":9679,"Ġ\"\"\":":9680,"comes":9681,"compression":9682,"Ġconda":9683,"Ġconne":9684,"Ġconvent":9685,"Ġconcurrent":9686,"Ġconstraint":9687,"Ġunary":9688,"Ġunquote":9689,"Ġunexpected":9690,"Ġunravel":9691,"Ġundirected":9692,"Ġ[-":9693,"Ġuuid":9694,"keh":9695,"trued":9696,"pow":9697,"posing":9698,"power":9699,"getopt":9700,"Ġbegin":9701,"==<":9702,"Ġnothing":9703,"initialize":9704,"ĠMe":9705,"ĠMAD":9706,"ĠMissing":9707,"ĠMeta":9708,"ĠMemory":9709,"('&":9710,"('\\\\":9711,"('').":9712,"IncrementalDecoder":9713,"Ġsticker":9714,"Ġstarmap":9715,"filelist":9716,"Ġdeg":9717,"Ġdeal":9718,"Ġdecodes":9719,"Ġdeprecation":9720,"verter":9721,"ĠBut":9722,"ĠBad":9723,"ĠBlur":9724,"ĠBecause":9725,"quats":9726,"()'":9727,"()),<":9728,"aren":9729,"Ġexperimental":9730,"Ġexceeded":9731,"Ġ00001":9732,"tochast":9733,"Ġrpn":9734,"2000":9735,"2001":9736,"2010":9737,"2018":9738,"Ġeg":9739,"Ġear":9740,"Ġefficient":9741,"Ġestabl":9742,"://{":9743,"ĠWhat":9744,"dataElements":9745,"(\"--":9746,"(\"./":9747,"Ġ:,":9748,"Ġ:]<":9749,"ĠHidden":9750,"ĠHANDLE":9751,"ĠHEAD":9752,"ĠDec":9753,"ĠDev":9754,"bop":9755,"bokeh":9756,"Ġcomma":9757,"perm":9758,"ainMap":9759,"ĠUI":9760,"ĠUT":9761,"codec":9762,"ĠEvent":9763,"ĠEnsure":9764,"Ġ{!":9765,"Ġproc":9766,"Ġproposed":9767,"Ġproposals":9768,"Ġprogress":9769,"Ġwhose":9770,"Ġwhitespace":9771,"program":9772,"probs":9773,"Converter":9774,"textures":9775,"scikit":9776,"Ġ``/":9777,"Ġtermin":9778,"ignAttributes":9779,"Ġnumer":9780,"Ġnumclass":9781,"ĠGenerates":9782,"REPO":9783,"packet":9784,"appdirs":9785,"Ġfullname":9786,"='',<":9787,"iterators":9788,"ĠContext":9789,"ĠConstraint":9790,"ĠIncrementalDecoder":9791,"ĠInvoice":9792,"######":9793,"ĠImprove":9794,"Ġarm":9795,"Ġarrays":9796,"parseString":9797,"parseaddr":9798,"STALL":9799,"mount":9800,"backport":9801,"Ġweak":9802,"Ġpyd":9803,"Ġpylint":9804,"Ġpyuic":9805,"Ġpredict":9806,"Ġpreserved":9807,"rained":9808,"Ġadmins":9809,"Ġadjacent":9810,"Ġroll":9811,"activations":9812,"2102":9813,"Ġlibusb":9814,"eato":9815,"ĠTensorStruct":9816,"FAIL":9817,"pointer":9818,"OTAD":9819,"astian":9820,"metas":9821,"manifest":9822,"Ġpacks":9823,"Ġoutfiles":9824,"ĠSequential":9825,"Explan":9826,"ĠReplace":9827,"configure":9828,"']['":9829,"Ġversionadded":9830,"tections":9831,"attern":9832,"Std":9833,"229":9834,"filesystem":9835,"Ġbases":9836,"validator":9837,"winerror":9838,"Ġsubpart":9839,"Ġsubtract":9840,"Ġdatamodule":9841,"SIP":9842,"SIST":9843,"Ġnewobject":9844,"Ġnewbytes":9845,"iana":9846,"structions":9847,"ĠIterate":9848,"Ġcovariant":9849,"Ġcheckpoints":9850,"Pytorch":9851,"PyQt":9852,"subdirectory":9853,"Ġjupyter":9854,"Ġinputs":9855,"ĠassertIs":9856,"called":9857,"Ġappear":9858,"ĠStep":9859,"ĠSticker":9860,"ĠCompose":9861,"ĠCompute":9862,"Parallel":9863,"cluded":9864,"Ġgenerally":9865,"Ġpointer":9866,"aching":9867,"Ġrunner":9868,"Common":9869,"Commented":9870,"=\"%":9871,"ĠBaseModel":9872,"coordin":9873,"Ġquite":9874,"Ġquotation":9875,"Ġquotes":9876,"Ġattack":9877,"IOU":9878,"Encode":9879,"Ġregistry":9880,"([(":9881,"cvtColor":9882,"Ġaccur":9883,"splits":9884,"pective":9885,"Ġitemgetter":9886,"ificant":9887,"Ġfolders":9888,"Ġmetric":9889,"Ġdocs":9890,"Ġshouldn":9891,"prim":9892,"Ġupgrading":9893,"indexed":9894,"Ġmaxheaderlen":9895,"Ġminimal":9896,"Ġminidom":9897,"Ġopts":9898,"1252":9899,"Ġcolorama":9900,"Ġimplementations":9901,"ĠJsonSchemaValueException":9902,"ĠJAX":9903,"eye":9904,"newlist":9905,"LEVEL":9906,"csi":9907,"ibilityWrapper":9908,"CHEME":9909,"slashes":9910,"Ġserializer":9911,"kgl":9912,"Variant":9913,"docutils":9914,"document":9915,"shal":9916,"shapes":9917,"Ġremoving":9918,"Ġindexing":9919,"ĠExceptions":9920,"1999":9921,"1908":9922,"flc":9923,"logits":9924,"opri":9925,"PoolManager":9926,"HTTPConnection":9927,"Ġoverload":9928,"untu":9929,"encoder":9930,"ĠConvex":9931,"created":9932,"wrapped":9933,"disallow":9934,"radius":9935,"Ġtreebuilders":9936,"Ġflat":9937,"IBLE":9938,"1708":9939,"TextType":9940,"ĠZIP":9941,"replacement":9942,"TokenType":9943,"treebuilders":9944,"ĠFoundCandidates":9945,"ĠFoundLinks":9946,"captcha":9947,"Ġnormalizer":9948,"IONS":9949,"Ġheading":9950,"Ġdirurl":9951,"Ġmeans":9952,"Ġmeant":9953,"unknown":9954,"FIoUR":9955,"Ġperceptron":9956,"(_,":9957,"required":9958,"ĠConsoleRenderable":9959,"whl":9960,"ĠStringBuilder":9961,"Ġtensorflow":9962,"ĠInvalidVersion":9963,"findall":9964,"udo":9965,"ĠContainer":9966,"ĠContributor":9967,"Ġfactory":9968,"Ġfailed":9969,"targets":9970,"ĠRotatedRetinaHead":9971,"ĠRotatedAnchorGenerator":9972,"ĠRotatedBaseDetector":9973,"Ġappauthor":9974,"Ġcreation":9975,"Ġscripted":9976,"Ġobsolete":9977,"Ġthreads":9978,"Ġexecute":9979,"externally":9980,"black":9981,"Ġ\"\".":9982,"Ġ\"\",<":9983,"Ġmatplotlib":9984,"ELLOW":9985,"rendering":9986,"issue":9987,"Ġlocale":9988,"Ġcompile":9989,"Ġensures":9990,"avgmax":9991,"RotatedSingle":9992,"RotatedRetinaHead":9993,"RotatedTwoStageDetector":9994,"dumb":9995,"Ġmypython":9996,"Mixture":9997,"Ġstructures":9998,"Ġrotate":9999,"WORK":10000,"Ġdotenv":10001,"translate":10002,"Ġseparators":10003,"4012":10004,"ToWin":10005,"Ġtarinfo":10006,"COMPAT":10007,"ConsoleError":10008,"Ġcoordinate":10009,"KEYS":10010,"PTYSTRING":10011,"related":10012,"Ġadaptive":10013,"Ġsignificant":10014,"ĠTXO":10015,"formatted":10016,"ĠUserDict":10017,"Regex":10018,"QtCore":10019,"tomli":10020,"localhost":10021,"Ġwords":10022,"Ġimplementing":10023,"Ġidentical":10024,"Ġdirected":10025,"ĠSTART":10026,"Backport":10027,"Background":10028,"secutive":10029,"ĠDropBlock":10030,"plugins":10031,"ĠMutableSet":10032,"svg":10033,"ĠTLSv":10034,"chardet":10035,"Alias":10036,"barrier":10037,"justify":10038,"Ġblank":10039,"Ġgoal":10040,"Orientation":10041,"Role":10042,"Short":10043,"depends":10044,"Ġnetworks":10045,"ĠPillowColor":10046,"ĠPillowBlur":10047,"ĠPillowContrast":10048,"ĠPillowBrightness":10049,"ĠPillowSharpness":10050,"EndToken":10051,"Generates":10052,"Predict":10053,"Ġrows":10054,"ColorTuple":10055,"Iterable":10056,"cpp":10057,"timm":10058,"Ġcmdoptions":10059,"Ġunpackb":10060,"ĠEXP":10061,"StartEvent":10062,"Ġinternally":10063,"CONTENT":10064,"LinkSource":10065,"Ġpossibly":10066,"ĠCacheValue":10067,"makefile":10068,"App":10069,"Ġredirects":10070,"Ġsuite":10071,"Ġsuccess":10072,"(?:\\":10073,"gnore":10074,"Ġclipped":10075,"BasedRun":10076,"AnchorHead":10077,"Canvas":10078,"FILE":10079,"certifi":10080,"nonmultipart":10081,"recipes":10082,"reciprocal":10083,"Ġmove":10084,"Ġmoved":10085,"ognized":10086,"Ġravel":10087,"ĠShow":10088,"ĠBodyCache":10089,"SETS":10090,"Ġcomputation":10091,"Ġbackported":10092,"DefaultDict":10093,"autiful":10094,"retina":10095,"Ġtopk":10096,"otedScalarString":10097,"bytearray":10098,"Originally":10099,"365":10100,"QuotedScalarString":10101,"TAG":10102,"Targets":10103,"TargetName":10104,"fontsize":10105,"ounce":10106,"Ġrecent":10107,"Ġmonkey":10108,"Ġtools":10109,"ĠSubject":10110,"Ġcontributed":10111,"Ġordereddict":10112,"ĠAnsiToWin":10113,"Ġmanipulating":10114,"EnumResourceNames":10115,"EnumResourceTypes":10116,"EnumResourceLanguages":10117,"Matcher":10118,"Ġtrigger":10119,"legacy":10120,"ĠUnicodeDecodeError":10121,"GENERIC":10122,"Ġexecutor":10123,"securetransport":10124,"surrogates":10125,"(.*)\")<":10126,"CustomException":10127,"ForeignAttributes":10128,"Renderer":10129,"mixup":10130,"Ġslides":10131,"Ġmembers":10132,"possibly":10133,"SERVER":10134,"Ġbytearray":10135,"Ġchoices":10136,"Ġoptimization":10137,"ĠAlignMethod":10138,"ĠLoads":10139,">================================================================":10140,"generate":10141,"Ġcalibration":10142,"Ġdriver":10143,"Requirements":10144,"Ġoutside":10145,"Ġeventually":10146,"Ġmeaningful":10147,"inyin":10148,"confirm":10149,"Ġconsume":10150,"ĠUNICODE":10151,"SUPPORTED":10152,"CVPR":10153,"trivial":10154,"Ġpairs":10155,"ĠPacker":10156,"ĠPipSession":10157,"ĠCreated":10158,"ĠRemove":10159,"ĠMinimum":10160,"ĠDeformable":10161,"ĠDeformConv":10162,"ĠKeep":10163,"BUILD":10164,"681":10165,"CRET":10166,"EpochBasedRun":10167,"FullLoader":10168,"effects":10169,"purelib":10170,"analyse":10171,"Ġodd":10172,"Ġwriting":10173,"ĠForeignKey":10174,"consistent":10175,"ĠDepthwise":10176,"ResNeXt":10177,"DistutilsError":10178,"Prefetcher":10179,"DenseHead":10180,"PoseWidget":10181,"Utilities":10182,"XMLRPC":10183,"Ġlikely":10184,"ĠOriented":10185,"Invite":10186,"Ġentered":10187,"ĠRotatedSingleStageDetector":10188,"CredentialBlob":10189,"orizontal":10190,"SCRIPTABLE":10191,"Rotate":10192,"zyme":10193,"Ġmarshal":10194,"ĠDesign":10195,"ĠFacebook":10196,"Ġalternative":10197,"Ġintensity":10198,"ĠVisibilityWrapper":10199,"STYLES":10200,"Ġsubstitution":10201,"ĠEntryPoint":10202,"Ġrelationship":10203,"Ġsimplify":10204,"AnsiToken":10205,"Boundary":10206,"PERSIST":10207,"Training":10208,"finished":10209,"lecSLS":10210,"Ġprior":10211,"Ġwildcard":10212,"ĠOptim":10213,"Internal":10214,"ĠVariable":10215,"Ġlegacy":10216,"notebook":10217,"ĠInvalidWheelFilename":10218,"Ġsuitify":10219,"ĠReprHighlighter":10220,"CLUDE":10221,"GLOBAL":10222,"Partial":10223,"PillowRGBAugmentation":10224,"SITORY":10225,"SmoothingCrossEntropy":10226,"TickCount":10227,"UTPUT":10228,"mpty":10229,"ropout":10230,"algorithm":10231,"Ġfractions":10232,"Ġsilently":10233,"Ġincorrect":10234,"Ġinfinite":10235,"Ġmiasm":10236,"ĠPopup":10237,"ĠCandidatesFromPage":10238,"abstractproperty":10239,"against":10240,"ĠSapin":10241,"ĠAgreement":10242,"Ġgrassplane":10243,"ĠNormalization":10244,"ĠGENER":10245,"ĠRMSprop":10246,"Ġconnections":10247,"truediv":10248,"ĠMADGRAD":10249,"ĠBlurPool":10250,"tochastic":10251,"REPOSITORY":10252,"ĠInvoiceGCN":10253,"OTADataset":10254,"Explanation":10255,"EpochBasedRunner":10256,"\"^":10257,"\"])":10258,"\"[^":10259,"'^":10260,"((\"":10261,")(":10262,");":10263,")}":10264,")\"\"\"<":10265,")'<":10266,")\",<":10267,")],":10268,")].":10269,")\").":10270,"*,":10271,"+?)":10272,"-+":10273,"-]":10274,"-(?":10275,".\\":10276,".):<":10277,".],":10278,"/#":10279,"02002":10280,"38":10281,"3002":10282,"43":10283,"600":10284,"71":10285,"76":10286,"822":10287,"94":10288,":])<":10289,":].":10290,";').":10291,"=[\"":10292,">/":10293,">[":10294,">.<":10295,">-------<":10296,"AV":10297,"Av":10298,"ASE":10299,"APE":10300,"BE":10301,"BER":10302,"BIO":10303,"Cut":10304,"Cfg":10305,"CBase":10306,"Could":10307,"CUR":10308,"Called":10309,"Center":10310,"CDATA":10311,"Cars":10312,"Crypto":10313,"CURSOR":10314,"Dom":10315,"DIC":10316,"DAT":10317,"Dep":10318,"DIT":10319,"DWORD":10320,"Dhi":10321,"EC":10322,"ELE":10323,"ESC":10324,"Emitter":10325,"FM":10326,"FIN":10327,"Feed":10328,"Func":10329,"Failed":10330,"FTW":10331,"GV":10332,"Go":10333,"GST":10334,"Ghost":10335,"Gliding":10336,"Hash":10337,"High":10338,"Hashes":10339,"IV":10340,"JSON":10341,"JOB":10342,"KG":10343,"KT":10344,"Kernel":10345,"Kld":10346,"Limit":10347,"Location":10348,"LENG":10349,"LETE":10350,"LITER":10351,"MD":10352,"MM":10353,"MP":10354,"Mo":10355,"My":10356,"Mon":10357,"Mis":10358,"Mac":10359,"Mem":10360,"Main":10361,"Mixer":10362,"Multi":10363,"Modified":10364,"Microsoft":10365,"MIMENonMultipart":10366,"NET":10367,"Normal":10368,"Normalized":10369,"NONE":10370,"Normalize":10371,"Off":10372,"PIL":10373,"Parent":10374,"Popen":10375,"Ported":10376,"Pair":10377,"Papers":10378,"Punctuation":10379,"Prompt":10380,"QI":10381,"Rel":10382,"Ratio":10383,"RGB":10384,"SPL":10385,"Sample":10386,"SAME":10387,"SITE":10388,"SHA":10389,"SparseTensor":10390,"Title":10391,"Trip":10392,"Traceback":10393,"UI":10394,"Use":10395,"VT":10396,"VAR":10397,"VOC":10398,"Visual":10399,"Viol":10400,"WR":10401,"Way":10402,"Window":10403,"Writer":10404,"Wraps":10405,"Wait":10406,"WHEEL":10407,"Xrange":10408,"[(":10409,"[_":10410,"[~":10411,"](":10412,"]/":10413,"]['":10414,"]])<":10415,"_-":10416,"_()<":10417,"`).<":10418,"aif":10419,"actions":10420,"around":10421,"bon":10422,"bang":10423,"bencode":10424,"bzip":10425,"bconvert":10426,"brotli":10427,"bidi":10428,"buntu":10429,"cer":10430,"cart":10431,"cclient":10432,"cently":10433,"cbc":10434,"cureTransport":10435,"cudnn":10436,"curred":10437,"crops":10438,"dct":10439,"dra":10440,"dkey":10441,"dask":10442,"duplic":10443,"ei":10444,"eign":10445,"evalu":10446,"easy":10447,"fs":10448,"fill":10449,"fancy":10450,"gv":10451,"gy":10452,"gray":10453,"gui":10454,"green":10455,"genshi":10456,"gluon":10457,"hib":10458,"hind":10459,"hide":10460,"iu":10461,"iase":10462,"ihat":10463,"jk":10464,"jwt":10465,"kf":10466,"king":10467,"kto":10468,"kinen":10469,"lamb":10470,"lie":10471,"lwh":10472,"lxml":10473,"lstrip":10474,"mse":10475,"mim":10476,"mpl":10477,"mnt":10478,"must":10479,"mml":10480,"mber":10481,"mnist":10482,"nas":10483,"nadata":10484,"nfc":10485,"nier":10486,"pm":10487,"pin":10488,"pet":10489,"pun":10490,"pid":10491,"pap":10492,"pull":10493,"pFormatter":10494,"pickle":10495,"qs":10496,"rnn":10497,"rbbox":10498,"rmtree":10499,"sat":10500,"sError":10501,"side":10502,"some":10503,"small":10504,"solutions":10505,"tab":10506,"ttr":10507,"ux":10508,"uses":10509,"uda":10510,"uish":10511,"uFE":10512,"vz":10513,"vise":10514,"xfe":10515,"yu":10516,"yy":10517,"yan":10518,"ycode":10519,"ycbc":10520,"ydra":10521,"zma":10522,"zill":10523,"zimuth":10524,"||":10525,"}{":10526,"}',":10527,"}\",":10528,"Ġ,":10529,"Ġ]":10530,"Ġ:<":10531,"Ġist":10532,"ĠEND":10533,"Ġ]+":10534,"Ġulabel":10535,"---<":10536,"orp":10537,"iner":10538,"invalid":10539,"inations":10540,"increment":10541,"incoming":10542,"></":10543,"select":10544,"seudo":10545,"onous":10546,"rey":10547,"rection":10548,"retry":10549,"remap":10550,"remaining":10551,"Ġtb":10552,"Ġtro":10553,"Ġtab":10554,"Ġtgt":10555,"Ġturtle":10556,"Ġtemplate":10557,"atan":10558,"atlib":10559,"imer":10560,"imate":10561,"impl":10562,"imensions":10563,"imaged":10564,"engine":10565,"enzyme":10566,"strain":10567,"stark":10568,"states":10569,"stop":10570,"rob":10571,"rov":10572,"rock":10573,"rosta":10574,"leine":10575,"leave":10576,"Ġaway":10577,"Ġazimuth":10578,"decor":10579,"degree":10580,"alg":10581,"alter":10582,"alize":10583,"heb":10584,"hell":10585,"Ġfi":10586,"Ġfav":10587,"Ġflex":10588,"Ġfuturize":10589,"arnt":10590,"ario":10591,"arav":10592,"ionaries":10593,"itor":10594,"itStack":10595,"italize":10596,"Ġcc":10597,"Ġcut":10598,"Ġcirc":10599,"Ġcudnn":10600,"Ġcapture":10601,"Ġcuda":10602,"Ġimportant":10603,"isode":10604,"isra":10605,"icies":10606,"fromarray":10607,"Ġpct":10608,"Ġpager":10609,"Ġpipe":10610,"Ġpersist":10611,"Ġreorg":10612,"Ġreorder":10613,"Ġrecurs":10614,"__[":10615,"inger":10616,"ingPython":10617,"ingular":10618,"ingTool":10619,"inguish":10620,"anch":10621,"anded":10622,"anpm":10623,"lfile":10624,"lfetch":10625,"urm":10626,"urs":10627,"urrog":10628,"urlfetch":10629,"Ġsgr":10630,"Ġsmooth":10631,"Ġssim":10632,"Ġsiblings":10633,"Ġsingular":10634,"Ġothers":10635,"edian":10636,"eshes":10637,"etri":10638,"Ġinvert":10639,"Ġinsensitive":10640,"Ġbz":10641,"Ġbel":10642,"Ġbast":10643,"Ġbypass":10644,"Ġnargs":10645,"Ġnms":10646,"Ġnll":10647,"Ġnpos":10648,"Ġntl":10649,"Ġndbm":10650,"Ġnesterov":10651,"Ġnltk":10652,"Ġdl":10653,"Ġdr":10654,"Ġdue":10655,"Ġdlib":10656,"Ġday":10657,"ĠdNS":10658,"Ġdiagram":10659,"lobj":10660,"Ġwipe":10661,"Ġwriter":10662,"ĠwLanguage":10663,"ĠTue":10664,"ĠTry":10665,"ĠTurtle":10666,"ĠTanel":10667,"ĠTerm":10668,"Ġmuch":10669,"Ġmediainfo":10670,"Ġmaterial":10671,"deflate":10672,"defects":10673,"defining":10674,"acher":10675,"rian":10676,"riend":10677,"Ġ(~":10678,"unter":10679,"unquote":10680,"unsqueeze":10681,"unichr":10682,"istsError":10683,"olds":10684,"ada":10685,"adamp":10686,"adorn":10687,"admins":10688,"administrators":10689,"Ġ'',":10690,"ĠPix":10691,"ĠPaper":10692,"ĠPlayer":10693,"ĠPlate":10694,"ĠPango":10695,"ĠPersistenceHandler":10696,"ĠPattern":10697,"exml":10698,"exception":10699,"exports":10700,"Ġisdir":10701,"Ġlid":10702,"Ġlight":10703,"Ġlinux":10704,"ĠlParam":10705,"Ġlresidual":10706,"ersal":10707,"erspective":10708,"pyOpenSSL":10709,"pywt":10710,"pyplayer":10711,"ĠCA":10712,"ĠCPython":10713,"ĠCLoader":10714,"ĠCpp":10715,"oday":10716,"elp":10717,"abi":10718,"aborn":10719,"Ġtopleft":10720,"raj":10721,"ravariant":10722,"ulum":10723,"ulate":10724,"ulates":10725,"Ġreturning":10726,"amefile":10727,"agraph":10728,"agename":10729,"ĠLQ":10730,"ĠLay":10731,"ĠLook":10732,"ĠLoss":10733,"ĠLamb":10734,"ĠLimit":10735,"ĠLinear":10736,"Ġaname":10737,"Ġanimation":10738,"Ġforeign":10739,"ĠSin":10740,"ĠSup":10741,"ĠScre":10742,"ĠSGD":10743,"ĠSSIM":10744,"cldir":10745,"Ġ\",<":10746,"Ġ234":10747,"strerror":10748,"updated":10749,"ĠAPE":10750,"ĠAugmentation":10751,"ĠAsymmetric":10752,"ĠAttr":10753,"Ġ#:":10754,"idam":10755,"Ġthing":10756,"Ġthink":10757,"Ġthreshold":10758,"Ġgb":10759,"Ġgc":10760,"Ġgre":10761,"Ġgid":10762,"Ġgate":10763,"Ġgues":10764,"Ġgreen":10765,"Ġgives":10766,"ĠNA":10767,"ĠNames":10768,"ĠNeed":10769,"ĠNVIDIA":10770,"ĠGT":10771,"ĠGround":10772,"ĠIs":10773,"ĠIssue":10774,"ĠRP":10775,"ĠRam":10776,"ĠRandom":10777,"ĠRaw":10778,"ĠRatio":10779,"ormable":10780,"ormous":10781,"ured":10782,"classification":10783,"ĠDraw":10784,"ĠDraft":10785,"ĠDenoising":10786,"ĠDeltaXYWHA":10787,"irks":10788,"android":10789,"Ġvoid":10790,"Ġvcs":10791,"ĠPyP":10792,"ĠPytorch":10793,"ĠPySo":10794,"ĠFD":10795,"ĠFloat":10796,"plies":10797,"__(*":10798,"pathname":10799,"service":10800,"services":10801,"Ġhi":10802,"Ġhim":10803,"Ġhyp":10804,"Ġhome":10805,"Ġhistory":10806,"Ġdistinguish":10807,"Ġtorchscript":10808,"Ġtorchsparse":10809,"sslobj":10810,"ENet":10811,"construct":10812,"concatenate":10813,"Ġ*_":10814,"composer":10815,"composed":10816,"Ġconcaten":10817,"Ġconflict":10818,"Ġstrategy":10819,"``,<":10820,"Ġunix":10821,"Ġunits":10822,"Ġundefined":10823,"Ġunordered":10824,"Ġunraveled":10825,"Ġunparsed":10826,"Ġunfinished":10827,"Ġ[[":10828,"Ġ[_":10829,"Ġloops":10830,"Ġloaded":10831,"appy":10832,"Ġ13":10833,"parator":10834,"setattr":10835,"setopt":10836,"setstate":10837,"setLevel":10838,"trim":10839,"getstate":10840,"Ġbev":10841,"Ġbecome":10842,"Ġbehind":10843,"ensive":10844,"irectories":10845,"libusb":10846,"initfile":10847,"ĠMor":10848,"ĠMan":10849,"ĠMore":10850,"ĠMay":10851,"ĠMultipart":10852,"ĠMomentum":10853,"ĠMultiplexedPath":10854,"ĠMoll":10855,"ĠMUST":10856,"ĠMasinter":10857,"('%":10858,"('^":10859,"('{":10860,"('[\\":10861,"IncrementalEncoder":10862,"India":10863,"Ġstable":10864,"Ġsteps":10865,"fileobject":10866,"Ġdev":10867,"Ġdevelopment":10868,"Ġdeprec":10869,"Ġdesign":10870,"Ġdeclar":10871,"Ġdecomposed":10872,"verified":10873,"soundfile":10874,"ĠBB":10875,"ĠBR":10876,"ĠBl":10877,"ĠBuil":10878,"ĠBox":10879,"ĠBey":10880,"ĠBoolean":10881,"ĠBottleneck":10882,"ĠBond":10883,"ĠBastian":10884,"quiet":10885,"quxx":10886,"()]":10887,"()])<":10888,"ckpt":10889,"former":10890,"formance":10891,"Ġimply":10892,"Ġimwrite":10893,"arest":10894,"areMixin":10895,"Ġexposing":10896,"versioncontrol":10897,"urlencoded":10898,"ggreg":10899,"too":10900,"SELoss":10901,"SECRET":10902,"Ġrt":10903,"Ġrate":10904,"Ġrule":10905,"Ġrresidual":10906,"Ġez":10907,"Ġever":10908,"Ġelem":10909,"://<":10910,"://``":10911,"://\",":10912,"okens":10913,"ivate":10914,"iversal":10915,"Ġgetenv":10916,"Ġgetgr":10917,"Ġgetnext":10918,"Ġgetpass":10919,"Ġgetpw":10920,"ĠWidth":10921,"ĠWIP":10922,"ĠWHEEL":10923,"ĠWRITE":10924,"ĠWasi":10925,"dataroot":10926,"Ġ+----------------":10927,"Ġ+----------":10928,"ĠHe":10929,"ĠHas":10930,"ĠHell":10931,"ĠHKEY":10932,"ĠHuk":10933,"Ġ35":10934,"Ġ308":10935,"Ġ307":10936,"Ġalg":10937,"Ġalabel":10938,"ĠDecor":10939,"ĠDeprecated":10940,"sizeof":10941,"Ġcollate":10942,"Ġcollated":10943,"Ġcolumns":10944,"Ġcome":10945,"Ġcommit":10946,"Ġcompletion":10947,"ernels":10948,"ĠUi":10949,"ĠUs":10950,"ĠUsed":10951,"ĠUtility":10952,"undled":10953,"Ġselection":10954,"Ġsecurity":10955,"Ġseveral":10956,"Ġsecrets":10957,"Ġseaborn":10958,"indsr":10959,"Ġclone":10960,"Ġclick":10961,"ĠEmbed":10962,"ĠEmitter":10963,"ĠEmoji":10964,"ĠEmpty":10965,"Ġtypically":10966,"Ġprovision":10967,"Ġwhite":10968,"Conversion":10969,"Constant":10970,"0022":10971,"scandir":10972,"lick":10973,"licing":10974,"ardised":10975,"modeline":10976,"Ġpathname":10977,"found":10978,"ĠVOC":10979,"Ġsuppressed":10980,"Ġnameprep":10981,"NULL":10982,"INS":10983,"INDE":10984,"INVAL":10985,"INSTALL":10986,"ReString":10987,"Revision":10988,"ReSub":10989,"Revise":10990,"\"<{":10991,"maint":10992,"outgoing":10993,"REF":10994,"RESET":10995,"have":10996,"Ġ/<":10997,"Ġreshape":10998,"Ġresample":10999,"Ġresnet":11000,"Ġresolver":11001,"Ġaren":11002,"Ġ</":11003,"kwidgets":11004,"DELETE":11005,"ORCH":11006,"ORIG":11007,"ORITE":11008,"Ġenormous":11009,"numel":11010,"MACH":11011,"iterkeys":11012,"ĠConda":11013,"ĠConstruct":11014,"ĠInception":11015,"ĠInference":11016,"ĠInherit":11017,"ĠIncrementalEncoder":11018,"basestring":11019,"ĠAnother":11020,"vedCommand":11021,")::<":11022,"Ġcontravariant":11023,"Ġurlun":11024,"Ġurlencode":11025,"322":11026,"backslashes":11027,"Ġweake":11028,"SSKld":11029,"singError":11030,"Ġpyinstaller":11031,"Ġpystark":11032,"Ġshown":11033,"Ġshadow":11034,"Ġshift":11035,"2106":11036,"2184":11037,"Ġlibc":11038,"ANA":11039,"ANet":11040,"Ġscreen":11041,"Ġschema":11042,"addHandler":11043,"ĠTensorCollection":11044,"cachestr":11045,"cachepoints":11046,"FAR":11047,"ertypes":11048,"TypeRegistry":11049,"parametri":11050,"Residual":11051,"Ġcodepoint":11052,"listdir":11053,"mlinks":11054,"ĠclassDict":11055,"ĠUnorder":11056,"ARC":11057,"ARRA":11058,"torchist":11059,"ĠSeparable":11060,"ĠSecureTransport":11061,"regular":11062,"ExistsError":11063,"ĠRev":11064,"collision":11065,"'])":11066,"lobal":11067,"Ġ|-":11068,"Ġ|_":11069,"Ġ|\\\\":11070,"BaseException":11071,"BaseCache":11072,"BaseModel":11073,"BaseNew":11074,"Stark":11075,"Studio":11076,"Storage":11077,"Ġbackslash":11078,"built":11079,"lename":11080,"inalTheme":11081,"Ġtrying":11082,"wins":11083,"Ġbuildsys":11084,"HES":11085,"contra":11086,"Ġsubdir":11087,"Ġsubmodules":11088,"Ġsubpackage":11089,"Ġsubsur":11090,"without":11091,"Ġspecification":11092,"Ġspecifiers":11093,"Ġspecifies":11094,"Ġnewstr":11095,"Impossible":11096,"Ġtexture":11097,"Ġaddress":11098,"ileno":11099,"Ġlearnt":11100,"Ġkeyval":11101,"Ġkeyring":11102,"Ġchecker":11103,"ModuleType":11104,"paceReader":11105,"subclass":11106,"subparts":11107,"submission":11108,"testing":11109,"weak":11110,"Ġdouble":11111,"Ġjpeg":11112,"need":11113,"Ġcontainers":11114,"'))":11115,"')[":11116,"layout":11117,"Ġapi":11118,"Ġapparent":11119,"Ġapplied":11120,"ĠStride":11121,"ĠStdConv":11122,"ĠStickers":11123,"Ġsupporting":11124,"ĠDictionary":11125,"ParsingError":11126,"DeclarativeBase":11127,"trainval":11128,"ĠKFIoUR":11129,"ĠKleine":11130,"wards":11131,"Ġidnadata":11132,"avar":11133,"Composer":11134,"ĠBaseCache":11135,"ĠBaseAssigner":11136,"ĠBaseEnvironment":11137,"ĠBaseBBoxCoder":11138,"ĠBaseScene":11139,"ĠBaseRepresenter":11140,"ĠBaseReporter":11141,"ĠBaseDenseHead":11142,"[:]<":11143,"104":11144,"108":11145,"1024":11146,"rotations":11147,"ADATA":11148,"Ġquiet":11149,"dfDataset":11150,"Ġ440":11151,"Ġzf":11152,"Ġzr":11153,"Ġattach":11154,"rayScale":11155,"ĠDistributed":11156,"Ġiterkeys":11157,"Ġiteritems":11158,"Ġitervalues":11159,"detect":11160,"details":11161,"argtypes":11162,"ILS":11163,"checking":11164,"CTSTR":11165,"splitlines":11166,"pectAugmentation":11167,"ĠHTTPConnection":11168,"ĠHTTPConnectionPool":11169,"ifically":11170,"EXCLUDE":11171,"ĠparseFragment":11172,"prd":11173,"Ġupgrade":11174,"Ġplt":11175,"Ġlogical":11176,"nets":11177,"starts":11178,"Ġdiscriminator":11179,"cketing":11180,"cketError":11181,"Ġinterval":11182,"PathFinder":11183,"Ġ...'<":11184,"ConvFCBBoxHead":11185,"Ġinstallations":11186,"mond":11187,"monotonic":11188,"graphident":11189,"defaults":11190,"Ġimageio":11191,"marker":11192,"SRC":11193,"Ġfinds":11194,"Ġie":11195,"Ġstarts":11196,"tuples":11197,"Ġpositional":11198,"Ġevents":11199,"FileAttributes":11200,"VersionError":11201,"correction":11202,"dotty":11203,"slurm":11204,"contextj":11205,"contexto":11206,"eneDatasetWrapper":11207,"Ġservice":11208,"words":11209,"Unix":11210,"Unavailable":11211,"docinfo":11212,"sharing":11213,"shotgun":11214,"ĠExitStack":11215,"1905":11216,"1907":11217,"gtkgl":11218,"Ġsomeone":11219,"Ġfieldname":11220,"Ġvari":11221,"LoaderAdapter":11222,"ĠDistutilsInternal":11223,"ĠProvide":11224,"ĠProvides":11225,"HTTPMessage":11226,"HTTPServer":11227,"HTTPResponse":11228,"0600":11229,"5635":11230,"poolmanager":11231,"Ġbetas":11232,"NotChunk":11233,"NotHtt":11234,"Setup":11235,"crete":11236,"creds":11237,"ĠEnlarg":11238,"Controller":11239,"DistlibException":11240,"discard":11241,"discovery":11242,"ooja":11243,"Ġflus":11244,"Ġflask":11245,"111":11246,"sph":11247,"().\")<":11248,"DataModule":11249,"DataSource":11250,"TextIO":11251,"anks":11252,"Ġhashable":11253,"treeitem":11254,"Ġ103":11255,"Ġeachline":11256,"NAF":11257,"goverse":11258,"Ġ---":11259,"ĠFileCache":11260,"ĠFileExistsError":11261,"Ġvalidator":11262,"aking":11263,"existent":11264,"Ġgroupby":11265,"popitem":11266,"GetConsole":11267,"GetStd":11268,"GetTickCount":11269,"unkres":11270,"Ġzipimport":11271,"ĠColon":11272,"Ġprograms":11273,"lowerkey":11274,"when":11275,"Ġlinked":11276,"azing":11277,"azily":11278,"itlets":11279,"Ġoptionally":11280,"locate":11281,">`<":11282,"ĠInvalidChunkLength":11283,"Ġprefixes":11284,"caller":11285,"Ġspam":11286,"Ġspinner":11287,"Ġspherical":11288,"blocking":11289,"vars":11290,"ĠXLA":11291,"RequestError":11292,"Attribute":11293,"divide":11294,"Ġtrail":11295,"Ġtraverse":11296,"OCKSIZE":11297,"NIX":11298,"Ġfair":11299,"ampling":11300,"))?":11301,"Ġbounding":11302,"pyplot":11303,"Ġbackends":11304,"CacheKey":11305,"{}\".":11306,"{}'.":11307,"iscale":11308,"isclosed":11309,"Ġhardtanh":11310,"ForSo":11311,"MENTUM":11312,"ĠURLs":11313,"ĠURLFetch":11314,"Cls":11315,"Classes":11316,"Cluster":11317,"Classification":11318,"RetryMeta":11319,"matching":11320,"rpclib":11321,"ĠRequestMethods":11322,"patcher":11323,"ResourceEx":11324,"ResourceContainer":11325,"expires":11326,"expansion":11327,"overlaps":11328,"ĠPoints":11329,"ĠAPIRout":11330,"Ġexpire":11331,"Ġexpanded":11332,"Ġexpensive":11333,"Ġ\"\",":11334,"Ġ\"\")<":11335,"Ġdigits":11336,"ĠAttributes":11337,"UNKNOWN":11338,"Ġsystems":11339,"ContextManager":11340,"ĠChar":11341,"projected":11342,"carrera":11343,"Ġconvenience":11344,"Ġcompared":11345,"Ġcompiled":11346,"08681":11347,"Ġensuring":11348,"Ġthereof":11349,"filtername":11350,"filterwarnings":11351,"ĠMappingProxy":11352,"ReadTimeoutError":11353,"={'":11354,"RotatedBaseDetector":11355,"Ġmultiplier":11356,"('.')":11357,"Extract":11358,"maskrcnn":11359,"Ġpicked":11360,"Ġpickling":11361,"Ġexamples":11362,"FixCoder":11363,"MixIn":11364,"Ġcloser":11365,"softplus":11366,"ĠĠĠĠĠĠĠĠĠĠĠĠĠĠĠĠĠĠĠĠĠĠĠĠĠĠĠĠĠĠĠĠĠ":11367,"ĠĠĠĠĠĠĠĠĠĠĠĠĠĠĠĠĠĠĠĠĠĠĠĠĠĠĠĠĠĠĠĠĠĠĠĠĠ":11368,"ĠWindowsConsole":11369,"NotFoundDefect":11370,"135":11371,"136":11372,"EnumFunc":11373,"ĠSceneDatasetWrapper":11374,"ToAs":11375,"ToWait":11376,"Ġdirection":11377,"ĠFixPrint":11378,"ĠFixAdd":11379,"ĠKeyword":11380,"COMPRE":11381,"HASHES":11382,"Ġmsvc":11383,"Ġrounding":11384,"448":11385,"4449":11386,"HOW":11387,"PTSTR":11388,"SubMethod":11389,"Tested":11390,"ĠIDNA":11391,"ĠIDNABidiError":11392,"PRESER":11393,"ĠUserString":11394,"ĠUserList":11395,"ĠUserSer":11396,"ĠVERBOSE":11397,"Register":11398,"Ġextraction":11399,"Ġglobals":11400,"beha":11401,"before":11402,"becomes":11403,"randperm":11404,"Ġagent":11405,"ĠPATH":11406,"execfile":11407,"ĠNewConnectionError":11408,"Ġcovered":11409,"ĠDistributionVersion":11410,"HelpFormatter":11411,"longopt":11412,"Ġ~~~~~~~~~~~~~~~~<":11413,"Ġ~~~~~~~~~~~~~~~~~~~~~~~~~~~~":11414,"Ġ~~~~~~~~~~~~~~~~~~<":11415,"sencode":11416,"localtime":11417,"ĠPooling":11418,"Ġstores":11419,"Ġdestinations":11420,"ImageDataset":11421,"ImageFormatter":11422,"ImageEnhance":11423,"Ġidentifier":11424,"IMPORT":11425,"UnsafeLoader":11426,"viously":11427,"Ġinvite":11428,"Ġdirectives":11429,"Ġautoreset":11430,"InvalidCodepoint":11431,"InvalidChunkLength":11432,"FilterProxy":11433,"Transfer":11434,"[[_":11435,"framework":11436,"Ġcertifi":11437,"charmap":11438,"Ġ\"./":11439,"ĠQtWidgets":11440,"Also":11441,"Algo":11442,"authentication":11443,"Ġjoined":11444,"Ġreferenc":11445,"Ġblazing":11446,"Ġgoes":11447,"plibCompat":11448,"CompareMixin":11449,"ABCD":11450,"273":11451,"2728":11452,"Oriented":11453,"Show":11454,"]+)\\":11455,"bazfile":11456,"tkinter":11457,"Ġfreeze":11458,"itablePartial":11459,"entrypoints":11460,"ĠlpEnumFunc":11461,"ĠLinkError":11462,"ĠLiteralScalarString":11463,"StreamEndEvent":11464,"Ġ\\\\||":11465,"Ġattempting":11466,"BLUE":11467,"BLOCKSIZE":11468,"cosine":11469,"fullargspec":11470,"Ġframework":11471,"accent":11472,"ĠFormatError":11473,"Ġ16384":11474,"ĠExamples":11475,"Iterate":11476,"Ġowed":11477,"Ġlookups":11478,"pixbuf":11479,"ĠCacheController":11480,"ĠIntegral":11481,"ĠModels":11482,"ĠProxyError":11483,"Ġperforming":11484,"Apache":11485,"Counter":11486,"OPS":11487,"cython":11488,"cygwin":11489,"negative":11490,"Ġpaste":11491,"Ġlayout":11492,"convertTo":11493,"ĠHardMish":11494,"scoreboard":11495,"NUMBER":11496,"NeXt":11497,"Ġportion":11498,"realfile":11499,"omatic":11500,"ĠMAPPING":11501,"ĠWINBOOL":11502,"BasedCompareMixin":11503,"Learn":11504,"cookiejar":11505,"recognized":11506,"restype":11507,"Ġrestoration":11508,"abaseAware":11509,"ĠSimpleReader":11510,"ĠSimpleXMLRPC":11511,"Ġstacklevel":11512,"tokens":11513,"geometric":11514,"ĠHTTPSConnection":11515,"EXTRA":11516,"EXTRACT":11517,"ChildPath":11518,"Children":11519,"ProxyManager":11520,"Ġfixes":11521,"Ġpapercounts":11522,"Ġ'/',":11523,"clipped":11524,"ĠFlag":11525,"Ġdecay":11526,"ĠBeautiful":11527,"Ġspecifically":11528,"ĠResponseError":11529,"ĠResponseNotChunk":11530,"Ġextracted":11531,"Ġinitialization":11532,"bcb":11533,"handles":11534,"vidia":11535,"Ġraveled":11536,"hexdigest":11537,"hexlify":11538,"ĠFunctions":11539,"ĠBodyNotHtt":11540,"Ġcomputed":11541,"progress":11542,"CCEPT":11543,"dwconv":11544,"ĠErrorWhen":11545,"chronous":11546,"ĠAssertionError":11547,"ĠDiscontent":11548,"ĠModuleType":11549,"ĠModuleList":11550,"Ġsentinel":11551,"ĠadjustForeignAttributes":11552,"'\\[":11553,"FinalForm":11554,"MissingWarning":11555,"Soup":11556,"fontface":11557,"icularly":11558,"Ġrecipes":11559,"ĠTimeouts":11560,"ĠTimeoutState":11561,"Ġmonotonic":11562,"ĠLibError":11563,"ĠSpecifically":11564,"ĠSpecLoaderAdapter":11565,"Ġassigner":11566,"ĠGaussianMixture":11567,"ĠDetect":11568,"ĠDetector":11569,"ĠGenericMeta":11570,"REQUIRED":11571,"Ġchunked":11572,"Ġapproach":11573,"RESOURCEID":11574,">~~~~~~~~~~~~~~~<":11575,"MOMENTUM":11576,"cookielib":11577,"gdal":11578,"shake":11579,"Ġidempotent":11580,"Ġbundled":11581,"ĠGroupNorm":11582,"ĠMultiStep":11583,"Ġproduces":11584,"Ġshortest":11585,"Ġmanipulation":11586,"Ġdescribing":11587,"renderables":11588,"Ġconsistency":11589,"Ġprimarily":11590,"FOUND":11591,"FutureImports":11592,"PlatformWarning":11593,"ROI":11594,"ROOT":11595,"RandomSampler":11596,"SecureTransport":11597,"UserName":11598,"ditionally":11599,"family":11600,"sessions":11601,"Ġtrees":11602,"Ġtreew":11603,"legate":11604,"Ġremembers":11605,"ĠSNIMissingWarning":11606,"Ġvertices":11607,"Ġeffects":11608,"ĠIndexes":11609,"ĠUnicodeEncodeError":11610,"Ġspecifying":11611,"Ġformatters":11612,"calculator":11613,"Ġexecuted":11614,"ĠRegularized":11615,"sonSchemaException":11616,"(.*?)":11617,"BasicAuth":11618,"DOCTYPE":11619,"SimpleReader":11620,"ValidationError":11621,"Ġfalls":11622,"aneous":11623,"Ġoccurred":11624,"Ġconstructing":11625,"Ġdebt":11626,"ĠCompare":11627,"ĠCompileError":11628,"generated":11629,"muted":11630,"mutation":11631,"missions":11632,"Ġauthentic":11633,"Ġddp":11634,"ĠTraining":11635,"Ġmkdtemp":11636,"ĠCreatePoseWidget":11637,"ĠSJM":11638,"ĠSpinner":11639,"ĠSerializer":11640,"ĠFullConstructor":11641,"ĠBulletScene":11642,"ĠHRSRC":11643,"ĠHeaderRegistry":11644,"ĠDepends":11645,"periments":11646,"ĠURLSchemeUnknown":11647,"Requires":11648,"polygons":11649,"policybase":11650,"ĠScaledStdConv":11651,"ĠVoxelizationPooling":11652,"Ġ--------------------------------------------------------<":11653,">~~~~~~~~~~~~~~~~~~~<":11654,"Flip":11655,"Flags":11656,"VGG":11657,"samplers":11658,"Ġcleanup":11659,"Ġcircles":11660,"ĠinsertBefore":11661,"ĠPOINTER":11662,"Ġissubset":11663,"ĠLogical":11664,"combiner":11665,"Ġcombined":11666,"Ġmaintains":11667,"12345678":11668,"ministrator":11669,"AFTER":11670,"Double":11671,"Overlaps":11672,"OverflowMethod":11673,"dicate":11674,"}/{":11675,"ĠPipError":11676,"Ġassume":11677,"ĠNullHandler":11678,"ĠRemovedCommand":11679,"ĠDataloader":11680,"ĠMock":11681,"Ġdetermin":11682,"Ġdeterministic":11683,"ĠBLOCK":11684,"Ġexposes":11685,"Ġrandrange":11686,"msvccompiler":11687,"Ġsends":11688,"Ġsending":11689,"ĠImplements":11690,"ĠImplementation":11691,"Ġprefetcher":11692,"ResizeToAs":11693,"Ġuppercase":11694,"Ġstatsmsg":11695,"CREAT":11696,"Download":11697,"MYSQL":11698,"NOTE":11699,"WithImport":11700,"trailing":11701,"utcnow":11702,"analys":11703,"iliary":11704,"Ġdenom":11705,"ĠPartial":11706,"ĠParticularly":11707,"ĠAdafactor":11708,"ĠGaoLibTreeItem":11709,"ĠFILE":11710,"ResNeSt":11711,"ĠUnpackException":11712,"ĠPrefetchGenerator":11713,"ĠPrefetchDataLoader":11714,"similarity":11715,"ĠLibraryLoader":11716,"667":11717,"934012":11718,">--------------------":11719,"@@@":11720,"CRIME":11721,"EMPTYSTRING":11722,"FactoryFactory":11723,"Http":11724,"OPTIONS":11725,"OPTIONAL":11726,"Plane":11727,"SOFTW":11728,"Special":11729,"UsedContainer":11730,"betas":11731,"between":11732,"pairs":11733,"teamA":11734,"teamB":11735,"Ġswapped":11736,"Ġnatural":11737,"Ġexporting":11738,"InstallationCandidate":11739,"Represents":11740,"ĠStandardization":11741,"ConvexGIoULoss":11742,"TERMINAL":11743,"ĠInvalidCodepointContext":11744,"ĠSyntaxError":11745,"canonicalize":11746,"ĠInitialization":11747,"Buffered":11748,"FindResourceEx":11749,"FUNCTIONS":11750,"KLDRepPoints":11751,"MBOL":11752,"MaskRCNN":11753,"Numpy":11754,"ZipFile":11755,"hyphen":11756,"octet":11757,"Ġamong":11758,"Ġfamily":11759,"Ġcauses":11760,"Ġpsnr":11761,"Ġduplicate":11762,"ĠCodec":11763,"ĠLabelSmoothingCrossEntropy":11764,"('<'):":11765,"quaternions":11766,"ĠWORD":11767,"ĠWorking":11768,"ĠHashMis":11769,"ĠInsecurePlatformWarning":11770,"ĠQuoted":11771,"Ġenvironments":11772,"Ġcredentials":11773,"hoods":11774,"Ġmechanism":11775,"DateTime":11776,"IoUAssigner":11777,"MemoryBIO":11778,"Usage":11779,"hua":11780,"midpoint":11781,"migrations":11782,"Ġtwice":11783,"Ġcenters":11784,"ĠTracebackType":11785,"choose":11786,"ĠCalculates":11787,"ĠLookupDict":11788,"ĠAssignResult":11789,"ĠRetries":11790,"ĠRoundTrip":11791,"ĠRotationInvariantPooling":11792,"Ġhalf":11793,"ĠBACKOFF":11794,"Ġevaluated":11795,"ĠUDPServer":11796,"Conflicted":11797,"REGEX":11798,"STATUS":11799,"Ġnprintf":11800,"Ġscenes":11801,"iddleware":11802,"Ġentirely":11803,"ĠXYZ":11804,"Ġ~~~~~~~~~~~~~~~~~~~~~~~<":11805,"ĠStructure":11806,"ĠVerboseLogger":11807,"Ġexhausted":11808,"BboxOverlaps":11809,"SHORT":11810,"UrdfDataset":11811,"bugs":11812,"Ġkwarg":11813,"erged":11814,"Ġtzinfo":11815,"Ġchaos":11816,"Ġbucketing":11817,"ĠTaskOutputs":11818,"ĠPretty":11819,"Ġlatest":11820,"ĠCarrera":11821,"ĠCropResizeToAs":11822,"ĠLightningDataModule":11823,"ĠSignature":11824,"ĠNumPy":11825,"ĠDocument":11826,"Ġvxvyvz":11827,"ĠPyOpenSSLContext":11828,"ENOENT":11829,"('&'):":11830,"Ġeggs":11831,"(\"--%":11832,"ĠHiddenText":11833,"ĠDecimal":11834,"Ġweakref":11835,"Ġaccuracy":11836,"RegexLexer":11837,"BackgroundAugmentation":11838,"ĠdriverName":11839,"consistentCandidate":11840,"BoundaryNotFoundDefect":11841,"Dhiraj":11842,"ELEMENT":11843,"ESCAPE":11844,"LocationValueError":11845,"LENGTH":11846,"LITERAL":11847,"Monotonic":11848,"SPLIT":11849,"SHARED":11850,"TracebackLexer":11851,"Violation":11852,"WayToWait":11853,"bonnier":11854,"certs":11855,"centlyUsedContainer":11856,"duplicates":11857,"iased":11858,"ihatexml":11859,"mmlab":11860,"punycode":11861,"papertypes":11862,"tablename":11863,"uxiliary":11864,"ycbcr":11865,"zilla":11866,"Ġistext":11867,"imagedata":11868,"stopword":11869,"decorator":11870,"aravindsr":11871,"Ġreorgan":11872,"anchard":11873,"lfiles":11874,"Ġbastardised":11875,"Ġntlm":11876,"ĠdNSName":11877,"ĠTaneli":11878,"ĠTerminalTheme":11879,"riendly":11880,"adorned":11881,"ĠPlateau":11882,"Ġlidar":11883,"ĠCppExtension":11884,"ĠSuper":11885,"ĠScreen":11886,"ĠAPEX":11887,"Ġguessed":11888,"ĠDraws":11889,"ĠvoidElements":11890,"ĠPySocks":11891,"ĠMollik":11892,"Ġgetgrnam":11893,"Ġgetpwnam":11894,"Ġ+-----------+":11895,"ĠHeller":11896,"ĠHukkinen":11897,"Ġprovisional":11898,"ĠVOCBackgroundAugmentation":11899,"INDEX":11900,"ReStringMatch":11901,"ReSubCallable":11902,"Revises":11903,"MACHINE":11904,"Ġweakest":11905,"SSKldAssigner":11906,"21841":11907,"parametrize":11908,"ĠUnorderd":11909,"ARRAY":11910,"StorageBackend":11911,"Ġsubsurf":11912,"ĠKleineidam":11913,"ĠDistutilsInternalError":11914,"56359":11915,"GetConsoleMode":11916,"GetStdHandle":11917,"ForSocketError":11918,"ĠAPIRouter":11919,"ĠMappingProxyType":11920,"ĠWindowsConsoleFeatures":11921,"COMPRESSION":11922,"PRESERVE":11923,"ĠUserService":11924,"FilterProxyModel":11925,"plibCompatible":11926,"ĠSimpleXMLRPCServer":11927,"EXTRACTORS":11928,"ĠBeautifulSoup":11929,"ĠResponseNotChunked":11930,"ĠBodyNotHttplibCompatible":11931,"ĠTimeoutStateError":11932,"ĠBulletSceneRenderer":11933,"ĠVoxelizationPoolingType":11934,"ĠRemovedCommandError":11935,"SOFTWARE":11936,"ĠHashMismatch":11937,"ĠCropResizeToAspectAugmentation":11938,"WayToWaitForSocketError":11939,"aravindsrinivas":11940,"!\"\"\"<":11941,"!\"<":11942,"\"[":11943,"\").<":11944,"\"]:<":11945,"\"[-":11946,"\"...":11947,"\"(\\":11948,"#]*":11949,"'d":11950,"'``":11951,"'\",<":11952,"'>)<":11953,"'...":11954,"'\"{":11955,"'``).<":11956,"'-'":11957,"(#":11958,"(',":11959,"(...":11960,")).<":11961,")[-":11962,")}\")<":11963,"+$":11964,"+/":11965,"+?":11966,"+\\":11967,"+.<":11968,"+(\\":11969,"+)\"":11970,"-',":11971,"-\")<":11972,"-*.":11973,".%":11974,".:<":11975,".).":11976,".]*":11977,"/',<":11978,"022":11979,"099":11980,"110":11981,"112":11982,"1000":11983,"220":11984,"299":11985,"304":11986,"315":11987,"42":11988,"515":11989,"605":11990,"720":11991,"732":11992,"749":11993,"745":11994,"817":11995,";\").":11996,"<<":11997,"=\"\"":11998,">%":11999,">=":12000,">-------------<":12001,">/<":12002,"?'<":12003,"@{":12004,"@\").":12005,"@]+":12006,"AI":12007,"Are":12008,"Ask":12009,"BM":12010,"Bl":12011,"By":12012,"BON":12013,"Batch":12014,"Box":12015,"BIG":12016,"Beta":12017,"Bold":12018,"BGR":12019,"Binary":12020,"Byte":12021,"BILINE":12022,"BLOB":12023,"Begin":12024,"CP":12025,"CAT":12026,"CORS":12027,"Cour":12028,"Calculate":12029,"Cannot":12030,"Cython":12031,"CenterPoint":12032,"DK":12033,"Div":12034,"DLA":12035,"DARY":12036,"Diagram":12037,"DASK":12038,"Donald":12039,"Dropout":12040,"EG":12041,"Ei":12042,"ESE":12043,"Ema":12044,"EEX":12045,"Email":12046,"EVAL":12047,"Ensure":12048,"EINVAL":12049,"FON":12050,"Font":12051,"FLA":12052,"GC":12053,"GP":12054,"GOR":12055,"HQ":12056,"HY":12057,"HAL":12058,"Host":12059,"HIS":12060,"HBBoxCoder":12061,"ISE":12062,"IRE":12063,"IDE":12064,"IPython":12065,"IVE":12066,"JK":12067,"Join":12068,"JustifyMethod":12069,"KDataset":12070,"LI":12071,"LT":12072,"LY":12073,"LEN":12074,"Line":12075,"LICENSE":12076,"LAT":12077,"LED":12078,"LAB":12079,"Lamb":12080,"Large":12081,"Latin":12082,"LURM":12083,"Lifted":12084,"Men":12085,"Mlp":12086,"MOJ":12087,"Meter":12088,"Monkey":12089,"NL":12090,"Need":12091,"NegativeInfinity":12092,"Oper":12093,"Other":12094,"One":12095,"Old":12096,"OBBoxCoder":12097,"OUND":12098,"OMY":12099,"OUTPUT":12100,"PS":12101,"Per":12102,"Pin":12103,"Pri":12104,"Persist":12105,"Pickle":12106,"Perspective":12107,"QUEUE":12108,"Rest":12109,"Row":12110,"RST":12111,"Rich":12112,"Remo":12113,"RAND":12114,"RPN":12115,"RANG":12116,"RBRACKET":12117,"Redu":12118,"RARY":12119,"RPAREN":12120,"Sp":12121,"Sdist":12122,"Squeeze":12123,"Sandbox":12124,"Spatial":12125,"SCHEME":12126,"TX":12127,"Tk":12128,"Tr":12129,"Table":12130,"THE":12131,"Task":12132,"TODO":12133,"Trie":12134,"TempDirectory":12135,"TNT":12136,"Turtle":12137,"Timestamp":12138,"TEXT":12139,"TORCH":12140,"UG":12141,"UU":12142,"Ui":12143,"USR":12144,"URES":12145,"UCache":12146,"UINT":12147,"UBIC":12148,"Vert":12149,"Video":12150,"VORITE":12151,"WO":12152,"Will":12153,"Written":12154,"WARD":12155,"WRITE":12156,"XON":12157,"Xception":12158,"Xiao":12159,"Year":12160,"ZeroOrMore":12161,"[()":12162,"[]\")<":12163,"\\]\\":12164,"]'":12165,"]{":12166,"]).":12167,"]\",<":12168,"]),":12169,"]),<":12170,"][\"":12171,"]\").":12172,"]|\\":12173,"_*":12174,"_{":12175,"ade":12176,"aint":12177,"aix":12178,"ays":12179,"aff":12180,"augment":12181,"aunch":12182,"ben":12183,"bad":12184,"bom":12185,"bian":12186,"blog":12187,"broken":12188,"bypass":12189,"blender":12190,"cw":12191,"cx":12192,"cut":12193,"cent":12194,"cure":12195,"curl":12196,"cise":12197,"cnt":12198,"cpython":12199,"callable":12200,"cdf":12201,"categories":12202,"dd":12203,"den":12204,"dst":12205,"dal":12206,"dan":12207,"dad":12208,"dod":12209,"due":12210,"dry":12211,"dates":12212,"dds":12213,"dash":12214,"dnd":12215,"dilation":12216,"diag":12217,"donald":12218,"eo":12219,"ele":12220,"epl":12221,"elements":12222,"eheader":12223,"equal":12224,"easily":12225,"fan":12226,"flo":12227,"fail":12228,"free":12229,"flog":12230,"fEL":12231,"fold":12232,"fusion":12233,"gi":12234,"gm":12235,"gname":12236,"gence":12237,"given":12238,"gwd":12239,"ginally":12240,"groff":12241,"gelu":12242,"guide":12243,"gabi":12244,"home":12245,"href":12246,"hitespace":12247,"horizontal":12248,"iated":12249,"ivert":12250,"ihood":12251,"jy":12252,"jection":12253,"jython":12254,"jbwang":12255,"kas":12256,"kgs":12257,"kms":12258,"kits":12259,"ler":12260,"land":12261,"lens":12262,"lps":12263,"limits":12264,"lvl":12265,"mc":12266,"mi":12267,"mx":12268,"mro":12269,"mers":12270,"myp":12271,"may":12272,"mus":12273,"memo":12274,"musl":12275,"mham":12276,"ng":12277,"nod":12278,"nip":12279,"neth":12280,"nox":12281,"nbr":12282,"neato":12283,"oup":12284,"official":12285,"pd":12286,"pang":12287,"pager":12288,"pandas":12289,"pipe":12290,"paired":12291,"pitch":12292,"papers":12293,"punctuation":12294,"qe":12295,"qstat":12296,"rv":12297,"ris":12298,"rupt":12299,"rtree":12300,"rtf":12301,"rpartition":12302,"rng":12303,"spl":12304,"sns":12305,"sfp":12306,"squeue":12307,"smooth":12308,"smoothing":12309,"sgd":12310,"square":12311,"speech":12312,"tnt":12313,"tgt":12314,"tpu":12315,"tcp":12316,"tresnet":12317,"uso":12318,"uary":12319,"uufuture":12320,"vn":12321,"vnet":12322,"vents":12323,"voxel":12324,"wan":12325,"widget":12326,"writer":12327,"xn":12328,"yield":12329,"ypose":12330,"yond":12331,"zs":12332,"zable":12333,"zfield":12334,"|\".":12335,"}\"":12336,"}')":12337,"}\"'<":12338,"}://{":12339,"Ġer":12340,"Ġut":12341,"Ġ.<":12342,"Ġiv":12343,"Ġ])<":12344,"Ġia":12345,"Ġ},<":12346,"Ġuri":12347,"Ġquestions":12348,"Ġemojis":12349,"Ġquestion":12350,"--[":12351,"eres":12352,"erial":12353,"eraining":12354,"inners":12355,"inherit":12356,"sel":12357,"ongs":12358,"onacher":12359,"rew":12360,"repo":12361,"reason":12362,"repository":12363,"removes":12364,"recursive":12365,"reitz":12366,"Ġtails":12367,"Ġtries":12368,"Ġttk":12369,"Ġtiny":12370,"Ġtee":12371,"Ġtoday":12372,"Ġtweak":12373,"atble":12374,"atural":12375,"atively":12376,"imiter":12377,"iminuit":12378,"enable":12379,"stic":12380,"stad":12381,"stig":12382,"stalled":12383,"standle":12384,"stufft":12385,"stimate":12386,"orth":12387,"ortho":12388,"portLab":12389,"leach":12390,"leaut":12391,"leading":12392,"levant":12393,"Ġahead":12394,"Ġaabb":12395,"\"\"<":12396,"des":12397,"deps":12398,"develop":12399,"depth":12400,"declarative":12401,"deleted":12402,"deltas":12403,"Ġ=\"":12404,"alo":12405,"alic":12406,"alone":12407,"alform":12408,"alay":12409,"alphan":12410,"allfiles":12411,"hemas":12412,"Ġfs":12413,"Ġfar":12414,"Ġflow":12415,"Ġfive":12416,"Ġfetch":12417,"Ġffn":12418,"Ġfusion":12419,"Ġfancy":12420,"Ġfriendly":12421,"utor":12422,"Ġcm":12423,"Ġcur":12424,"Ġcnt":12425,"Ġcook":12426,"Ġcaching":12427,"Ġcheb":12428,"ĠcPickle":12429,"iso":12430,"isib":12431,"isdigit":12432,"Ġpi":12433,"Ġpp":12434,"Ġpth":12435,"Ġpys":12436,"Ġpoo":12437,"Ġpids":12438,"Ġpatched":12439,"Ġpinyin":12440,"Ġredef":12441,"Ġrepe":12442,"Ġreports":12443,"Ġrewrite":12444,"Ġrescale":12445,"Ġremaining":12446,"__'":12447,"__.<":12448,"__',":12449,"__\")<":12450,"__\":":12451,"__\":<":12452,"__'])<":12453,"ingly":12454,"ingMixIn":12455,"anf":12456,"anose":12457,"anced":12458,"urse":12459,"urry":12460,"urally":12461,"urge":12462,"Ġsio":12463,"Ġsaving":12464,"Ġsilu":12465,"Ġsnowflake":12466,"Ġsane":12467,"Ġsizes":12468,"Ġsaves":12469,"Ġsurrog":12470,"Ġslicing":12471,"Ġsampling":12472,"Ġops":12473,"Ġodm":12474,"edGraph":12475,"amin":12476,"aman":12477,"etools":12478,"etrog":12479,"etimes":12480,"ilon":12481,"ilit":12482,"illed":12483,"asis":12484,"ctrl":12485,"Ġinher":12486,"Ġincompatible":12487,"Ġinplanes":12488,"Ġinclusion":12489,"Ġinstructions":12490,"Ġbot":12491,"Ġbash":12492,"Ġbran":12493,"Ġbring":12494,"Ġbottleneck":12495,"Ġbatched":12496,"Ġborrowed":12497,"Ġbasis":12498,"Ġna":12499,"Ġncclient":12500,"Ġdc":12501,"Ġdark":12502,"loops":12503,"loaded":12504,"entype":12505,"entities":12506,"Ġwc":12507,"Ġws":12508,"Ġwon":12509,"Ġwent":12510,"ĠTar":12511,"ĠTot":12512,"ĠTools":12513,"ĠTIME":12514,"ĠToo":12515,"ĠTanh":12516,"ĠTEXT":12517,"ĠTCP":12518,"ĠTHIS":12519,"Ġmv":12520,"Ġmut":12521,"Ġmult":12522,"Ġmps":12523,"Ġmatter":12524,"Ġmute":12525,"Ġmangle":12526,"Ġmigr":12527,"Ġmerged":12528,"acing":12529,"acity":12530,"riage":12531,"rips":12532,"Ġ(__":12533,"Ġ(((":12534,"une":12535,"unce":12536,"unpat":12537,"unnamed":12538,"uniform":12539,"unidecode":12540,"unformatted":12541,"olves":12542,"adig":12543,"adir":12544,"adjust":12545,"Ġ'\"":12546,"Ġ':":12547,"Ġ'')<":12548,"Ġ').":12549,"Ġ'**":12550,"Ġ''.":12551,"ĠPass":12552,"ĠPIP":12553,"ĠPlot":12554,"ĠPalette":12555,"ĠPVOID":12556,"chmod":12557,"chars":12558,"ptr":12559,"Ġisbytes":12560,"Ġislice":12561,"Ġlq":12562,"Ġlarge":12563,"Ġlzma":12564,"Ġlazily":12565,"omed":12566,"ometimes":12567,"pytree":12568,"pyextension":12569,"pyusb":12570,"pycountry":12571,"pyinstaller":12572,"pem":12573,"peak":12574,"ĠCI":12575,"ĠCut":12576,"ĠClo":12577,"ĠCookie":12578,"ĠCaut":12579,"ĠCSV":12580,"ĠCadene":12581,"ĠCryptodome":12582,"ĠCYAN":12583,"ĠCorp":12584,"ĠCrosta":12585,"odoc":12586,"ellow":12587,"elihood":12588,"abet":12589,"about":12590,"abling":12591,"abilities":12592,"Ġtox":12593,"Ġretain":12594,"railroad":12595,"otrans":12596,"oticon":12597,"ceed":12598,"cember":12599,"igher":12600,"ĠLet":12601,"ĠLINE":12602,"ĠLarge":12603,"ĠLARS":12604,"ĠLiang":12605,"ĠLARC":12606,"Ġann":12607,"Ġansi":12608,"Ġforms":12609,"Ġforces":12610,"ĠSans":12611,"ĠSeg":12612,"ĠSave":12613,"ĠShape":12614,"ĠSche":12615,"ĠScore":12616,"ĠSampler":12617,"ĠSAC":12618,"ĠSnowflake":12619,"ĠSmall":12620,"ĠSCAL":12621,"ĠSaves":12622,"ĠStochastic":12623,"ĠSDK":12624,"ĠSLURM":12625,"ĠSometimes":12626,"Ġ\"*":12627,"Ġ\")<":12628,"Ġ21":12629,"Ġ223":12630,"Ġ253":12631,"Ġoften":12632,"intens":12633,"intern":12634,"strft":12635,"ĠAF":12636,"ĠAc":12637,"ĠAnn":12638,"ĠAlex":12639,"ĠAggreg":12640,"ĠAerial":12641,"Ġ##":12642,"ida":12643,"than":12644,"though":12645,"Ġgr":12646,"Ġgst":12647,"Ġgam":12648,"Ġgist":12649,"Ġgzip":12650,"Ġguide":12651,"Ġgiving":12652,"Ġgeom":12653,"Ġgpus":12654,"Ġgdal":12655,"Ġ-=":12656,"ĠNAS":12657,"ĠNested":12658,"ĠNadam":12659,"ational":12660,"ĠGert":12661,"ĠGrid":12662,"ĠGrad":12663,"ĠGStream":12664,"ĠGIF":12665,"ĠGREEN":12666,"ĠGlobal":12667,"ĠGrayScale":12668,"ĠIM":12669,"ĠIT":12670,"ĠIdent":12671,"ĠIoU":12672,"ĠIgnore":12673,"umb":12674,"ump":12675,"ums":12676,"ĠRot":12677,"ĠRenderable":12678,"ĠRob":12679,"ĠRES":12680,"ĠRetina":12681,"ĠRBRACKET":12682,"ĠRPAREN":12683,"ĠRyan":12684,"ĠRonacher":12685,"izers":12686,"ĠDi":12687,"ĠDif":12688,"ĠDFS":12689,"ĠDOTADataset":12690,"ĠDirectories":12691,"iring":12692,"iran":12693,"ubles":12694,"ribed":12695,"andoc":12696,"andalone":12697,"Ġvisit":12698,"Ġvikas":12699,"Ġvisib":12700,"ĠPyCryptodome":12701,"ĠFF":12702,"ĠFuture":12703,"ĠFFI":12704,"ĠFraction":12705,"ĠFused":12706,"ĠFollow":12707,"emote":12708,"atever":12709,"Ġ_)":12710,"places":12711,"platlib":12712,"pathitems":12713,"Ġhr":12714,"Ġhide":12715,"Ġhorizont":12716,"Ġhydra":12717,"tereo":12718,"ssh":12719,"ssize":12720,"ssdod":12721,"Ġfilesize":12722,"conda":12723,"consum":12724,"conversions":12725,"consecutive":12726,"Ġoriented":12727,"Ġ\"\"\".":12728,"Ġ\"\"\"``":12729,"Ġ\"\"\"\\<":12730,"completion":12731,"Ġconcat":12732,"Ġconstant":12733,"Ġconverts":12734,"Ġstrong":12735,"Ġunlike":12736,"Ġunknown":12737,"Ġunused":12738,"Ġunmut":12739,"Ġunders":12740,"Ġunichr":12741,"Ġunadorned":12742,"Ġ[('":12743,"Ġ[]))<":12744,"apf":12745,"aped":12746,"Ġ17":12747,"Ġ101":12748,"paration":12749,"ysics":12750,"getroot":12751,"getattribute":12752,"getTreeWalker":12753,"Ġbeyond":12754,"ĠOK":12755,"ĠOur":12756,"ĠOper":12757,"ĠOperator":12758,"ĠOfficial":12759,"ĠOdds":12760,"Ġnotation":12761,"irection":12762,"libname":12763,"libyaml":12764,"libfuturize":12765,"ĠMon":12766,"ĠMain":12767,"ĠMSI":12768,"ĠMesh":12769,"ĠMachine":12770,"ĠMSV":12771,"ĠMXNet":12772,"ĠMedian":12773,"ĠMunkres":12774,"('\"":12775,"(':":12776,"('')<":12777,"('>'":12778,"------------------------------------------------------------------------------<":12779,"Instance":12780,"Information":12781,"Installed":12782,"Ġstem":12783,"Ġstages":12784,"Ġstuff":12785,"Ġstickers":12786,"Ġstrips":12787,"Ġstandalone":12788,"filepaths":12789,"Ġdeinit":12790,"Ġdemo":12791,"Ġdeep":12792,"Ġdelay":12793,"Ġdeltas":12794,"Ġdetections":12795,"verProxy":12796,"vergence":12797,"Ġ2004":12798,"Ġ2045":12799,"ĠBot":12800,"ĠBall":12801,"ĠBound":12802,"ĠBax":12803,"ĠBuffer":12804,"ĠBEL":12805,"ĠBilinear":12806,"ĠBFS":12807,"ĠBroken":12808,"ĠBorrowed":12809,"Ġdistributing":12810,"quot":12811,"quotes":12812,"()).":12813,"()['":12814,"cker":12815,"Ġimshow":12816,"Ġimprove":12817,"Ġimpossible":12818,"Ġiminuit":12819,"Ġexclusion":12820,"Ġexcluded":12821,"urlparse":12822,"Ġsoon":12823,"Ġsole":12824,"ifiy":12825,"Ġ000":12826,"ĠĠĠĠĠĠĠĠĠĠĠĠĠĠĠĠĠĠĠĠĠĠĠĠĠĠĠĠĠĠĠĠĠĠĠĠĠĠĠĠĠĠ":12827,"ĠĠĠĠĠĠĠĠĠĠĠĠĠĠĠĠĠĠĠĠĠĠĠĠĠĠĠĠĠĠĠĠĠĠĠĠĠĠĠĠĠĠĠĠĠĠ":12828,"SECON":12829,"SEMICOLON":12830,"Ġrbboxes":12831,"Ġrcos":12832,"Ġrlimit":12833,"Ġrhat":12834,"2012":12835,"2015":12836,"2047":12837,"pret":12838,"Ġease":12839,"Ġeager":12840,"putes":12841,">>>":12842,"raper":12843,"ftTarget":12844,"Ġgetopt":12845,"Ġgetstat":12846,"Ġgetoutput":12847,"Ġgetcwd":12848,"ĠWrapper":12849,"ĠWrit":12850,"ĠWhitespace":12851,"(\"(\"":12852,"(\"[\"":12853,"(\"\\\\":12854,"(\"{}":12855,"(\")\").":12856,"(\";\").":12857,"(\"@\").":12858,"(\"]\").":12859,"angled":12860,"ĠHybrid":12861,"ĠHIDE":12862,"Ġ31":12863,"Ġ33":12864,"Ġ38":12865,"Ġ39":12866,"Ġ301":12867,"Ġ303":12868,"Ġ345":12869,"Ġalmost":12870,"Ġalph":12871,"Ġalongs":12872,"ĠDefine":12873,"ĠDebian":12874,"Ġyapf":12875,"Ġparagraph":12876,"Ġparadig":12877,"Ġcompression":12878,"Ġcomparison":12879,"erners":12880,"perated":12881,"perties":12882,"permutation":12883,"Ġxr":12884,"Ġxception":12885,"ĠUS":12886,"ĠUbuntu":12887,"Ġsecure":12888,"Ġseperated":12889,"Ġclamp":12890,"Ġcluster":12891,"ĠEqual":12892,"ĠECA":12893,"ĠEIGHT":12894,"ĠEmail":12895,"ĠEmoj":12896,"ĠEDIT":12897,"ĠEMOJ":12898,"Ġtyped":12899,"Ġ{},":12900,"Ġproces":12901,"Ġprovider":12902,"Ġprotected":12903,"Ġwhatever":12904,"processed":12905,"proposals":12906,"protected":12907,"Ġunderstand":12908,"Ġintention":12909,"ĠPythons":12910,"0025":12911,"lyssdod":12912,"textwrap":12913,"scanner":12914,"scores":12915,"schemas":12916,"scraper":12917,"pecially":12918,"lows":12919,"..'))<":12920,"ATTR":12921,"Ġ``\"":12922,"Ġ``(":12923,"Ġ``@":12924,"Ġsupposed":12925,"ĠGenerate":12926,"INPUT":12927,"Record":12928,"ReDet":12929,"Recursive":12930,"Recognition":12931,"Refine":12932,"=====<":12933,"packagename":12934,"=''),<":12935,"='./":12936,"ĠmoduleFactoryFactory":12937,"ffn":12938,"ffbca":12939,"Ġresp":12940,"ĠresType":12941,"egration":12942,"ospace":12943,"ORD":12944,"ORMA":12945,"llinux":12946,"Ġenough":12947,"resp":12948,"modulegraph":12949,"Ġlisting":12950,"MAIN":12951,"MANI":12952,"iterations":12953,"ĠConstrain":12954,"ĠConditionally":12955,"ĠInstances":12956,"bases":12957,"baselines":12958,"ĠAnd":12959,"Ġarrow":12960,"Ġ***":12961,"):'":12962,"Ġcontinu":12963,"Ġcontroller":12964,"Ġurljoin":12965,"orders":12966,"Ġ`__":12967,"Login":12968,"backed":12969,"backbones":12970,"SSR":12971,"Ġpyqt":12972,"['\\":12973,"Ġcanvas":12974,"ugin":12975,"Ġpreference":12976,"Ġprepare":12977,"Ġprevents":12978,"Ġpreparation":12979,"rains":12980,"ĠhasChildren":12981,"Ġadministrators":12982,"Ġship":12983,"Ġshare":12984,"Ġshlex":12985,"activation":12986,"2105":12987,"ANNO":12988,"Ġscan":12989,"Ġscope":12990,"Ġscanner":12991,"Ġscikit":12992,"additional":12993,"Ġdictionaries":12994,"FAVORITE":12995,"ertific":12996,"itemgetter":12997,"parameter":12998,"OTH":12999,"mlvl":13000,"aster":13001,"posewidget":13002,"sourceModel":13003,"Ġclassname":13004,"ĠUnique":13005,"ĠUnknown":13006,"meter":13007,"metric":13008,"episode":13009,"ARDataset":13010,"torchsparse":13011,"Ġoutfp":13012,"arkNet":13013,"Ġnox":13014,"ETTE":13015,"xywh":13016,"regexp":13017,"job":13018,"ĠRepresenter":13019,"ĠRecons":13020,"ĠReportLab":13021,"configs":13022,"configobj":13023,"collap":13024,"columns":13025,"Ġheuristic":13026,"']\"<":13027,"attrgetter":13028,"Ġversioning":13029,"BaseVersion":13030,"BaseResolver":13031,"BaseAssigner":13032,"BaseBBoxCoder":13033,"BaseStorageBackend":13034,"Ġprinting":13035,"Ġdefaulting":13036,"ALGOR":13037,"daemon":13038,"filesz":13039,"joins":13040,"uality":13041,"lended":13042,"validation":13043,"wininst":13044,"Ġbuilds":13045,"ereqs":13046,"Ġsubset":13047,"Ġsubcommand":13048,"Ġsubpackages":13049,"Ġsubdirs":13050,"Ġsubdirectory":13051,"Ġsubparts":13052,"EDT":13053,"Ġ['./":13054,"ĠArg":13055,"ĠArmin":13056,"ironpython":13057,"SIDD":13058,"appendChild":13059,"Ġnewline":13060,"announce":13061,"Ġaddresses":13062,"Ġanyone":13063,"Ġanyway":13064,"geo":13065,"Pygments":13066,"ĠResNe":13067,"GENTA":13068,"subject":13069,"subpart":13070,"tested":13071,"wei":13072,"lpType":13073,"lpName":13074,"lpRESOURCEID":13075,"Ġjwt":13076,"Ġjbwang":13077,"Ġjinja":13078,"forw":13079,"interior":13080,"interleave":13081,"kenneth":13082,"')\")<":13083,"functions":13084,"servedScalarString":13085,"ledge":13086,"CKS":13087,"ĠStd":13088,"ĠStat":13089,"ĠStack":13090,"ĠState":13091,"ĠStark":13092,"ĠStrip":13093,"ĠStoll":13094,"ĠStufft":13095,"ĠDictConverter":13096,"ava":13097,"avig":13098,"Ġreadable":13099,"convex":13100,"ENTITY":13101,"Ġrunpy":13102,"016":13103,"Ġdetail":13104,"Ġdetailed":13105,"Ġ\\|":13106,"ĠBaseSpecifier":13107,"afa":13108,"Ġextend":13109,"Ġextens":13110,"Ġextending":13111,"Ġcopymod":13112,"coo":13113,"cois":13114,"couri":13115,"Ġquick":13116,"Ġquantize":13117,"Ġquopri":13118,"Ġquirks":13119,"htmlparser":13120,"dating":13121,"datadir":13122,"Ġ40":13123,"Ġ44":13124,"Ġzone":13125,"Ġzsrc":13126,"Ġztgt":13127,"Ġlinear":13128,"compilers":13129,"ecutable":13130,"Ġiteration":13131,"Ġiterating":13132,"Ġiterators":13133,"uffle":13134,"detail":13135,"Ġregion":13136,"Ġconfigs":13137,"Ġconfigured":13138,"checked":13139,"([[":13140,"([])<":13141,"via":13142,"vikas":13143,"Ġaccount":13144,"Ġaccessed":13145,"EXCL":13146,"timedelta":13147,"timezone":13148,"Ġmetrics":13149,"scripted":13150,"prereleases":13151,"Ġupsampling":13152,"Ġplus":13153,"ASAssigner":13154,"ASSES":13155,"Ġdisk":13156,"Ġdisco":13157,"Ġdisallowed":13158,"Ġdiscovery":13159,"encodestring":13160,"Ġinterf":13161,"Ġinterior":13162,"Ġminutes":13163,"dimension":13164,"featmap":13165,"abcd":13166,"PYPI":13167,"linked":13168,"Ġ...\"":13169,"Ġ...]]":13170,"Ġinstallable":13171,"monof":13172,"\"))":13173,"\")]<":13174,"\")(\"":13175,"\")[-":13176,"PIP":13177,"PIPAL":13178,"PIPELINES":13179,"funcs":13180,"markdown":13181,"Ġoptsep":13182,"noah":13183,"noelp":13184,"nostic":13185,"ashion":13186,"ighlights":13187,"imageio":13188,"ridden":13189,"processError":13190,"Ġfindall":13191,"rolled":13192,"icalOverflowMethod":13193,"Ġyielding":13194,"Ġstarted":13195,"PythonVersion":13196,"ĠJust":13197,"ĠJIT":13198,"ĠJoin":13199,"ĠJustifyMethod":13200,"Ġpositions":13201,"FileCache":13202,"Strings":13203,"eying":13204,"newbytes":13205,"stdin":13206,"stdcall":13207,"LESS":13208,"Ġelimin":13209,"ĠSets":13210,"ĠSetFileAttributes":13211,"VersionControl":13212,"implements":13213,"plications":13214,"PRISE":13215,"Union":13216,"Unable":13217,"Uniform":13218,"Unrecognized":13219,"shaders":13220,"Ġremoves":13221,"Ġstatements":13222,"ĠExclude":13223,"ĠExponent":13224,"ĠExecutable":13225,"ĠVersionType":13226,"ĠVersionControl":13227,"1920":13228,"1912":13229,"1903":13230,"CHAR":13231,"flush":13232,"Ġsomehow":13233,"Change":13234,"ĠYield":13235,"ĠYour":13236,"ĠYELLOW":13237,"Ġrepresentative":13238,"HTTPS":13239,"\\\\\\":13240,"Ġoverall":13241,"Ġoverflow":13242,"Ġoverridden":13243,"065":13244,"0617":13245,"TRAN":13246,"TROL":13247,"pooling":13248,"Ġsymmetric":13249,"ĠConvolutions":13250,"ĠConvMlp":13251,"Ġtokenize":13252,"Settings":13253,"credential":13254,"namespaces":13255,"Ġtempd":13256,"Ġactive":13257,"ĠEnd":13258,"ĠEncode":13259,"Ġ[\"_":13260,"Distributed":13261,"IIQQQQ":13262,"discriminator":13263,"ĠtreeItem":13264,"Provide":13265,"ooser":13266,"alkers":13267,"Ġflip":13268,"Ġflake":13269,"Ġyourformatter":13270,"5564":13271,"span":13272,"spore":13273,"spinners":13274,"1710":13275,"DataBase":13276,"TokenFormatter":13277,"treebuilder":13278,"Ġ5322":13279,"Ġmanifest":13280,"Ġ1080":13281,"STRONG":13282,"Ġoperating":13283,"IDATION":13284,"Ġinitially":13285,"Ġnormalization":13286,"Ġmodifications":13287,"ĠAdds":13288,"aked":13289,"akKey":13290,"Ġ76":13291,"existing":13292,"Ġsockets":13293,"Ġpythonapi":13294,"Getopt":13295,"Ġstatistics":13296,"FIRST":13297,"ĠCollection":13298,"ĠForward":13299,"BOP":13300,"signature":13301,"Ġ66":13302,"Ġ656":13303,"Ġencodes":13304,"what":13305,"Ġlinking":13306,"ĠStrings":13307,"azimuth":13308,"locations":13309,"Ġpolicies":13310,"Ġworkaround":13311,"ĠInvalidMarker":13312,"ĠInvalidSdist":13313,"Tuples":13314,"modifier":13315,"modifiers":13316,"Detect":13317,"downsample":13318,"variable":13319,"varfmt":13320,"ĠXiao":13321,"RequestWarning":13322,"Attempt":13323,"Ġtravers":13324,"))[":13325,"))]<":13326,"ListModel":13327,"]]]:<":13328,"Ġ80":13329,"Ġsingleton":13330,"Ġwarns":13331,"**(":13332,"{}.":13333,"Ġreduced":13334,"ĠRotatedBBoxHead":13335,"ĠRotatedStandardRoIHead":13336,"ĠRotatedAnchorHead":13337,"DATACENTER":13338,"DATASETS":13339,"LossMulti":13340,"Ġappname":13341,"tokenizer":13342,"Ġscripting":13343,"LOGS":13344,"patching":13345,"digraph":13346,"fnmatch":13347,"Ġobeying":13348,"Ġwidths":13349,"Ġstandards":13350,"\"][\"":13351,">\"\"\")<":13352,"Section":13353,"SelecSLS":13354,"hashlib":13355,"999":13356,"matmul":13357,"ĠAPIs":13358,"Ġlooks":13359,"Ġlooking":13360,"Ġexplo":13361,"Added":13362,"blake":13363,"modes":13364,"obNet":13365,"Ġmatched":13366,"ĠRegression":13367,"platforms":13368,"ParseResults":13369,"230":13370,"234":13371,"UNICODE":13372,"synt":13373,"Ġsplits":13374,"169":13375,">)(\"_":13376,"Many":13377,"ĠChu":13378,"ĠChen":13379,"ĠChange":13380,"ĠChild":13381,"ĠChanges":13382,"ĠChainMap":13383,"projects":13384,"ĠchildItem":13385,"Ġentrypoints":13386,"=[<":13387,"hashed":13388,"Ġfiltername":13389,"Ġlocated":13390,"Ġlocations":13391,"Ġcompilation":13392,"Ġcompilers":13393,"Ġscales":13394,"Ġoperators":13395,"086":13396,"089":13397,"Keyword":13398,"elementTree":13399,"Codes":13400,"Raises":13401,"cmdline":13402,"ĠPROPS":13403,"={\"":13404,"RotatedBBoxHead":13405,"RotatedAnchorGenerator":13406,"RotatedRetinaNet":13407,"dumper":13408,"rancois":13409,"systemWheel":13410,"Ġqkv":13411,"Ġmymodule":13412,"Ġmymax":13413,"Ġmymin":13414,"ĠAllow":13415,"ĠAlias":13416,"ĠAliases":13417,"('.'):<":13418,"ExtType":13419,"Extensions":13420,"ĠMIMEBase":13421,"ĠWeakKey":13422,"BUF":13423,"passport":13424,"Ġverifiy":13425,"Ġstructural":13426,"1810":13427,">''":13428,"Ġ\"\\\"":13429,"ireddy":13430,"GraphUtil":13431,"GraphAlgo":13432,"Models":13433,"MethodType":13434,"MessageError":13435,"WORKER":13436,"createposewidget":13437,"enny":13438,"Ġdotty":13439,"ĠScan":13440,"IntEnum":13441,"ĠHTMLInput":13442,"Ġseparately":13443,"Ġrenderables":13444,"096":13445,"xmlrpc":13446,"Ġmarks":13447,"Ġmarker":13448,"ĠAND":13449,"ĠANCHOR":13450,"factoringTool":13451,"ĠedgeData":13452,"Ġedgefn":13453,"COMBIN":13454,"bleak":13455,"opefully":13456,"Ġkeeping":13457,"443":13458,"4486":13459,"HOOK":13460,"KEYWORD":13461,"SubprocessError":13462,"Ġ9000":13463,"aligned":13464,"Ġreasons":13465,"Ġdowngrade":13466,"Ġadapters":13467,"Ġjustification":13468,"NECKS":13469,"Ġautocomplete":13470,"Ġstdin":13471,"ĠUserRegister":13472,"ĠUserLogin":13473,"RegNet":13474,"Regression":13475,"\"{'-'":13476,"Markup":13477,"Ord":13478,"Order":13479,"QtWidgets":13480,"bev":13481,"ĠPATCH":13482,"ĠSEMICOLON":13483,"ĠConfigParser":13484,"ĠConfigHandler":13485,"ĠConfigOption":13486,"NAMED":13487,"HookMissing":13488,"longlong":13489,"private":13490,"Ġ~~~~~~~~~~~~~~~~~<":13491,"Ġ~~~~~~~~~~~~~~~~~~~<":13492,"refresh":13493,"refspecs":13494,"localid":13495,"254":13496,"DOUT":13497,"IMIT":13498,"titles":13499,"ĠSTDOUT":13500,"ĠParserImage":13501,"8601":13502,"8657":13503,"Ġautom":13504,"Ġautodoc":13505,"Ġautotrans":13506,"InvalidMarker":13507,"valuate":13508,"mitted":13509,"Ġcustomize":13510,"Ġcustomizing":13511,"ĠFreezable":13512,"BACKBON":13513,"FieldType":13514,"Scanner":13515,"satisfied":13516,"ĠjoinString":13517,"Ġtransfer":13518,"Ġtranslation":13519,"Ġblack":13520,"Ġblend":13521,"ĠClassification":13522,"Ġgoogle":13523,"ControlType":13524,"ControlCode":13525,"AMEL":13526,"]+\")<":13527,"Ġrefresh":13528,"entrypoint":13529,"ĠLinks":13530,"ĠFORMAT":13531,"Ġdelimiter":13532,"StreamHandler":13533,"EndUpdateResource":13534,"({'":13535,"Adaptive":13536,"General":13537,"Prepare":13538,"_.\")<":13539,"_.]+\")<":13540,"cosypose":13541,"Ġfailures":13542,"accdata":13543,"childNodes":13544,"Ġviewport":13545,"Ġviewkeys":13546,"bounding":13547,"ushy":13548,"ClientId":13549,"ACCE":13550,"Array":13551,"BuildTag":13552,"BuildSystem":13553,"Ġreqs":13554,"Ġavoids":13555,"ĠennConv":13556,"ĠennReLU":13557,"ĠennMaxPool":13558,"StartTag":13559,"Ġindicates":13560,"Ġoffsets":13561,"357":13562,"CONTROL":13563,"pixel":13564,"Ġcython":13565,"Ġdump":13566,"ĠModelEma":13567,"Ġequality":13568,"Ġperformed":13569,"Application":13570,"Applies":13571,"Calls":13572,"SYMBOL":13573,"Ġsuitable":13574,"Ġsampled":13575,"threads":13576,"Ġdecorated":13577,"namespaceHTMLElements":13578,"(?:":13579,"CallableOperator":13580,"GRP":13581,"LPWSTR":13582,"QQQI":13583,"XXX":13584,"typed":13585,"Ġporting":13586,"Ġsigmoid":13587,"Ġsigmas":13588,"ĠTOptional":13589,"Ġtoklist":13590,"Ġ\"\\\\\\\\":13591,"ĠMAGENTA":13592,"ĠMarkedYAMLError":13593,"ĠBackbones":13594,"())(\"":13595,"ĠAnchorGenerator":13596,"Ġaccessible":13597,"Lee":13598,"Learning":13599,"LeViT":13600,"PNG":13601,"Ġ'&#":13602,"tokentype":13603,"ĠStreamMark":13604,"ĠStreamTextType":13605,"ChildNodes":13606,"Ġessent":13607,"Ġespecially":13608,"aliasing":13609,"Ġfixers":13610,"ĠdwFlags":13611,"Ġdropped":13612,"Ġ'/'":13613,"ĠChecks":13614,"ĠAbstracts":13615,"ĠAbstractProvider":13616,"InputPlane":13617,"Ġdecide":13618,"Ġdecision":13619,"ĠBecker":13620,"()``,<":13621,"ĠResNets":13622,"Ġplugin":13623,"Ġinitialized":13624,"airo":13625,"Ġcells":13626,"Ġpatching":13627,"ĠSUDO":13628,"ĠSUPPORT":13629,"ĠShort":13630,"Ġexcludes":13631,"Ġscoreboard":13632,"Defaults":13633,"expanduser":13634,"971":13635,"PackageFinder":13636,"autoreset":13637,"Ġ-----------------------------------<":13638,"Ġmacosx":13639,"Ġskipped":13640,"57745":13641,"Checks":13642,"TAXON":13643,"fastero":13644,"ierarch":13645,"lucid":13646,"namedtuple":13647,"ornia":13648,"Ġrecently":13649,"Ġsummary":13650,"Ġinheriting":13651,"Ġmonth":13652,"Ġmonospace":13653,"Ġmimic":13654,"adapter":13655,"Ġtoolbox":13656,"Ġanti":13657,"ĠSpecify":13658,"ĠExtType":13659,"ĠExtract":13660,"ĠExtension":13661,"Ġcontributors":13662,"FORM":13663,"HHI":13664,"gdk":13665,"Ġsorting":13666,"ĠLPCTSTR":13667,"ĠLegacySpecifier":13668,"ĠGrouped":13669,"ĠRoot":13670,"ĠRobin":13671,"ĠOverride":13672,"ĠMultiEpoch":13673,"Ġproduced":13674,"StandardLibrary":13675,"Ġmanipulate":13676,"FutureStandardLibrary":13677,"PlatformDirs":13678,"TEST":13679,"diff":13680,"iagnostic":13681,"vovnet":13682,"Ġtriple":13683,"legal":13684,"Ġwalking":13685,"ĠPerry":13686,"ĠActivations":13687,"ĠHookMissing":13688,"ĠIndexError":13689,"Ġformatted":13690,"ĠRegularization":13691,"->\"))<":13692,"370":13693,"RAG":13694,"SimplePath":13695,"Trivial":13696,"TIMEOUT":13697,"VALUE":13698,"VALIDATION":13699,"Validator":13700,"WinDLL":13701,"does":13702,"ietf":13703,"Ġreporting":13704,"Ġreported":13705,"Ġsuffixes":13706,"ĠTestCase":13707,"Ġmemcached":13708,"ĠSafeLoader":13709,"constructors":13710,"ĠMishJitAutoFn":13711,"Ġenabled":13712,"ĠCompiler":13713,"Ġoptimized":13714,"ĠJSONDecodeError":13715,"Ġsynchronous":13716,"ĠAlignConv":13717,"Ġdownloading":13718,"Ġcertificates":13719,">================================================":13720,"APScheduler":13721,"TooShort":13722,"fdopen":13723,"revctrl":13724,"Ġtomli":13725,"Ġdrive":13726,"Ġdrivers":13727,"exclusion":13728,"exclusions":13729,"ĠServerProxy":13730,"ĠFullLoader":13731,"AndCompute":13732,"567812345678":13733,"IIIIIIII":13734,"IIIIHHH":13735,"ExtraData":13736,"Ġ-----------------------------------------------------<":13737,"Ġ--------------------------------------------------------------<":13738,"Ġbrackets":13739,"*)?$":13740,"Once":13741,"[^@]+":13742,"even":13743,"finalize":13744,"finalized":13745,"mktime":13746,"macos":13747,"__}('{":13748,"Ġinserted":13749,"Ġbindings":13750,"confstr":13751,"ĠObjectGraph":13752,"Interface":13753,"Interpolate":13754,"Ġcombinations":13755,"ĠVerify":13756,"Ġrespons":13757,"Ġencoders":13758,"StackError":13759,"TRAIN":13760,"credits":13761,"Alignment":13762,"+)*\\":13763,"+)(.*)\")<":13764,"aefc":13765,"basicsr":13766,"gammahat":13767,"hrdad":13768,"triplet":13769,"Ġpopup":13770,"Ġshell":13771,"Ġshebang":13772,"ĠPosePredict":13773,"ĠCreates":13774,"Ġassumes":13775,"ĠGuildInvite":13776,"ĠGuildJoin":13777,"ĠDatabaseAware":13778,"Ġuvz":13779,"ĠMoving":13780,"InvariantViolation":13781,"Ġdepthwise":13782,"ĠBLACK":13783,"ĠBLUE":13784,"ĠSectioned":13785,"ĠStartBoundaryNotFoundDefect":13786,"Ġregexes":13787,"flipud":13788,"Ġsymbolic":13789,"Ġsymbolizing":13790,"BUILDER":13791,"ĠParameterized":13792,"ĠSelectiveKernel":13793,"RepPointsHead":13794,">.+?)":13795,"FEST":13796,"XYZ":13797,"linuxfound":13798,"traitlets":13799,"Ġcapable":13800,"Ġcapabilities":13801,"Ġcareful":13802,"Ġcarefully":13803,"iliates":13804,"Ġdenormalize":13805,"Ġwrites":13806,"ĠTFDS":13807,"Ġangle":13808,"Ġangular":13809,"Ġangles":13810,"Ġ\"/\"":13811,"ĠABCMeta":13812,"ĠNAMED":13813,"ĠFILETIME":13814,"ĠMixNet":13815,"(\"-_.\")<":13816,"ĠEditablePartial":13817,"ĠEnumResource":13818,"Ġpropag":13819,"ĠUnpacker":13820,"ITHM":13821,"CODED":13822,"ĠCharsetMatch":13823,"ĠSupportsInt":13824,"DBG":13825,"Database":13826,"LegacySpecifier":13827,"Plugin":13828,"Supports":13829,"WINFUNCT":13830,"phans":13831,"reportlab":13832,"Ġturns":13833,"Ġpushd":13834,"Ġreplaced":13835,"Ġnaturally":13836,"Ġmixup":13837,"adamw":13838,"ĠSqueezeExcite":13839,"ĠINFO":13840,"ĠDownload":13841,"ĠFaster":13842,"ĠOriginally":13843,"Ġexitcode":13844,"Ġprojection":13845,"Ġprotocols":13846,"SIMPL":13847,"ĠResolutionImpossible":13848,"ĠCommentCheck":13849,"ENTERPRISE":13850,"ConvexIoUAssigner":13851,"markupbase":13852,"ĠTextureCache":13853,"ĠControlType":13854,"ĠRotatedSingleRoIExtractor":13855,"TOMLDecodeError":13856,"ĠBackendInvalid":13857,"ĠBackendUnavailable":13858,"neighborhoods":13859,"ĠInitialise":13860,"=\",\",":13861,"Document":13862,"GTK":13863,"HardSigmoid":13864,"NonRecursive":13865,"WARN":13866,"hypot":13867,"sheets":13868,"toolkits":13869,"Ġ~~~~~~~~~~~~~~~<":13870,"Ġ~~~~~~~~~~~~~~<":13871,"Ġfrontend":13872,"Ġcaused":13873,"Ġcalculated":13874,"Ġpsutil":13875,"peechRecognition":13876,"ĠCredRead":13877,"ĠCredWrite":13878,"ĠSwishJitAutoFn":13879,"ĠGVRatio":13880,"ĠDLLs":13881,"ĠFielding":13882,"Ġconfusion":13883,"Ġconfidence":13884,"ĠORConv":13885,"ĠMixedConv":13886,"quaternion":13887,"ĠrcdataElements":13888,"ĠWORKER":13889,"ĠInterface":13890,"ĠInsecureRequestWarning":13891,"Ġpreferred":13892,"ĠRequirements":13893,"webm":13894,"webview":13895,"Ġ~~~~~~~~~~~~~~~~~~~~~~~~~<":13896,"ĠPlatformDirsABC":13897,"Ġmechanisms":13898,"EVEN":13899,"EfficientNet":13900,"LIBRARY":13901,"PALETTE":13902,"RANK":13903,"RANGE":13904,"Scaler":13905,"Scaling":13906,"binding":13907,"gaolibtreeitem":13908,"Ġaiogram":13909,"Ġsatisfy":13910,"Ġderived":13911,"ĠPIPELINES":13912,"ĠCosineLRScheduler":13913,"Ġretrieved":13914,"Ġ\":\"":13915,"ĠAugmented":13916,"ĠNegativeInfinityType":13917,"ĠDirectedGraph":13918,"Ġ1999":13919,"truncated":13920,"Ġdeclared":13921,"Ġimplicitly":13922,"(\",\").":13923,"Ġclaims":13924,"Ġclaimed":13925,"Ġroutine":13926,"Ġroutines":13927,"activestate":13928,"ĠUndefinedComparison":13929,"ĠUndefinedEnvironmentName":13930,"manylinux":13931,"Status":13932,"Ġinterpreting":13933,"UndefinedComparison":13934,"UndefinedEnvironmentName":13935,"ĠInstallationSubprocessError":13936,"ĠCOMMENT":13937,"ĠHardSwishJitAutoFn":13938,"ĠHardSigmoidJitAutoFn":13939,"11929":13940,"However":13941,"LEXER":13942,"Matches":13943,"PipError":13944,"Rotational":13945,"capitalize":13946,"linenos":13947,"nfnets":13948,"niqe":13949,"sunpy":13950,"xls":13951,"yourcar":13952,"Ġ}[":13953,"Ġaffiliates":13954,"Ġfinest":13955,"Ġcleandoc":13956,"Ġcurly":13957,">#%%<":13958,
[...]
